<unk>	0
<s>	0
</s>	0
▁t	-0
he	-1
▁a	-2
▁the	-3
""	-4
in	-5
▁s	-6
▁o	-7
re	-8
▁w	-9
nd	-10
is	-11
▁c	-12
at	-13
er	-14
▁b	-15
"""	-16
le	-17
or	-18
▁f	-19
ou	-20
on	-21
▁and	-22
it	-23
en	-24
▁th	-25
▁m	-26
es	-27
▁of	-28
▁p	-29
▁h	-30
an	-31
ing	-32
▁to	-33
▁d	-34
▁in	-35
ar	-36
al	-37
ed	-38
▁"	-39
as	-40
om	-41
▁n	-42
ic	-43
ow	-44
▁"""	-45
ll	-46
▁u	-47
▁is	-48
ut	-49
."	-50
et	-51
ion	-52
."""	-53
ot	-54
ve	-55
▁I	-56
▁y	-57
▁l	-58
▁g	-59
▁be	-60
▁on	-61
▁e	-62
ct	-63
▁he	-64
se	-65
▁T	-66
ay	-67
im	-68
ent	-69
am	-70
▁that	-71
st	-72
▁S	-73
od	-74
nt	-75
▁we	-76
▁wh	-77
▁you	-78
▁re	-79
▁ha	-80
ce	-81
▁for	-82
▁se	-83
ith	-84
id	-85
ld	-86
▁this	-87
ro	-88
ur	-89
ig	-90
ill	-91
▁are	-92
▁A	-93
▁st	-94
▁as	-95
ra	-96
▁sh	-97
▁with	-98
ir	-99
▁C	-100
▁it	-101
ly	-102
her	-103
▁us	-104
▁le	-105
ver	-106
ge	-107
pe	-108
▁an	-109
▁not	-110
▁will	-111
ad	-112
ch	-113
if	-114
il	-115
▁com	-116
ke	-117
▁have	-118
▁P	-119
▁G	-120
ht	-121
▁L	-122
us	-123
▁fr	-124
ation	-125
▁B	-126
ial	-127
▁The	-128
And	-129
▁him	-130
th	-131
ul	-132
ain	-133
▁all	-134
ore	-135
▁de	-136
▁M	-137
ich	-138
lic	-139
ab	-140
ame	-141
▁W	-142
▁v	-143
ol	-144
▁can	-145
▁sa	-146
▁unt	-147
ile	-148
ate	-149
hen	-150
▁from	-151
▁them	-152
ck	-153
▁which	-154
ter	-155
▁or	-156
all	-157
▁unto	-158
▁al	-159
um	-160
▁by	-161
ord	-162
▁r	-163
ight	-164
and	-165
ss	-166
▁k	-167
▁ch	-168
ok	-169
ess	-170
▁J	-171
lick	-172
ers	-173
▁they	-174
est	-175
iv	-176
▁con	-177
▁me	-178
pt	-179
ment	-180
▁ex	-181
▁at	-182
▁was	-183
▁N	-184
▁H	-185
ple	-186
▁ne	-187
qu	-188
ant	-189
age	-190
ri	-191
so	-192
ere	-193
utor	-194
utorial	-195
▁F	-196
▁man	-197
▁E	-198
eth	-199
▁but	-200
ist	-201
▁do	-202
▁sp	-203
em	-204
lo	-205
our	-206
▁pro	-207
ie	-208
▁D	-209
▁ye	-210
art	-211
▁su	-212
▁go	-213
ect	-214
▁see	-215
▁his	-216
▁O	-217
ive	-218
▁ab	-219
ould	-220
ak	-221
ace	-222
▁your	-223
rou	-224
own	-225
ome	-226
ure	-227
▁who	-228
ud	-229
un	-230
ath	-231
▁lo	-232
▁pr	-233
▁Th	-234
▁also	-235
led	-236
▁dis	-237
av	-238
▁pre	-239
▁there	-240
▁R	-241
▁wor	-242
ard	-243
▁one	-244
▁our	-245
lect	-246
▁up	-247
out	-248
▁kn	-249
▁shall	-250
el	-251
ind	-252
▁fo	-253
▁int	-254
ype	-255
▁God	-256
▁has	-257
ine	-258
▁click	-259
▁out	-260
▁tutorial	-261
xt	-262
pl	-263
▁when	-264
ings	-265
able	-266
ire	-267
▁im	-268
ort	-269
ass	-270
In	-271
pp	-272
▁pl	-273
▁Y	-274
ake	-275
▁1	-276
are	-277
▁j	-278
ide	-279
▁so	-280
ous	-281
ast	-282
Now	-283
ust	-284
▁said	-285
▁file	-286
ays	-287
The	-288
ac	-289
▁type	-290
▁We	-291
fore	-292
▁K	-293
og	-294
▁po	-295
ari	-296
ions	-297
ice	-298
▁te	-299
ack	-300
ity	-301
ag	-302
reat	-303
ase	-304
ail	-305
ther	-306
▁here	-307
▁let	-308
ies	-309
cc	-310
ong	-311
For	-312
▁should	-313
ount	-314
ject	-315
ult	-316
▁into	-317
▁say	-318
ans	-319
ite	-320
ose	-321
one	-322
▁comm	-323
▁ad	-324
ep	-325
▁br	-326
ue	-327
▁select	-328
▁my	-329
▁thou	-330
▁am	-331
very	-332
▁This	-333
▁bo	-334
▁know	-335
ry	-336
au	-337
▁li	-338
sh	-339
▁were	-340
▁Ch	-341
▁ar	-342
▁fe	-343
▁their	-344
esus	-345
▁if	-346
▁Let	-347
▁co	-348
▁now	-349
pen	-350
▁tw	-351
..	-352
▁these	-353
▁come	-354
ip	-355
oken	-356
▁ag	-357
▁mo	-358
▁had	-359
▁(	-360
gh	-361
other	-362
So	-363
▁Jesus	-364
▁'	-365
here	-366
int	-367
per	-368
ness	-369
▁about	-370
▁right	-371
▁bec	-372
▁ke	-373
▁name	-374
▁then	-375
iz	-376
irst	-377
▁It	-378
fter	-379
▁more	-380
▁any	-381
ink	-382
▁no	-383
▁cont	-384
sel	-385
▁other	-386
ber	-387
▁lear	-388
ise	-389
▁V	-390
▁And	-391
ne	-392
▁get	-393
▁2	-394
▁cl	-395
ory	-396
ha	-397
ction	-398
ign	-399
▁qu	-400
ho	-401
▁things	-402
▁U	-403
▁down	-404
▁work	-405
ows	-406
ater	-407
▁Lord	-408
ach	-409
▁wr	-410
To	-411
▁col	-412
▁You	-413
ause	-414
▁using	-415
▁per	-416
But	-417
▁how	-418
▁two	-419
ang	-420
▁hand	-421
orm	-422
ff	-423
▁displ	-424
▁again	-425
ish	-426
▁tim	-427
ana	-428
▁what	-429
nder	-430
▁part	-431
▁en	-432
▁men	-433
▁like	-434
▁opt	-435
ci	-436
▁tr	-437
▁pe	-438
ence	-439
▁cal	-440
ble	-441
ary	-442
oy	-443
ound	-444
▁some	-445
ft	-446
▁command	-447
ance	-448
▁ob	-449
ved	-450
ru	-451
ght	-452
llow	-453
ild	-454
ree	-455
▁bre	-456
▁new	-457
▁space	-458
fere	-459
▁bod	-460
op	-461
▁open	-462
ia	-463
ren	-464
▁In	-465
▁bot	-466
▁back	-467
▁spe	-468
ave	-469
▁ent	-470
▁res	-471
▁use	-472
▁many	-473
put	-474
ven	-475
▁first	-476
nter	-477
rough	-478
▁un	-479
▁press	-480
▁add	-481
▁ear	-482
ange	-483
les	-484
▁.	-485
hat	-486
ap	-487
min	-488
▁body	-489
▁vari	-490
ather	-491
▁may	-492
▁through	-493
▁giv	-494
ield	-495
▁Ind	-496
itt	-497
▁Click	-498
▁St	-499
▁learn	-500
hes	-501
ered	-502
▁came	-503
▁He	-504
ress	-505
▁sl	-506
ves	-507
▁val	-508
cl	-509
▁ser	-510
ated	-511
▁time	-512
▁Sp	-513
form	-514
▁num	-515
ition	-516
▁acc	-517
▁follow	-518
▁great	-519
ethod	-520
▁called	-521
reate	-522
""""	-523
te	-524
▁every	-525
ode	-526
ople	-527
▁Enter	-528
If	-529
▁because	-530
ract	-531
ents	-532
▁same	-533
os	-534
▁butt	-535
▁before	-536
ms	-537
▁after	-538
ade	-539
▁hath	-540
act	-541
▁Now	-542
sion	-543
▁sc	-544
rist	-545
▁word	-546
▁page	-547
hed	-548
▁good	-549
▁image	-550
▁method	-551
▁aw	-552
▁field	-553
▁bl	-554
▁3	-555
lease	-556
▁-	-557
▁One	-558
▁dif	-559
▁used	-560
▁than	-561
▁Christ	-562
ec	-563
ram	-564
▁set	-565
▁people	-566
▁left	-567
▁sy	-568
ward	-569
▁imp	-570
round	-571
▁inst	-572
▁under	-573
▁rec	-574
▁make	-575
ark	-576
▁bel	-577
,"""	-578
▁want	-579
▁ap	-580
▁button	-581
▁only	-582
▁thee	-583
yp	-584
ical	-585
ars	-586
▁ra	-587
▁been	-588
▁comp	-589
get	-590
▁she	-591
▁over	-592
▁count	-593
▁where	-594
▁Boy	-595
ull	-596
lp	-597
ew	-598
urn	-599
▁her	-600
,"	-601
ments	-602
▁pass	-603
▁che	-604
▁day	-605
▁made	-606
▁water	-607
ife	-608
ower	-609
ces	-610
self	-611
tain	-612
▁class	-613
rib	-614
ood	-615
▁need	-616
ash	-617
▁thy	-618
stem	-619
▁def	-620
▁differe	-621
ants	-622
ext	-623
etail	-624
ah	-625
we	-626
wn	-627
ond	-628
▁rem	-629
Th	-630
br	-631
ont	-632
▁help	-633
▁form	-634
▁world	-635
▁displays	-636
▁Tutorial	-637
▁key	-638
▁way	-639
▁saying	-640
▁la	-641
▁lay	-642
Then	-643
ied	-644
▁give	-645
▁des	-646
▁number	-647
▁ro	-648
ample	-649
▁text	-650
▁stud	-651
▁create	-652
▁Sh	-653
ama	-654
▁et	-655
▁dot	-656
▁tool	-657
ful	-658
▁both	-659
▁bet	-660
▁end	-661
▁option	-662
ruct	-663
▁change	-664
▁ey	-665
▁another	-666
als	-667
etails	-668
ving	-669
red	-670
ove	-671
▁line	-672
▁variable	-673
li	-674
▁ind	-675
▁gra	-676
ouse	-677
ations	-678
orn	-679
▁Ad	-680
up	-681
ever	-682
▁look	-683
▁would	-684
▁own	-685
▁wind	-686
▁ver	-687
bs	-688
▁India	-689
▁object	-690
▁different	-691
row	-692
▁link	-693
▁Se	-694
▁prog	-695
ither	-696
▁rece	-697
▁must	-698
▁Spoken	-699
▁sm	-700
hy	-701
cess	-702
▁being	-703
cre	-704
rop	-705
▁even	-706
▁print	-707
▁gl	-708
gin	-709
:"	-710
ute	-711
▁ho	-712
▁creat	-713
▁those	-714
▁box	-715
▁bra	-716
▁went	-717
▁country	-718
ons	-719
▁fa	-720
:"""	-721
irit	-722
ens	-723
▁food	-724
▁cur	-725
▁dire	-726
gan	-727
▁such	-728
read	-729
bo	-730
▁av	-731
ick	-732
sw	-733
▁life	-734
▁whom	-735
▁fun	-736
▁str	-737
▁pract	-738
▁“	-739
ale	-740
ote	-741
▁start	-742
▁etc	-743
▁program	-744
ors	-745
▁move	-746
dom	-747
▁value	-748
▁ass	-749
▁cle	-750
▁import	-751
This	-752
▁details	-753
▁blo	-754
ally	-755
▁belie	-756
na	-757
ermin	-758
▁output	-759
▁list	-760
ily	-761
▁fl	-762
ank	-763
ates	-764
▁child	-765
inu	-766
▁tab	-767
load	-768
▁sin	-769
▁very	-770
ax	-771
Here	-772
▁earth	-773
alk	-774
▁check	-775
▁write	-776
▁answ	-777
▁window	-778
▁given	-779
▁cond	-780
▁user	-781
▁4	-782
▁faith	-783
edit	-784
▁spoken	-785
▁colour	-786
bu	-787
▁done	-788
▁Go	-789
▁record	-790
arm	-791
▁heav	-792
?"	-793
▁upon	-794
▁direct	-795
▁saith	-796
As	-797
▁Pro	-798
▁dra	-799
▁off	-800
▁sim	-801
ues	-802
▁take	-803
igh	-804
▁What	-805
▁layer	-806
▁appe	-807
?"""	-808
▁clo	-809
ray	-810
ature	-811
▁keep	-812
▁rel	-813
▁top	-814
▁might	-815
▁state	-816
▁project	-817
▁5	-818
ava	-819
▁book	-820
▁within	-821
▁‘	-822
▁without	-823
ning	-824
▁please	-825
ub	-826
▁head	-827
▁example	-828
less	-829
▁eat	-830
▁min	-831
nce	-832
ets	-833
ault	-834
▁tak	-835
▁hands	-836
▁ins	-837
▁less	-838
gether	-839
▁together	-840
▁place	-841
ost	-842
▁cour	-843
▁prom	-844
ize	-845
▁sub	-846
uch	-847
ines	-848
▁king	-849
00	-850
its	-851
▁following	-852
▁There	-853
We	-854
When	-855
ener	-856
odu	-857
▁did	-858
acher	-859
▁These	-860
▁just	-861
▁side	-862
▁display	-863
▁while	-864
▁So	-865
ific	-866
word	-867
▁speak	-868
▁disci	-869
ailable	-870
▁means	-871
▁i	-872
ular	-873
▁Bh	-874
It	-875
ages	-876
▁system	-877
ix	-878
▁equ	-879
▁put	-880
▁saw	-881
▁mus	-882
▁menu	-883
▁test	-884
▁house	-885
▁Then	-886
oga	-887
▁em	-888
hold	-889
▁exec	-890
▁1.	-891
▁To	-892
ting	-893
▁dou	-894
▁""""	-895
selves	-896
▁power	-897
erminal	-898
▁therefore	-899
ya	-900
▁nam	-901
▁run	-902
▁inter	-903
▁default	-904
▁available	-905
▁heaven	-906
▁read	-907
▁found	-908
ata	-909
ples	-910
▁heard	-911
formation	-912
ify	-913
▁Pr	-914
▁law	-915
▁enter	-916
ted	-917
▁code	-918
atch	-919
pect	-920
▁char	-921
▁Ar	-922
▁dev	-923
▁tem	-924
▁sent	-925
ts	-926
▁plants	-927
Next	-928
arch	-929
▁drop	-930
▁serv	-931
▁For	-932
▁app	-933
▁mind	-934
▁cer	-935
iver	-936
▁next	-937
ng	-938
▁days	-939
▁Father	-940
ph	-941
ities	-942
ible	-943
▁three	-944
▁main	-945
▁against	-946
eter	-947
▁its	-948
ween	-949
▁heart	-950
▁among	-951
▁supp	-952
ef	-953
uth	-954
brary	-955
ffect	-956
▁mult	-957
ser	-958
▁par	-959
▁away	-960
ledge	-961
▁breath	-962
▁const	-963
▁typ	-964
▁They	-965
▁eyes	-966
▁rest	-967
sp	-968
oice	-969
any	-970
ived	-971
asana	-972
▁process	-973
eous	-974
▁""	-975
▁As	-976
▁act	-977
▁vis	-978
▁chang	-979
▁between	-980
▁requ	-981
▁bring	-982
sent	-983
▁created	-984
▁Sy	-985
ious	-986
▁options	-987
end	-988
There	-989
itten	-990
▁bar	-991
ks	-992
ript	-993
ls	-994
▁each	-995
err	-996
inux	-997
▁assign	-998
▁bott	-999
▁terminal	-1000
▁sec	-1001
▁spec	-1002
▁bu	-1003
▁ev	-1004
▁disciples	-1005
itch	-1006
▁reg	-1007
▁son	-1008
▁brack	-1009
▁bas	-1010
ell	-1011
▁information	-1012
hal	-1013
ntu	-1014
buntu	-1015
Let	-1016
▁himself	-1017
▁leg	-1018
▁rep	-1019
▁files	-1020
▁think	-1021
▁written	-1022
▁ic	-1023
ures	-1024
ating	-1025
illed	-1026
▁Son	-1027
▁Ex	-1028
ared	-1029
▁comple	-1030
....	-1031
▁liv	-1032
▁sum	-1033
▁Save	-1034
▁Linux	-1035
▁organ	-1036
▁shown	-1037
▁If	-1038
▁hum	-1039
▁spirit	-1040
▁knowledge	-1041
ude	-1042
▁Re	-1043
thren	-1044
▁Add	-1045
▁pers	-1046
▁small	-1047
▁,	-1048
irc	-1049
tr	-1050
ired	-1051
▁red	-1052
▁prop	-1053
▁equal	-1054
▁quest	-1055
▁bottom	-1056
aj	-1057
▁sw	-1058
▁ask	-1059
▁ret	-1060
▁function	-1061
men	-1062
▁happ	-1063
ger	-1064
▁course	-1065
▁love	-1066
▁light	-1067
ird	-1068
rad	-1069
▁err	-1070
▁stand	-1071
▁cons	-1072
▁much	-1073
▁children	-1074
▁save	-1075
▁loc	-1076
▁Here	-1077
__	-1078
fo	-1079
inal	-1080
▁mess	-1081
▁Ubuntu	-1082
▁But	-1083
▁ele	-1084
wards	-1085
▁brethren	-1086
ee	-1087
▁att	-1088
ialog	-1089
ian	-1090
▁exp	-1091
▁pat	-1092
ified	-1093
▁learnt	-1094
nal	-1095
rit	-1096
▁pos	-1097
▁four	-1098
und	-1099
▁sing	-1100
▁words	-1101
;"""	-1102
▁second	-1103
oose	-1104
▁edit	-1105
▁practice	-1106
mb	-1107
▁stra	-1108
▁well	-1109
▁0	-1110
▁find	-1111
▁show	-1112
str	-1113
▁3.	-1114
▁incre	-1115
▁dialog	-1116
ides	-1117
▁wom	-1118
▁forth	-1119
;"	-1120
cept	-1121
▁cor	-1122
▁begin	-1123
.0	-1124
▁An	-1125
come	-1126
plain	-1127
ape	-1128
▁Project	-1129
▁•	-1130
▁dead	-1131
▁having	-1132
oha	-1133
▁answered	-1134
ib	-1135
ask	-1136
har	-1137
▁Type	-1138
▁dep	-1139
▁important	-1140
iew	-1141
▁fru	-1142
▁yet	-1143
ution	-1144
▁home	-1145
▁seen	-1146
▁whole	-1147
▁double	-1148
not	-1149
reen	-1150
▁sequ	-1151
▁De	-1152
atic	-1153
▁mak	-1154
▁hear	-1155
▁return	-1156
soever	-1157
▁2.	-1158
▁fore	-1159
▁long	-1160
▁helps	-1161
▁opens	-1162
down	-1163
lder	-1164
▁File	-1165
▁clean	-1166
▁known	-1167
▁point	-1168
ters	-1169
▁jud	-1170
On	-1171
▁Jew	-1172
▁father	-1173
aul	-1174
▁sk	-1175
▁directory	-1176
alth	-1177
otes	-1178
▁does	-1179
▁trans	-1180
▁Press	-1181
▁statement	-1182
ices	-1183
After	-1184
ording	-1185
vel	-1186
▁art	-1187
▁neither	-1188
▁fle	-1189
▁ref	-1190
▁version	-1191
apt	-1192
rought	-1193
rom	-1194
cus	-1195
▁gives	-1196
▁underst	-1197
cy	-1198
▁call	-1199
▁icon	-1200
▁summ	-1201
▁above	-1202
▁kingdom	-1203
▁Koha	-1204
▁oper	-1205
▁gener	-1206
▁present	-1207
ook	-1208
ouch	-1209
▁pal	-1210
▁cast	-1211
▁took	-1212
ced	-1213
▁pur	-1214
iness	-1215
▁pray	-1216
ission	-1217
ief	-1218
mic	-1219
ner	-1220
trl	-1221
ateg	-1222
▁able	-1223
▁How	-1224
▁pri	-1225
▁works	-1226
the	-1227
▁Su	-1228
ma	-1229
▁tutorials	-1230
▁That	-1231
▁mark	-1232
▁values	-1233
ases	-1234
▁ange	-1235
▁Select	-1236
der	-1237
name	-1238
▁too	-1239
▁close	-1240
Wh	-1241
▁Ed	-1242
▁conf	-1243
▁Man	-1244
▁array	-1245
▁cannot	-1246
ource	-1247
▁play	-1248
▁inside	-1249
▁Is	-1250
▁circ	-1251
▁mother	-1252
▁feet	-1253
▁color	-1254
oodle	-1255
ccount	-1256
▁sequence	-1257
day	-1258
arent	-1259
▁certain	-1260
ship	-1261
▁whe	-1262
▁id	-1263
rish	-1264
▁prophe	-1265
be	-1266
me	-1267
▁Li	-1268
▁Te	-1269
ipse	-1270
ittle	-1271
ready	-1272
▁last	-1273
▁glory	-1274
He	-1275
▁error	-1276
io	-1277
uring	-1278
ara	-1279
▁car	-1280
▁message	-1281
oth	-1282
ush	-1283
ized	-1284
roup	-1285
▁bit	-1286
▁prev	-1287
▁already	-1288
▁support	-1289
▁selected	-1290
▁breathing	-1291
▁construct	-1292
You	-1293
aught	-1294
▁prompt	-1295
▁ac	-1296
tern	-1297
▁Moodle	-1298
▁various	-1299
alt	-1300
▁10	-1301
▁Be	-1302
▁dr	-1303
▁sign	-1304
▁blood	-1305
ried	-1306
▁around	-1307
oc	-1308
▁fire	-1309
▁brought	-1310
▁gr	-1311
uted	-1312
▁Jews	-1313
▁city	-1314
▁conc	-1315
▁ground	-1316
velo	-1317
▁Ctrl	-1318
▁thing	-1319
▁section	-1320
oh	-1321
...	-1322
▁incl	-1323
▁according	-1324
nds	-1325
▁Al	-1326
▁assignment	-1327
▁My	-1328
ator	-1329
cts	-1330
edi	-1331
▁Java	-1332
▁most	-1333
▁choose	-1334
▁brother	-1335
ex	-1336
board	-1337
rah	-1338
velop	-1339
▁perform	-1340
▁6	-1341
ways	-1342
▁behold	-1343
▁install	-1344
▁data	-1345
ilar	-1346
▁could	-1347
aves	-1348
nding	-1349
owser	-1350
▁kind	-1351
▁webs	-1352
▁brackets	-1353
▁straight	-1354
▁understand	-1355
els	-1356
ual	-1357
cles	-1358
▁draw	-1359
ctions	-1360
gy	-1361
▁nor	-1362
▁little	-1363
▁7	-1364
sing	-1365
▁explain	-1366
▁teacher	-1367
▁variables	-1368
▁All	-1369
ories	-1370
▁gave	-1371
▁suff	-1372
▁white	-1373
▁priest	-1374
ten	-1375
ised	-1376
lier	-1377
▁full	-1378
▁slash	-1379
▁download	-1380
▁awk	-1381
ility	-1382
▁lesson	-1383
▁flo	-1384
aster	-1385
▁anim	-1386
▁ever	-1387
ains	-1388
anas	-1389
face	-1390
▁Fire	-1391
▁named	-1392
▁years	-1393
▁receive	-1394
()	-1395
▁seed	-1396
▁position	-1397
▁received	-1398
ier	-1399
ung	-1400
▁parent	-1401
▁jo	-1402
▁Yoga	-1403
▁dest	-1404
▁loop	-1405
▁path	-1406
ik	-1407
rect	-1408
▁tre	-1409
▁web	-1410
ished	-1411
▁Rama	-1412
ches	-1413
▁sat	-1414
▁System	-1415
▁single	-1416
▁condition	-1417
▁cent	-1418
clipse	-1419
rishna	-1420
▁quotes	-1421
▁objects	-1422
ric	-1423
▁div	-1424
▁mod	-1425
▁poss	-1426
▁person	-1427
hale	-1428
lete	-1429
▁organis	-1430
▁displayed	-1431
▁inv	-1432
▁case	-1433
▁step	-1434
▁Peter	-1435
▁death	-1436
▁nature	-1437
▁sea	-1438
▁try	-1439
acter	-1440
fox	-1441
▁Jer	-1442
▁true	-1443
▁block	-1444
▁depart	-1445
▁folder	-1446
▁Library	-1447
of	-1448
roll	-1449
▁post	-1450
▁table	-1451
▁website	-1452
ty	-1453
▁item	-1454
▁truth	-1455
.1	-1456
iron	-1457
▁high	-1458
▁stre	-1459
▁comes	-1460
▁whose	-1461
owly	-1462
▁eye	-1463
▁dark	-1464
▁walk	-1465
▁flesh	-1466
▁peace	-1467
▁round	-1468
▁ji	-1469
▁Paul	-1470
▁evil	-1471
▁frie	-1472
elcome	-1473
▁lines	-1474
▁health	-1475
▁struct	-1476
vern	-1477
▁fam	-1478
▁few	-1479
▁prov	-1480
▁tell	-1481
▁themselves	-1482
otice	-1483
▁temple	-1484
MP	-1485
hing	-1486
▁Indian	-1487
▁password	-1488
com	-1489
ariz	-1490
olon	-1491
ument	-1492
▁corn	-1493
▁voice	-1494
▁watch	-1495
▁fields	-1496
▁appears	-1497
wise	-1498
▁Who	-1499
▁respect	-1500
CT	-1501
▁wit	-1502
▁produ	-1503
▁conver	-1504
▁living	-1505
alem	-1506
▁hast	-1507
▁browser	-1508
▁earlier	-1509
gg	-1510
▁Ab	-1511
▁ID	-1512
usalem	-1513
▁student	-1514
▁Jerusalem	-1515
ST	-1516
▁X	-1517
par	-1518
outh	-1519
▁fill	-1520
▁saved	-1521
By	-1522
gen	-1523
ift	-1524
ita	-1525
▁cop	-1526
▁dist	-1527
▁partic	-1528
▁always	-1529
▁execute	-1530
▁constructor	-1531
hi	-1532
ched	-1533
▁affect	-1534
Be	-1535
anel	-1536
ided	-1537
▁five	-1538
▁times	-1539
▁proper	-1540
▁result	-1541
▁z	-1542
ics	-1543
ohn	-1544
ying	-1545
▁god	-1546
box	-1547
▁Firefox	-1548
▁changes	-1549
▁righteous	-1550
▁el	-1551
nect	-1552
▁hyp	-1553
▁sun	-1554
ately	-1555
ember	-1556
micolon	-1557
lication	-1558
▁Des	-1559
▁question	-1560
▁summariz	-1561
mon	-1562
▁pain	-1563
▁Krishna	-1564
ient	-1565
ross	-1566
ivers	-1567
ground	-1568
▁20	-1569
▁Pl	-1570
ined	-1571
ccess	-1572
▁Stud	-1573
▁legs	-1574
▁live	-1575
ention	-1576
▁categ	-1577
▁palms	-1578
▁semicolon	-1579
org	-1580
▁Wh	-1581
▁New	-1582
▁spake	-1583
▁ext	-1584
▁string	-1585
rol	-1586
▁John	-1587
▁judg	-1588
▁Spirit	-1589
emo	-1590
cial	-1591
▁don	-1592
▁tree	-1593
▁relax	-1594
▁shows	-1595
▁access	-1596
▁lot	-1597
▁mon	-1598
▁decl	-1599
▁believe	-1600
▁whether	-1601
▁ve	-1602
iles	-1603
ayama	-1604
▁once	-1605
▁prot	-1606
▁grace	-1607
▁store	-1608
▁visit	-1609
My	-1610
ins	-1611
ased	-1612
▁develop	-1613
▁nothing	-1614
az	-1615
ops	-1616
▁4.	-1617
aces	-1618
▁sit	-1619
▁som	-1620
▁taken	-1621
ational	-1622
▁eas	-1623
▁free	-1624
▁hold	-1625
▁below	-1626
▁format	-1627
▁required	-1628
ils	-1629
▁Ho	-1630
ically	-1631
▁added	-1632
▁students	-1633
go	-1634
mp	-1635
▁Welcome	-1636
▁Edit	-1637
haling	-1638
▁group	-1639
▁cometh	-1640
▁thought	-1641
kt	-1642
.04	-1643
idd	-1644
atab	-1645
▁del	-1646
▁env	-1647
▁mat	-1648
▁sal	-1649
Where	-1650
itial	-1651
▁mean	-1652
▁Please	-1653
▁become	-1654
ead	-1655
krit	-1656
▁Do	-1657
ural	-1658
▁area	-1659
▁note	-1660
▁front	-1661
▁search	-1662
▁witness	-1663
ses	-1664
edic	-1665
host	-1666
ron	-1667
▁Fr	-1668
▁imm	-1669
▁admin	-1670
▁asked	-1671
▁types	-1672
ME	-1673
▁+	-1674
iss	-1675
vas	-1676
reng	-1677
▁black	-1678
▁param	-1679
▁muscles	-1680
▁elements	-1681
▁Sw	-1682
▁air	-1683
▁ener	-1684
▁touch	-1685
▁better	-1686
▁script	-1687
▁account	-1688
▁methods	-1689
▁previous	-1690
ager	-1691
rent	-1692
cript	-1693
▁turn	-1694
ousand	-1695
▁parts	-1696
▁Create	-1697
ital	-1698
line	-1699
▁Com	-1700
▁sou	-1701
▁date	-1702
▁fing	-1703
▁hour	-1704
▁land	-1705
▁chief	-1706
▁ce	-1707
▁Set	-1708
▁mer	-1709
▁year	-1710
▁order	-1711
▁complete	-1712
ga	-1713
nces	-1714
orts	-1715
▁pop	-1716
ative	-1717
▁grow	-1718
▁doing	-1719
▁switch	-1720
▁interface	-1721
tt	-1722
att	-1723
▁dise	-1724
NA	-1725
▁Q	-1726
una	-1727
ason	-1728
▁ful	-1729
thing	-1730
ually	-1731
▁fruit	-1732
▁mount	-1733
atabase	-1734
▁making	-1735
▁working	-1736
▁selection	-1737
xy	-1738
omes	-1739
▁Gent	-1740
▁mouth	-1741
▁multi	-1742
cle	-1743
▁Cl	-1744
anskrit	-1745
▁entire	-1746
▁connect	-1747
roy	-1748
ames	-1749
ering	-1750
▁face	-1751
▁view	-1752
▁entered	-1753
aus	-1754
iqu	-1755
ough	-1756
orrow	-1757
ration	-1758
▁young	-1759
▁lab	-1760
▁war	-1761
ister	-1762
itude	-1763
▁chur	-1764
uments	-1765
▁leave	-1766
▁pattern	-1767
▁thousand	-1768
ear	-1769
let	-1770
ists	-1771
▁mar	-1772
▁org	-1773
▁structure	-1774
).	-1775
Al	-1776
That	-1777
ully	-1778
asure	-1779
▁blank	-1780
▁human	-1781
▁music	-1782
Therefore	-1783
pel	-1784
ives	-1785
▁cap	-1786
▁met	-1787
▁pull	-1788
▁vide	-1789
ert	-1790
▁gu	-1791
ision	-1792
▁Name	-1793
▁shew	-1794
▁ship	-1795
▁going	-1796
▁Student	-1797
▁success	-1798
cape	-1799
itle	-1800
utes	-1801
First	-1802
▁drink	-1803
cul	-1804
ict	-1805
▁sel	-1806
▁thr	-1807
▁grad	-1808
▁till	-1809
▁input	-1810
▁night	-1811
▁source	-1812
▁animals	-1813
▁believed	-1814
erv	-1815
oud	-1816
imon	-1817
ries	-1818
▁IDE	-1819
▁past	-1820
▁seven	-1821
▁delete	-1822
▁protect	-1823
crib	-1824
▁Sam	-1825
▁third	-1826
▁streng	-1827
eep	-1828
side	-1829
ackage	-1830
▁indic	-1831
▁others	-1832
ironment	-1833
tutorial	-1834
vernment	-1835
▁affection	-1836
fect	-1837
ider	-1838
angle	-1839
tings	-1840
▁Book	-1841
▁arms	-1842
▁vill	-1843
▁corner	-1844
▁effect	-1845
▁hyphen	-1846
▁destroy	-1847
How	-1848
iti	-1849
ining	-1850
▁flow	-1851
▁raise	-1852
▁shalt	-1853
▁appear	-1854
▁keyboard	-1855
From	-1856
▁fal	-1857
▁build	-1858
▁compile	-1859
▁11	-1860
▁angel	-1861
▁:	-1862
olog	-1863
▁old	-1864
aterial	-1865
▁slowly	-1866
ps	-1867
enef	-1868
▁sound	-1869
▁stood	-1870
▁energy	-1871
▁got	-1872
▁cause	-1873
▁coming	-1874
▁Eclipse	-1875
▁Teacher	-1876
AR	-1877
ali	-1878
click	-1879
▁fulf	-1880
▁size	-1881
▁names	-1882
▁short	-1883
▁today	-1884
▁remain	-1885
▁greater	-1886
umn	-1887
▁doc	-1888
ached	-1889
fully	-1890
igure	-1891
▁Child	-1892
▁Notice	-1893
hem	-1894
txt	-1895
▁12	-1896
heck	-1897
peat	-1898
▁bes	-1899
cient	-1900
▁Phar	-1901
▁dear	-1902
▁fear	-1903
▁orig	-1904
▁yoga	-1905
itions	-1906
▁Front	-1907
▁obser	-1908
▁video	-1909
▁library	-1910
▁Gentiles	-1911
Sp	-1912
abb	-1913
res	-1914
ones	-1915
▁why	-1916
cience	-1917
▁filled	-1918
ala	-1919
▁ed	-1920
juna	-1921
ring	-1922
rodu	-1923
▁sur	-1924
ustom	-1925
▁fell	-1926
▁keys	-1927
▁tong	-1928
▁Those	-1929
▁users	-1930
▁current	-1931
▁countrymen	-1932
One	-1933
ilt	-1934
ipp	-1935
loy	-1936
ceed	-1937
▁tra	-1938
▁Holy	-1939
▁Am	-1940
""."	-1941
ises	-1942
▁squ	-1943
▁care	-1944
▁along	-1945
▁index	-1946
▁mouse	-1947
▁woman	-1948
RD	-1949
oses	-1950
▁gre	-1951
▁lead	-1952
▁self	-1953
▁talk	-1954
▁activ	-1955
ccounting	-1956
▁particular	-1957
▁environment	-1958
aka	-1959
ilk	-1960
lec	-1961
▁Tr	-1962
▁Con	-1963
▁arm	-1964
▁cut	-1965
▁joy	-1966
alled	-1967
▁feel	-1968
▁send	-1969
▁bless	-1970
▁bread	-1971
▁never	-1972
▁panel	-1973
Te	-1974
man	-1975
▁Or	-1976
With	-1977
vant	-1978
▁dig	-1979
▁best	-1980
▁holy	-1981
▁rele	-1982
▁during	-1983
▁clicking	-1984
ON	-1985
cr	-1986
▁dec	-1987
▁occ	-1988
▁cell	-1989
▁gets	-1990
ething	-1991
▁Pharise	-1992
▁organisms	-1993
▁something	-1994
reme	-1995
▁says	-1996
▁trees	-1997
▁simple	-1998
▁static	-1999
▁ph	-2000
ened	-2001
ware	-2002
▁pub	-2003
▁Next	-2004
▁copy	-2005
▁told	-2006
'.	-2007
▁5.	-2008
ables	-2009
▁born	-2010
▁common	-2011
▁forward	-2012
▁similar	-2013
ias	-2014
irm	-2015
▁Un	-2016
bers	-2017
▁arr	-2018
▁laid	-2019
""""."""	-2020
▁special	-2021
▁followed	-2022
▁beginning	-2023
ock	-2024
▁16	-2025
angu	-2026
▁Pre	-2027
lders	-2028
shops	-2029
▁Thou	-2030
▁Tool	-2031
▁trad	-2032
▁screen	-2033
▁initial	-2034
▁application	-2035
▁9	-2036
ety	-2037
sed	-2038
ule	-2039
▁ple	-2040
ances	-2041
▁drag	-2042
▁glor	-2043
▁shar	-2044
▁increase	-2045
▁material	-2046
uc	-2047
▁OS	-2048
spel	-2049
▁arg	-2050
▁aut	-2051
▁far	-2052
▁bapt	-2053
▁fall	-2054
▁sins	-2055
aneous	-2056
▁demon	-2057
▁manif	-2058
▁gospel	-2059
▁perfect	-2060
▁servant	-2061
Accounting	-2062
▁workshops	-2063
▁righteousness	-2064
Who	-2065
sor	-2066
owed	-2067
▁big	-2068
▁prof	-2069
▁root	-2070
▁beings	-2071
▁canvas	-2072
▁leaves	-2073
▁correct	-2074
▁possible	-2075
▁Government	-2076
HRD	-2077
erc	-2078
ison	-2079
▁Jud	-2080
▁plus	-2081
▁song	-2082
▁address	-2083
va	-2084
ern	-2085
▁La	-2086
ited	-2087
▁More	-2088
▁cook	-2089
▁wife	-2090
Spoken	-2091
▁worship	-2092
▁database	-2093
ats	-2094
Under	-2095
▁seek	-2096
▁soft	-2097
▁sold	-2098
▁Ghost	-2099
▁email	-2100
▁month	-2101
▁Arjuna	-2102
▁comput	-2103
▁manner	-2104
▁obtain	-2105
▁square	-2106
▁typing	-2107
▁express	-2108
air	-2109
ged	-2110
inue	-2111
Click	-2112
ience	-2113
▁MHRD	-2114
▁near	-2115
▁basic	-2116
▁level	-2117
▁separ	-2118
▁editor	-2119
ferences	-2120
▁contrib	-2121
▁parenthes	-2122
ys	-2123
▁Why	-2124
▁rot	-2125
▁shape	-2126
▁opened	-2127
▁though	-2128
▁colours	-2129
▁contact	-2130
▁towards	-2131
▁FrontAccounting	-2132
▁8	-2133
▁x	-2134
oid	-2135
iled	-2136
▁Come	-2137
▁fest	-2138
anayama	-2139
▁feature	-2140
▁Sanskrit	-2141
▁functions	-2142
▁multitude	-2143
At	-2144
olk	-2145
idth	-2146
well	-2147
▁fin	-2148
▁sle	-2149
tific	-2150
uthor	-2151
▁trib	-2152
alance	-2153
▁plant	-2154
▁prophets	-2155
now	-2156
▁cow	-2157
▁wis	-2158
▁Cont	-2159
▁soil	-2160
aching	-2161
kscape	-2162
▁floor	-2163
▁women	-2164
▁discus	-2165
▁departed	-2166
▁document	-2167
▁Bud	-2168
▁ang	-2169
These	-2170
acing	-2171
▁inte	-2172
▁lest	-2173
▁mode	-2174
▁remove	-2175
▁Le	-2176
▁Ph	-2177
▁Sc	-2178
lose	-2179
pose	-2180
ties	-2181
▁Open	-2182
liness	-2183
spoken	-2184
▁clear	-2185
▁circle	-2186
▁continu	-2187
▁demonstr	-2188
RL	-2189
ees	-2190
ury	-2191
▁Sa	-2192
▁ten	-2193
▁fast	-2194
▁benef	-2195
▁delive	-2196
▁includ	-2197
▁strong	-2198
▁happens	-2199
▁Pharisees	-2200
▁character	-2201
cho	-2202
▁Pat	-2203
▁Raj	-2204
▁beh	-2205
▁syn	-2206
▁cows	-2207
▁later	-2208
▁until	-2209
▁meaning	-2210
▁delivered	-2211
▁questions	-2212
▁supported	-2213
oke	-2214
rag	-2215
arma	-2216
▁den	-2217
▁cult	-2218
▁hard	-2219
▁prep	-2220
▁final	-2221
▁festiv	-2222
▁Inkscape	-2223
▁certific	-2224
ien	-2225
erve	-2226
irth	-2227
ling	-2228
▁Sup	-2229
▁deep	-2230
▁qual	-2231
▁steps	-2232
ulation	-2233
NT	-2234
They	-2235
oint	-2236
pend	-2237
▁Gal	-2238
Jesus	-2239
▁Some	-2240
▁sure	-2241
▁aware	-2242
▁beast	-2243
▁chest	-2244
▁impro	-2245
▁molec	-2246
▁flower	-2247
▁remember	-2248
▁yourselves	-2249
▁certificates	-2250
++	-2251
ea	-2252
aled	-2253
fort	-2254
iers	-2255
▁nat	-2256
▁nut	-2257
▁pen	-2258
▁else	-2259
▁prin	-2260
▁Admin	-2261
▁refer	-2262
▁fruits	-2263
▁suffer	-2264
cription	-2265
▁Manager	-2266
▁priests	-2267
▁require	-2268
Wherefore	-2269
▁manifest	-2270
ann	-2271
ges	-2272
umb	-2273
atha	-2274
mail	-2275
rite	-2276
▁Sat	-2277
▁hon	-2278
▁Note	-2279
▁forg	-2280
▁star	-2281
▁apost	-2282
▁condu	-2283
▁exper	-2284
▁thigh	-2285
▁desire	-2286
▁running	-2287
pr	-2288
AMP	-2289
pac	-2290
AMPP	-2291
band	-2292
mark	-2293
rael	-2294
▁His	-2295
▁age	-2296
▁lar	-2297
areth	-2298
▁kept	-2299
▁knew	-2300
▁norm	-2301
▁knees	-2302
▁Israel	-2303
▁church	-2304
aut	-2305
tch	-2306
wor	-2307
elve	-2308
aving	-2309
▁Make	-2310
▁caus	-2311
▁harm	-2312
usband	-2313
▁becomes	-2314
▁category	-2315
▁whosoever	-2316
amp	-2317
hys	-2318
avig	-2319
▁Mah	-2320
▁XAMPP	-2321
▁exerc	-2322
▁langu	-2323
▁column	-2324
),	-2325
ION	-2326
▁Bre	-2327
▁inc	-2328
While	-2329
loved	-2330
▁When	-2331
▁gone	-2332
▁java	-2333
▁mask	-2334
itting	-2335
▁friend	-2336
ediately	-2337
▁changed	-2338
▁username	-2339
thy	-2340
▁di	-2341
▁clot	-2342
▁gard	-2343
▁none	-2344
▁began	-2345
▁green	-2346
▁forest	-2347
▁twelve	-2348
▁bracket	-2349
▁installed	-2350
to	-2351
for	-2352
rew	-2353
uff	-2354
aras	-2355
head	-2356
▁mem	-2357
▁pot	-2358
▁bird	-2359
▁rect	-2360
▁false	-2361
▁title	-2362
▁angels	-2363
▁spread	-2364
▁contain	-2365
▁control	-2366
▁husband	-2367
▁mention	-2368
▁numbers	-2369
ob	-2370
▁Her	-2371
▁fur	-2372
right	-2373
▁milk	-2374
▁visible	-2375
▁executed	-2376
arn	-2377
ently	-2378
xygen	-2379
▁cross	-2380
▁curly	-2381
▁exist	-2382
▁Change	-2383
▁except	-2384
▁Account	-2385
▁commands	-2386
▁judgment	-2387
▁strength	-2388
St	-2389
uru	-2390
ites	-2391
ktop	-2392
mbol	-2393
ules	-2394
riend	-2395
▁bear	-2396
▁resp	-2397
athing	-2398
bserve	-2399
▁ident	-2400
▁stone	-2401
▁thine	-2402
▁hearts	-2403
halation	-2404
Say	-2405
TeX	-2406
eed	-2407
▁Ca	-2408
Once	-2409
alle	-2410
▁brush	-2411
ination	-2412
▁diseases	-2413
▁summarize	-2414
ike	-2415
ism	-2416
unk	-2417
cher	-2418
▁log	-2419
iving	-2420
▁doct	-2421
▁roll	-2422
▁ways	-2423
▁Moses	-2424
▁trust	-2425
ization	-2426
▁prophet	-2427
ira	-2428
aksh	-2429
arth	-2430
ators	-2431
▁doub	-2432
▁sens	-2433
▁seeing	-2434
▁related	-2435
ultaneous	-2436
▁practices	-2437
▁parentheses	-2438
lock	-2439
▁cou	-2440
ising	-2441
light	-2442
unity	-2443
▁foot	-2444
▁team	-2445
ources	-2446
▁birth	-2447
▁comfort	-2448
▁include	-2449
▁computer	-2450
!"	-2451
ught	-2452
▁Ser	-2453
▁non	-2454
ential	-2455
▁symbol	-2456
▁relevant	-2457
ICT	-2458
ane	-2459
chn	-2460
net	-2461
aced	-2462
gain	-2463
ogle	-2464
MEICT	-2465
▁hope	-2466
▁mach	-2467
▁perm	-2468
▁cried	-2469
▁dwell	-2470
▁story	-2471
▁takes	-2472
▁amount	-2473
▁public	-2474
▁keyword	-2475
aya	-2476
▁Col	-2477
▁mid	-2478
▁Keep	-2479
▁login	-2480
▁Budget	-2481
▁contains	-2482
AT	-2483
ery	-2484
umc	-2485
▁hy	-2486
demo	-2487
▁beg	-2488
▁eff	-2489
▁gar	-2490
▁sol	-2491
otion	-2492
▁Brah	-2493
▁Comp	-2494
▁blue	-2495
▁cele	-2496
▁Close	-2497
▁either	-2498
▁giving	-2499
▁necess	-2500
▁healthy	-2501
▁immediately	-2502
IN	-2503
adi	-2504
bon	-2505
joy	-2506
way	-2507
____	-2508
avid	-2509
▁und	-2510
raham	-2511
acters	-2512
▁medic	-2513
▁mercy	-2514
▁quick	-2515
However	-2516
▁custom	-2517
▁daught	-2518
▁series	-2519
▁tongue	-2520
▁wisdom	-2521
bit	-2522
▁GI	-2523
▁Up	-2524
▁wa	-2525
▁Net	-2526
▁She	-2527
ought	-2528
▁Item	-2529
▁Many	-2530
▁bond	-2531
▁wise	-2532
▁books	-2533
▁items	-2534
▁Search	-2535
▁elders	-2536
▁server	-2537
ultaneously	-2538
▁generation	-2539
An	-2540
▁OK	-2541
ilee	-2542
rine	-2543
▁opp	-2544
▁sky	-2545
eters	-2546
▁phys	-2547
▁Inter	-2548
▁garden	-2549
▁taking	-2550
........	-2551
▁Abraham	-2552
▁Galilee	-2553
▁declared	-2554
▁multiple	-2555
▁Cur	-2556
▁bro	-2557
▁inf	-2558
ariot	-2559
▁Main	-2560
▁redu	-2561
▁break	-2562
▁local	-2563
▁nostr	-2564
▁regard	-2565
▁collect	-2566
ras	-2567
▁da	-2568
with	-2569
▁Dis	-2570
▁cre	-2571
▁rej	-2572
Which	-2573
▁farm	-2574
▁real	-2575
imilar	-2576
▁Sales	-2577
▁marks	-2578
▁sight	-2579
▁attain	-2580
▁itself	-2581
▁friends	-2582
▁further	-2583
000	-2584
eds	-2585
iva	-2586
▁Qu	-2587
oday	-2588
umber	-2589
▁Oper	-2590
▁sacr	-2591
▁blind	-2592
▁courses	-2593
▁observe	-2594
▁records	-2595
▁rectangle	-2596
▁development	-2597
by	-2598
ati	-2599
oom	-2600
▁En	-2601
anam	-2602
uman	-2603
▁Sth	-2604
ology	-2605
▁folk	-2606
▁poll	-2607
▁sake	-2608
▁site	-2609
▁16.04	-2610
▁ought	-2611
▁Asanas	-2612
▁brings	-2613
▁oxygen	-2614
▁useful	-2615
▁natural	-2616
▁subject	-2617
▁pressing	-2618
▁servants	-2619
▁settings	-2620
▁es	-2621
veth	-2622
▁Ram	-2623
▁est	-2624
ernal	-2625
▁Vish	-2626
▁Check	-2627
▁Gener	-2628
▁align	-2629
▁scrib	-2630
▁Repeat	-2631
▁action	-2632
▁author	-2633
▁prison	-2634
▁slider	-2635
▁beloved	-2636
▁content	-2637
▁eternal	-2638
▁fathers	-2639
▁fulfilled	-2640
▁characters	-2641
2.	-2642
ek	-2643
sa	-2644
llo	-2645
raw	-2646
agog	-2647
istr	-2648
ixed	-2649
▁Sun	-2650
▁tag	-2651
▁kill	-2652
▁reve	-2653
▁sick	-2654
▁Class	-2655
▁Simon	-2656
▁sleep	-2657
▁comment	-2658
▁concent	-2659
▁mission	-2660
▁printed	-2661
Ex	-2662
Go	-2663
oms	-2664
▁At	-2665
▁Pur	-2666
▁six	-2667
▁lord	-2668
riends	-2669
▁judge	-2670
▁bright	-2671
▁online	-2672
▁thread	-2673
▁element	-2674
▁flowers	-2675
▁integer	-2676
▁synagog	-2677
',	-2678
bed	-2679
cil	-2680
ince	-2681
most	-2682
▁die	-2683
▁hor	-2684
▁ears	-2685
▁remo	-2686
▁rich	-2687
▁ready	-2688
▁accept	-2689
▁answer	-2690
20	-2691
Am	-2692
cel	-2693
▁Mo	-2694
amas	-2695
empt	-2696
▁ord	-2697
▁vir	-2698
iting	-2699
mbers	-2700
where	-2701
▁User	-2702
▁Wind	-2703
▁stop	-2704
▁behind	-2705
imilarly	-2706
▁Observe	-2707
▁members	-2708
▁ut	-2709
itam	-2710
rive	-2711
▁App	-2712
▁Cor	-2713
▁Sub	-2714
asing	-2715
erest	-2716
erily	-2717
▁capt	-2718
▁quiz	-2719
▁wish	-2720
▁lower	-2721
ference	-2722
▁celebr	-2723
▁passed	-2724
▁raised	-2725
▁worthy	-2726
▁fingers	-2727
▁movements	-2728
▁statements	-2729
▁whatsoever	-2730
--	-2731
ey	-2732
▁Me	-2733
▁Vy	-2734
ique	-2735
▁ess	-2736
▁fre	-2737
loyee	-2738
▁mine	-2739
▁sain	-2740
erning	-2741
▁abdom	-2742
▁lives	-2743
▁techn	-2744
▁tools	-2745
▁original	-2746
▁tradition	-2747
▁background	-2748
▁parameters	-2749
▁installation	-2750
AC	-2751
df	-2752
ln	-2753
”.	-2754
con	-2755
dro	-2756
lok	-2757
ttp	-2758
unt	-2759
▁On	-2760
▁cr	-2761
osed	-2762
▁Ass	-2763
▁pra	-2764
▁rev	-2765
▁sup	-2766
▁Bhag	-2767
▁GIMP	-2768
▁bran	-2769
▁gold	-2770
▁meat	-2771
▁vert	-2772
▁normal	-2773
▁taught	-2774
▁getting	-2775
▁scribes	-2776
▁kindness	-2777
▁everything	-2778
ND	-2779
cut	-2780
atory	-2781
hered	-2782
ilate	-2783
▁band	-2784
▁lung	-2785
undred	-2786
▁beaut	-2787
▁cloth	-2788
▁fight	-2789
▁focus	-2790
Friends	-2791
▁Master	-2792
▁service	-2793
▁summarizes	-2794
▁throughout	-2795
//	-2796
gr	-2797
ksh	-2798
ply	-2799
play	-2800
tion	-2801
▁Nam	-2802
▁Typ	-2803
▁URL	-2804
ipped	-2805
itive	-2806
itted	-2807
▁diff	-2808
▁fact	-2809
▁After	-2810
▁forms	-2811
▁often	-2812
▁Mission	-2813
▁village	-2814
'."	-2815
ada	-2816
oney	-2817
▁Him	-2818
▁rul	-2819
▁swe	-2820
▁Cour	-2821
▁From	-2822
▁neck	-2823
▁daily	-2824
▁looks	-2825
ucation	-2826
▁verily	-2827
▁closing	-2828
▁hundred	-2829
▁purpose	-2830
▁mountain	-2831
▁movement	-2832
▁commanded	-2833
://	-2834
abl	-2835
▁Av	-2836
▁hig	-2837
▁yog	-2838
▁fund	-2839
▁based	-2840
▁joint	-2841
▁large	-2842
▁worsh	-2843
▁saints	-2844
▁National	-2845
▁necessary	-2846
nu	-2847
▁Bl	-2848
▁Pe	-2849
▁wo	-2850
sana	-2851
▁Cal	-2852
▁Run	-2853
▁ens	-2854
▁http	-2855
▁poor	-2856
▁Write	-2857
▁doubt	-2858
▁still	-2859
▁places	-2860
▁proble	-2861
▁reason	-2862
▁started	-2863
▁respective	-2864
▁simultaneously	-2865
50	-2866
wh	-2867
ipe	-2868
▁af	-2869
just	-2870
rose	-2871
▁exh	-2872
cribe	-2873
iding	-2874
▁King	-2875
▁bord	-2876
▁sabb	-2877
▁songs	-2878
▁Sthiti	-2879
▁machine	-2880
▁sabbath	-2881
▁importance	-2882
1.	-2883
aw	-2884
etim	-2885
▁ste	-2886
)."""	-2887
anced	-2888
cious	-2889
▁Text	-2890
▁soul	-2891
ension	-2892
iverse	-2893
▁Herod	-2894
▁medit	-2895
▁tempt	-2896
ibility	-2897
▁expand	-2898
▁moving	-2899
▁opening	-2900
▁features	-2901
▁software	-2902
▁arguments	-2903
▁properties	-2904
ww	-2905
AST	-2906
ila	-2907
▁Ye	-2908
leth	-2909
ening	-2910
plore	-2911
▁Sita	-2912
▁toes	-2913
▁David	-2914
▁Place	-2915
▁Where	-2916
▁arose	-2917
▁least	-2918
▁paint	-2919
▁serve	-2920
acteria	-2921
▁finger	-2922
▁needle	-2923
▁toward	-2924
▁package	-2925
▁sharpen	-2926
▁darkness	-2927
▁preached	-2928
▁?	-2929
.10	-2930
yth	-2931
▁Br	-2932
▁Dh	-2933
ners	-2934
▁201	-2935
▁cat	-2936
▁Fill	-2937
▁enem	-2938
▁lust	-2939
▁rise	-2940
▁thus	-2941
▁zoom	-2942
ecause	-2943
▁birds	-2944
▁enjoy	-2945
▁seeds	-2946
ownload	-2947
▁Behold	-2948
▁became	-2949
▁organs	-2950
▁compass	-2951
▁divided	-2952
▁nostril	-2953
▁apostles	-2954
▁Pranayama	-2955
▁commandment	-2956
QL	-2957
ruc	-2958
▁ii	-2959
What	-2960
iven	-2961
then	-2962
▁buy	-2963
beans	-2964
icult	-2965
▁knee	-2966
ession	-2967
▁Start	-2968
▁alone	-2969
▁autom	-2970
▁super	-2971
▁easily	-2972
▁throne	-2973
▁Desktop	-2974
▁chariot	-2975
▁inhaling	-2976
▁Operating	-2977
▁parameter	-2978
AS	-2979
PAC	-2980
ams	-2981
imp	-2982
ned	-2983
rut	-2984
cent	-2985
rupt	-2986
▁ast	-2987
ggest	-2988
ython	-2989
▁bound	-2990
▁needs	-2991
▁spine	-2992
▁waste	-2993
Similarly	-2994
▁baptized	-2995
▁conducts	-2996
arv	-2997
nam	-2998
old	-2999
aste	-3000
udra	-3001
ured	-3002
▁Fin	-3003
▁mag	-3004
chool	-3005
ences	-3006
iddle	-3007
place	-3008
▁Juda	-3009
▁bend	-3010
▁comma	-3011
▁trunk	-3012
ractice	-3013
▁NMEICT	-3014
▁family	-3015
▁images	-3016
▁rather	-3017
▁instance	-3018
▁Breathing	-3019
▁indicates	-3020
ARC	-3021
iod	-3022
▁Im	-3023
llar	-3024
ended	-3025
▁Code	-3026
▁dece	-3027
▁pres	-3028
▁corre	-3029
▁midst	-3030
▁minus	-3031
▁river	-3032
▁shell	-3033
▁slide	-3034
▁teeth	-3035
Details	-3036
mployee	-3037
▁compon	-3038
▁consid	-3039
▁weight	-3040
▁measure	-3041
▁thyself	-3042
▁standing	-3043
▁teachers	-3044
▁shoulders	-3045
amb	-3046
▁By	-3047
iful	-3048
iter	-3049
page	-3050
▁Imp	-3051
▁det	-3052
▁fil	-3053
▁gat	-3054
▁plu	-3055
▁ter	-3056
▁Mary	-3057
▁comb	-3058
▁ones	-3059
▁port	-3060
orning	-3061
▁First	-3062
▁Hello	-3063
▁cover	-3064
▁famil	-3065
▁youth	-3066
▁devote	-3067
▁repent	-3068
▁upload	-3069
▁proceed	-3070
ification	-3071
▁language	-3072
▁postures	-3073
▁standard	-3074
▁vertical	-3075
▁performed	-3076
▁difference	-3077
▁cleanliness	-3078
HE	-3079
▁No	-3080
cing	-3081
ense	-3082
roke	-3083
▁cup	-3084
▁Bhar	-3085
▁MARC	-3086
▁Take	-3087
▁wild	-3088
vation	-3089
▁apart	-3090
▁dance	-3091
▁elect	-3092
adasana	-3093
▁notice	-3094
▁ancient	-3095
lications	-3096
▁continue	-3097
▁exercise	-3098
▁mentioned	-3099
▁concerning	-3100
ai	-3101
)."	-3102
akh	-3103
ani	-3104
bod	-3105
odi	-3106
aria	-3107
icro	-3108
ming	-3109
rols	-3110
▁ago	-3111
▁chap	-3112
▁meet	-3113
▁role	-3114
Saying	-3115
▁devil	-3116
▁nutri	-3117
▁remem	-3118
▁speed	-3119
▁teach	-3120
▁killed	-3121
▁region	-3122
▁stitch	-3123
atically	-3124
▁promise	-3125
▁suggest	-3126
▁exhaling	-3127
▁interest	-3128
▁awareness	-3129
▁successfully	-3130
▁concentration	-3131
dd	-3132
rs	-3133
All	-3134
ken	-3135
avas	-3136
▁Jan	-3137
▁Lay	-3138
▁Men	-3139
▁Rec	-3140
▁lif	-3141
▁mom	-3142
▁coun	-3143
▁cruc	-3144
▁trou	-3145
Having	-3146
▁11.10	-3147
▁Every	-3148
▁Scroll	-3149
▁carbon	-3150
umcision	-3151
▁Windows	-3152
▁bending	-3153
▁instead	-3154
roduction	-3155
▁products	-3156
▁starting	-3157
uj	-3158
▁/	-3159
alf	-3160
ura	-3161
▁30	-3162
dess	-3163
imum	-3164
▁100	-3165
▁Log	-3166
▁Rel	-3167
▁adv	-3168
▁lim	-3169
Among	-3170
▁doth	-3171
▁areas	-3172
▁heels	-3173
▁makes	-3174
ruction	-3175
▁Pilate	-3176
▁Switch	-3177
▁across	-3178
▁choice	-3179
▁devils	-3180
▁nation	-3181
▁blessed	-3182
▁culture	-3183
▁Netbeans	-3184
▁faithful	-3185
▁instruct	-3186
▁shoulder	-3187
▁completely	-3188
▁worshipped	-3189
arc	-3190
ero	-3191
urt	-3192
▁ls	-3193
ngth	-3194
▁Home	-3195
▁With	-3196
▁sons	-3197
▁wall	-3198
ournal	-3199
▁bones	-3200
▁Calcul	-3201
▁causes	-3202
▁eating	-3203
▁establ	-3204
▁figure	-3205
▁balance	-3206
▁release	-3207
▁festival	-3208
▁soldiers	-3209
▁universe	-3210
▁difficult	-3211
▁considered	-3212
SS	-3213
aid	-3214
ney	-3215
use	-3216
▁."	-3217
alog	-3218
core	-3219
olve	-3220
▁ICT	-3221
▁cry	-3222
▁due	-3223
alent	-3224
icing	-3225
icked	-3226
▁deli	-3227
▁plan	-3228
▁pure	-3229
▁soon	-3230
Before	-3231
pecial	-3232
▁stars	-3233
▁veget	-3234
▁Course	-3235
▁indeed	-3236
▁layers	-3237
▁master	-3238
▁thanks	-3239
▁convert	-3240
▁regular	-3241
istration	-3242
▁creation	-3243
▁studying	-3244
▁ourselves	-3245
▁relaxation	-3246
AN	-3247
▁)	-3248
aur	-3249
▁0.	-3250
ntax	-3251
rief	-3252
▁Opt	-3253
▁Per	-3254
▁Rem	-3255
▁Yog	-3256
▁bow	-3257
▁dam	-3258
marks	-3259
▁Caes	-3260
▁Give	-3261
▁feed	-3262
▁moon	-3263
▁weak	-3264
▁Stand	-3265
▁Which	-3266
▁cells	-3267
ication	-3268
uration	-3269
▁honour	-3270
▁school	-3271
▁season	-3272
▁stored	-3273
▁Package	-3274
▁capital	-3275
▁desired	-3276
▁morning	-3277
▁Education	-3278
wel	-3279
▁15	-3280
Like	-3281
hest	-3282
ians	-3283
work	-3284
▁pix	-3285
ivity	-3286
▁Gita	-3287
▁node	-3288
▁angle	-3289
▁paste	-3290
▁since	-3291
▁upper	-3292
▁digest	-3293
▁facing	-3294
▁locate	-3295
▁thighs	-3296
▁turned	-3297
▁buttock	-3298
▁knowing	-3299
▁println	-3300
▁stretch	-3301
▁Download	-3302
▁gathered	-3303
▁likewise	-3304
▁returned	-3305
▁categories	-3306
EST	-3307
aat	-3308
asp	-3309
len	-3310
mit	-3311
tte	-3312
▁iss	-3313
▁unc	-3314
ppose	-3315
▁gray	-3316
▁hist	-3317
▁idol	-3318
▁assum	-3319
▁cloud	-3320
▁inher	-3321
▁offer	-3322
▁sheep	-3323
▁uncle	-3324
▁looked	-3325
▁myself	-3326
▁sitting	-3327
▁everyone	-3328
▁operator	-3329
▁activities	-3330
fer	-3331
anah	-3332
back	-3333
▁Our	-3334
▁Ved	-3335
'."""	-3336
ciety	-3337
oured	-3338
▁goes	-3339
▁pict	-3340
▁tabs	-3341
etimes	-3342
▁While	-3343
▁arrow	-3344
▁condem	-3345
▁design	-3346
▁length	-3347
▁simply	-3348
imension	-3349
▁keeping	-3350
▁outside	-3351
▁posture	-3352
avigation	-3353
▁learning	-3354
▁physical	-3355
▁touching	-3356
▁qualities	-3357
▁spiritual	-3358
▁compassion	-3359
▁contributed	-3360
▁automatically	-3361
bar	-3362
ump	-3363
▁Bi	-3364
▁Bu	-3365
Also	-3366
arya	-3367
▁MyS	-3368
▁Sur	-3369
▁bur	-3370
Again	-3371
▁easy	-3372
▁empt	-3373
▁loud	-3374
ifying	-3375
▁LaTeX	-3376
▁absor	-3377
▁decre	-3378
▁loved	-3379
▁calcul	-3380
▁centre	-3381
▁healed	-3382
▁middle	-3383
▁minute	-3384
▁sought	-3385
▁General	-3386
▁abdomen	-3387
▁company	-3388
▁location	-3389
▁maintain	-3390
▁obtained	-3391
▁organism	-3392
ER	-3393
app	-3394
avi	-3395
▁40	-3396
▁50	-3397
▁Ap	-3398
▁Fe	-3399
veda	-3400
▁Dev	-3401
uplic	-3402
▁Draw	-3403
▁Inst	-3404
▁List	-3405
▁burn	-3406
▁dwel	-3407
▁fond	-3408
▁shap	-3409
▁stay	-3410
ribute	-3411
▁Shift	-3412
▁hence	-3413
▁quite	-3414
▁Mother	-3415
▁thence	-3416
▁Display	-3417
▁actions	-3418
▁provide	-3419
▁controls	-3420
AL	-3421
IT	-3422
do	-3423
no	-3424
Not	-3425
hah	-3426
pre	-3427
▁cd	-3428
▁cy	-3429
IONS	-3430
▁tar	-3431
brari	-3432
ident	-3433
width	-3434
▁base	-3435
▁foll	-3436
▁priv	-3437
Inside	-3438
▁accom	-3439
▁feast	-3440
▁miner	-3441
▁vitam	-3442
▁Choose	-3443
▁border	-3444
▁social	-3445
▁attempt	-3446
▁unclean	-3447
▁anything	-3448
▁devotion	-3449
▁examples	-3450
▁minister	-3451
▁bandwidth	-3452
▁essential	-3453
yle	-3454
▁"•	-3455
irty	-3456
▁Use	-3457
▁Wor	-3458
▁aff	-3459
▁pie	-3460
ously	-3461
plied	-3462
▁."""	-3463
▁Dand	-3464
▁Phil	-3465
▁Talk	-3466
▁heed	-3467
▁icons	-3468
▁occas	-3469
▁wrath	-3470
ackages	-3471
▁Judaea	-3472
▁rounds	-3473
▁eclipse	-3474
▁prepare	-3475
▁Employee	-3476
▁Tadasana	-3477
▁gradient	-3478
▁sections	-3479
imensional	-3480
▁connected	-3481
Su	-3482
Ye	-3483
ANA	-3484
add	-3485
ona	-3486
pul	-3487
Name	-3488
amed	-3489
ging	-3490
ials	-3491
▁Alt	-3492
▁Vas	-3493
▁elb	-3494
▁ign	-3495
aches	-3496
▁Guru	-3497
▁Path	-3498
▁fool	-3499
▁gift	-3500
▁modu	-3501
▁zero	-3502
pacity	-3503
uncher	-3504
▁Files	-3505
▁built	-3506
▁empty	-3507
▁force	-3508
▁happy	-3509
▁liber	-3510
▁perse	-3511
▁sword	-3512
▁dollar	-3513
▁fellow	-3514
▁growth	-3515
▁height	-3516
▁opport	-3517
▁period	-3518
▁wicked	-3519
▁clothes	-3520
▁cooking	-3521
▁letters	-3522
▁benefits	-3523
▁doctrine	-3524
▁authority	-3525
Sh	-3526
mi	-3527
esh	-3528
pir	-3529
udd	-3530
’."	-3531
▁25	-3532
▁6.	-3533
arsh	-3534
over	-3535
soci	-3536
▁DNA	-3537
▁See	-3538
▁ach	-3539
▁upd	-3540
▁wat	-3541
class	-3542
izing	-3543
spond	-3544
▁"""•	-3545
▁Pers	-3546
▁____	-3547
▁alph	-3548
▁disc	-3549
Notice	-3550
asting	-3551
▁grass	-3552
▁match	-3553
▁occur	-3554
▁associ	-3555
▁bodies	-3556
▁exceed	-3557
▁exhale	-3558
▁mighty	-3559
▁reduce	-3560
▁sorrow	-3561
▁unique	-3562
▁parents	-3563
▁society	-3564
▁contents	-3565
▁explained	-3566
▁glorified	-3567
▁correspond	-3568
▁vegetables	-3569
▁Ag	-3570
▁Sl	-3571
▁ge	-3572
osen	-3573
urre	-3574
usha	-3575
▁Sit	-3576
▁Tim	-3577
▁deg	-3578
▁mis	-3579
▁tou	-3580
attle	-3581
idden	-3582
otein	-3583
uture	-3584
▁OPAC	-3585
▁Step	-3586
▁died	-3587
▁door	-3588
▁hair	-3589
▁pose	-3590
▁wood	-3591
rasana	-3592
▁horiz	-3593
▁recom	-3594
olution	-3595
▁Proper	-3596
▁alphab	-3597
▁follows	-3598
▁improve	-3599
urrection	-3600
▁patience	-3601
’.	-3602
ony	-3603
▁KT	-3604
▁OF	-3605
illa	-3606
sert	-3607
▁Ent	-3608
▁Kap	-3609
▁emp	-3610
▁ide	-3611
▁saf	-3612
aling	-3613
ataka	-3614
inter	-3615
pulch	-3616
▁Have	-3617
▁fine	-3618
▁grep	-3619
▁rain	-3620
▁sort	-3621
▁stat	-3622
▁achie	-3623
▁doeth	-3624
agement	-3625
▁Vishnu	-3626
▁handle	-3627
▁letter	-3628
▁preach	-3629
▁Journal	-3630
▁corrupt	-3631
▁possess	-3632
▁sepulch	-3633
▁thereof	-3634
▁assigned	-3635
▁permission	-3636
DK	-3637
dir	-3638
opt	-3639
osp	-3640
plet	-3641
raid	-3642
▁Int	-3643
▁Loc	-3644
▁bus	-3645
owers	-3646
▁Amen	-3647
▁half	-3648
▁pipe	-3649
formed	-3650
idence	-3651
lessed	-3652
ricult	-3653
▁Group	-3654
▁Water	-3655
▁imple	-3656
▁lungs	-3657
▁sever	-3658
▁treat	-3659
▁wrote	-3660
▁cursor	-3661
▁matter	-3662
▁metals	-3663
▁Explain	-3664
▁deliver	-3665
▁looking	-3666
▁Settings	-3667
▁buttocks	-3668
▁daughter	-3669
▁directly	-3670
▁fondness	-3671
▁prepared	-3672
▁believeth	-3673
▁synagogue	-3674
▁friendship	-3675
No	-3676
akt	-3677
anj	-3678
ips	-3679
ked	-3680
hati	-3681
ream	-3682
utra	-3683
view	-3684
▁Ext	-3685
▁ill	-3686
▁ris	-3687
▁tot	-3688
Since	-3689
field	-3690
oseph	-3691
verse	-3692
▁camp	-3693
▁desp	-3694
▁week	-3695
select	-3696
▁James	-3697
▁Panel	-3698
▁contr	-3699
▁money	-3700
▁perce	-3701
▁reach	-3702
pending	-3703
▁cleans	-3704
▁errors	-3705
▁expect	-3706
▁rivers	-3707
▁shapes	-3708
▁walked	-3709
pecially	-3710
▁hearing	-3711
▁results	-3712
▁Practice	-3713
▁conditions	-3714
▁exhalation	-3715
EX	-3716
mn	-3717
Yes	-3718
aff	-3719
eta	-3720
▁Ma	-3721
aper	-3722
cies	-3723
napt	-3724
yond	-3725
▁INT	-3726
▁Sir	-3727
▁pay	-3728
ients	-3729
while	-3730
▁Baat	-3731
▁Back	-3732
▁Grad	-3733
▁gain	-3734
▁glad	-3735
▁nigh	-3736
▁raga	-3737
▁wine	-3738
alette	-3739
naptic	-3740
utions	-3741
▁instr	-3742
▁label	-3743
▁shlok	-3744
▁yogic	-3745
▁asanas	-3746
▁centur	-3747
▁enough	-3748
▁future	-3749
▁moment	-3750
▁origin	-3751
▁wealth	-3752
▁declare	-3753
▁defined	-3754
▁enemies	-3755
▁inherit	-3756
▁knoweth	-3757
▁resting	-3758
▁Calculus	-3759
▁molecule	-3760
▁direction	-3761
▁nutrients	-3762
▁operators	-3763
▁corresponding	-3764
RE	-3765
Re	-3766
bh	-3767
ech	-3768
osh	-3769
rie	-3770
imal	-3771
orns	-3772
▁Ant	-3773
▁Car	-3774
▁Def	-3775
▁Eng	-3776
▁fig	-3777
▁mur	-3778
▁san	-3779
▁tri	-3780
ament	-3781
antly	-3782
iment	-3783
ushes	-3784
ointed	-3785
▁anger	-3786
▁avoid	-3787
▁begat	-3788
▁curve	-3789
▁Joseph	-3790
▁beyond	-3791
▁columns	-3792
▁popular	-3793
▁Internet	-3794
▁identify	-3795
▁included	-3796
▁specific	-3797
▁administr	-3798
▁scriptures	-3799
my	-3800
fig	-3801
oes	-3802
ole	-3803
▁QU	-3804
Even	-3805
anga	-3806
aths	-3807
▁Res	-3808
▁dem	-3809
▁eng	-3810
▁fis	-3811
▁led	-3812
▁txt	-3813
▁yea	-3814
erves	-3815
olved	-3816
▁Dash	-3817
▁Shri	-3818
▁diss	-3819
▁gods	-3820
atever	-3821
▁Build	-3822
▁Earth	-3823
▁Entry	-3824
▁Image	-3825
▁QUEST	-3826
▁appro	-3827
▁boxes	-3828
▁brief	-3829
▁erect	-3830
▁games	-3831
▁moved	-3832
▁skill	-3833
▁Assign	-3834
▁String	-3835
▁divers	-3836
▁famili	-3837
▁funded	-3838
▁joints	-3839
▁memory	-3840
▁served	-3841
▁Vyayama	-3842
▁drawing	-3843
▁located	-3844
▁presence	-3845
▁thoughts	-3846
▁QUESTIONS	-3847
▁exceeding	-3848
▁established	-3849
▁resurrection	-3850
.3	-3851
ML	-3852
af	-3853
sl	-3854
EXT	-3855
▁Po	-3856
adro	-3857
ands	-3858
raph	-3859
rees	-3860
umin	-3861
xide	-3862
▁JDK	-3863
▁Par	-3864
▁cro	-3865
acity	-3866
asons	-3867
elect	-3868
fered	-3869
ifice	-3870
irect	-3871
▁Page	-3872
▁crop	-3873
▁room	-3874
▁stem	-3875
either	-3876
ogadro	-3877
▁MySQL	-3878
▁bonds	-3879
▁study	-3880
▁afraid	-3881
▁chosen	-3882
▁humble	-3883
▁praise	-3884
▁prayer	-3885
▁scient	-3886
uplicate	-3887
▁extract	-3888
▁extreme	-3889
▁offered	-3890
▁wherein	-3891
▁bacteria	-3892
▁packages	-3893
▁provided	-3894
▁suffered	-3895
▁beautiful	-3896
▁increment	-3897
▁pollution	-3898
▁components	-3899
▁straightway	-3900
1,	-3901
ug	-3902
201	-3903
See	-3904
ids	-3905
met	-3906
Some	-3907
Type	-3908
idel	-3909
pped	-3910
semb	-3911
tend	-3912
▁Eli	-3913
▁ant	-3914
▁boy	-3915
▁gcc	-3916
▁unb	-3917
ality	-3918
▁Post	-3919
▁bold	-3920
▁vain	-3921
▁Satan	-3922
▁allow	-3923
▁brain	-3924
▁entry	-3925
▁grand	-3926
▁Editor	-3927
▁INTEXT	-3928
▁Inhale	-3929
▁Insert	-3930
▁Namask	-3931
▁Verily	-3932
▁humans	-3933
▁rotate	-3934
▁speech	-3935
▁syntax	-3936
▁disease	-3937
▁reading	-3938
▁request	-3939
▁Synaptic	-3940
▁creating	-3941
▁existing	-3942
▁pressure	-3943
▁resource	-3944
▁answering	-3945
▁completed	-3946
▁crucified	-3947
▁molecules	-3948
▁sepulchre	-3949
▁initialized	-3950
9.	-3951
ene	-3952
yas	-3953
▁ep	-3954
aign	-3955
ivid	-3956
odes	-3957
quis	-3958
vent	-3959
vers	-3960
▁Can	-3961
▁Yes	-3962
▁med	-3963
▁wel	-3964
Using	-3965
allel	-3966
▁Your	-3967
▁cand	-3968
▁rand	-3969
▁Hatha	-3970
▁Types	-3971
▁atoms	-3972
▁Finish	-3973
▁KTouch	-3974
▁belong	-3975
▁betray	-3976
▁charge	-3977
▁detail	-3978
▁learned	-3979
▁printer	-3980
▁problem	-3981
▁protein	-3982
▁science	-3983
▁several	-3984
▁forehead	-3985
▁parallel	-3986
▁teaching	-3987
▁salvation	-3988
▁downloaded	-3989
Pro	-3990
acc	-3991
ika	-3992
new	-3993
▁Ay	-3994
▁HT	-3995
▁Ki	-3996
fast	-3997
▁Sri	-3998
aring	-3999
olves	-4000
tched	-4001
▁Line	-4002
▁Pand	-4003
▁Team	-4004
▁bank	-4005
▁load	-4006
▁obey	-4007
▁phot	-4008
▁vine	-4009
▁wilt	-4010
drogen	-4011
isters	-4012
▁Order	-4013
▁Shiva	-4014
ensions	-4015
issions	-4016
istered	-4017
▁allows	-4018
▁elbows	-4019
▁formed	-4020
▁indust	-4021
▁labour	-4022
▁longer	-4023
▁states	-4024
▁tables	-4025
▁individ	-4026
▁villages	-4027
▁sacrifice	-4028
de	-4029
oe	-4030
wo	-4031
asm	-4032
oma	-4033
ajor	-4034
body	-4035
▁Aut	-4036
▁sed	-4037
Today	-4038
ayana	-4039
imony	-4040
▁Move	-4041
▁forn	-4042
▁uses	-4043
▁virt	-4044
▁wond	-4045
action	-4046
▁blasp	-4047
▁chair	-4048
▁wrong	-4049
▁Philip	-4050
▁module	-4051
▁random	-4052
▁reward	-4053
▁stream	-4054
▁transl	-4055
▁"""""""	-4056
▁nations	-4057
▁quality	-4058
▁sinners	-4059
▁agricult	-4060
▁dropdown	-4061
▁testimony	-4062
▁demonstration	-4063
bi	-4064
tes	-4065
cked	-4066
isht	-4067
port	-4068
▁Han	-4069
▁Naz	-4070
▁Web	-4071
▁fab	-4072
▁rad	-4073
hesis	-4074
iveth	-4075
pache	-4076
ulate	-4077
▁Pass	-4078
▁frag	-4079
▁inse	-4080
▁iron	-4081
rition	-4082
▁Laksh	-4083
▁Mudra	-4084
▁abund	-4085
▁chann	-4086
▁ignor	-4087
▁range	-4088
▁risen	-4089
▁subst	-4090
▁total	-4091
▁fabric	-4092
▁gather	-4093
▁pixels	-4094
▁really	-4095
▁temper	-4096
▁Terminal	-4097
▁appeared	-4098
▁capacity	-4099
▁occasion	-4100
▁backwards	-4101
▁destroyed	-4102
▁opportunity	-4103
4.	-4104
80	-4105
Bh	-4106
DB	-4107
gs	-4108
iy	-4109
’,	-4110
▁Hy	-4111
▁Us	-4112
eech	-4113
rate	-4114
vert	-4115
▁1.6	-4116
▁Rep	-4117
▁sir	-4118
istry	-4119
▁Form	-4120
▁HTML	-4121
▁Serv	-4122
▁rejo	-4123
▁rule	-4124
▁void	-4125
cribed	-4126
erness	-4127
number	-4128
▁Setup	-4129
▁eight	-4130
▁grade	-4131
▁heads	-4132
▁paper	-4133
▁twice	-4134
▁Patron	-4135
▁aspect	-4136
▁cities	-4137
▁compil	-4138
▁exhort	-4139
▁listed	-4140
▁sample	-4141
ological	-4142
▁farmers	-4143
▁picture	-4144
▁activity	-4145
▁addition	-4146
▁churches	-4147
▁determin	-4148
▁familiar	-4149
▁forgiven	-4150
▁internal	-4151
▁messages	-4152
▁converted	-4153
▁execution	-4154
▁justified	-4155
▁scripture	-4156
▁inhalation	-4157
▁wilderness	-4158
▁demonstrate	-4159
abh	-4160
dha	-4161
dot	-4162
hya	-4163
ots	-4164
ral	-4165
she	-4166
Note	-4167
amer	-4168
cend	-4169
ctor	-4170
iced	-4171
icks	-4172
road	-4173
▁Bas	-4174
▁Sal	-4175
▁neg	-4176
▁row	-4177
aking	-4178
estic	-4179
ively	-4180
retch	-4181
slash	-4182
zilla	-4183
▁Menu	-4184
▁Show	-4185
▁fert	-4186
▁lost	-4187
▁situ	-4188
▁vict	-4189
itable	-4190
▁Categ	-4191
▁Judas	-4192
▁Relax	-4193
▁Thank	-4194
▁forum	-4195
▁kings	-4196
▁Brahma	-4197
▁Caesar	-4198
▁Delete	-4199
▁famous	-4200
▁govern	-4201
▁modify	-4202
▁months	-4203
▁awkdemo	-4204
▁beseech	-4205
▁confirm	-4206
▁handles	-4207
▁playing	-4208
▁touched	-4209
▁writing	-4210
▁Continue	-4211
▁bringing	-4212
▁devotees	-4213
▁attention	-4214
▁festivals	-4215
▁implement	-4216
▁strengthen	-4217
▁preferences	-4218
IS	-4219
SP	-4220
eal	-4221
lor	-4222
pro	-4223
▁Fo	-4224
▁PH	-4225
!"""	-4226
ighb	-4227
ored	-4228
oser	-4229
umer	-4230
▁AND	-4231
▁enc	-4232
▁max	-4233
▁yes	-4234
atter	-4235
▁Gand	-4236
▁dash	-4237
▁goal	-4238
▁held	-4239
reathe	-4240
urveda	-4241
▁crown	-4242
▁knows	-4243
▁rules	-4244
▁thank	-4245
Suppose	-4246
▁Google	-4247
▁prayed	-4248
▁report	-4249
▁shewed	-4250
▁discuss	-4251
▁rejoice	-4252
▁respons	-4253
▁besought	-4254
▁campaign	-4255
▁patterns	-4256
▁progress	-4257
▁speaking	-4258
▁committed	-4259
▁operating	-4260
▁recording	-4261
▁especially	-4262
▁commandments	-4263
2,	-4264
OT	-4265
Or	-4266
ING	-4267
bra	-4268
elf	-4269
kes	-4270
omy	-4271
ube	-4272
ume	-4273
▁Di	-4274
Open	-4275
aint	-4276
anda	-4277
file	-4278
gins	-4279
iliz	-4280
lish	-4281
▁Out	-4282
▁dut	-4283
▁lie	-4284
▁sow	-4285
Hence	-4286
licit	-4287
ulter	-4288
▁Cent	-4289
▁Conf	-4290
▁FAST	-4291
▁Just	-4292
▁Sing	-4293
▁Vari	-4294
▁army	-4295
▁hous	-4296
▁jour	-4297
▁logo	-4298
▁medi	-4299
▁ment	-4300
▁nice	-4301
▁sudo	-4302
▁weep	-4303
▁wide	-4304
icient	-4305
▁carry	-4306
▁deeds	-4307
▁defin	-4308
▁pages	-4309
▁pride	-4310
▁ruler	-4311
▁sense	-4312
▁sides	-4313
▁style	-4314
▁Slowly	-4315
▁abroad	-4316
▁candle	-4317
▁closed	-4318
▁commun	-4319
▁repeat	-4320
▁taketh	-4321
▁chapter	-4322
▁entries	-4323
▁persons	-4324
▁experien	-4325
▁provides	-4326
▁speaketh	-4327
▁resources	-4328
▁experience	-4329
▁circumcision	-4330
▁understanding	-4331
,)	-4332
Do	-4333
isf	-4334
ium	-4335
ius	-4336
▁Ka	-4337
▁ax	-4338
Data	-4339
gypt	-4340
riya	-4341
used	-4342
▁Cle	-4343
▁Ele	-4344
▁Red	-4345
▁alt	-4346
▁fix	-4347
▁net	-4348
▁rhy	-4349
atics	-4350
icien	-4351
▁Beth	-4352
▁Good	-4353
▁Test	-4354
▁forb	-4355
▁rebu	-4356
istics	-4357
▁Drive	-4358
▁Egypt	-4359
▁FASTA	-4360
▁Today	-4361
▁abide	-4362
▁graph	-4363
▁inner	-4364
▁relig	-4365
▁secre	-4366
brarian	-4367
iciency	-4368
nthesis	-4369
theless	-4370
▁Bharat	-4371
▁Corona	-4372
▁Source	-4373
▁adding	-4374
▁beasts	-4375
▁higher	-4376
▁neighb	-4377
▁perish	-4378
▁persec	-4379
▁printf	-4380
▁sister	-4381
▁slides	-4382
▁stands	-4383
▁starts	-4384
▁talent	-4385
▁classes	-4386
▁harmful	-4387
▁percent	-4388
▁Avogadro	-4389
▁Nazareth	-4390
▁blasphem	-4391
▁distance	-4392
▁particip	-4393
▁separate	-4394
▁yourself	-4395
▁associated	-4396
▁performing	-4397
▁Preferences	-4398
▁requirement	-4399
3.	-4400
EG	-4401
amm	-4402
osy	-4403
une	-4404
▁Sk	-4405
abas	-4406
agon	-4407
aken	-4408
anch	-4409
asso	-4410
resh	-4411
▁Are	-4412
▁Del	-4413
▁Mat	-4414
▁fat	-4415
▁hid	-4416
▁wid	-4417
gging	-4418
iders	-4419
iques	-4420
vered	-4421
▁Bank	-4422
▁heat	-4423
▁mail	-4424
▁mira	-4425
▁skin	-4426
▁stom	-4427
▁stri	-4428
During	-4429
ariaDB	-4430
▁12.04	-4431
▁Micro	-4432
▁Super	-4433
▁goeth	-4434
▁reign	-4435
▁taste	-4436
assover	-4437
▁Method	-4438
▁adjust	-4439
▁belief	-4440
▁branch	-4441
▁broken	-4442
▁guidel	-4443
▁judged	-4444
▁placed	-4445
▁respir	-4446
▁scroll	-4447
▁MariaDB	-4448
▁adulter	-4449
▁quickly	-4450
▁tongues	-4451
▁explains	-4452
▁prompted	-4453
▁sacrific	-4454
▁shortcut	-4455
▁countries	-4456
▁happiness	-4457
▁stretched	-4458
▁foundation	-4459
▁humbleness	-4460
De	-4461
Ed	-4462
ml	-4463
sy	-4464
ime	-4465
isc	-4466
lob	-4467
mod	-4468
rap	-4469
ued	-4470
▁Ob	-4471
akti	-4472
bing	-4473
esty	-4474
like	-4475
ooth	-4476
reet	-4477
roud	-4478
▁Arr	-4479
▁Som	-4480
▁cho	-4481
▁sil	-4482
eturn	-4483
▁Also	-4484
▁Lamb	-4485
▁auto	-4486
▁fish	-4487
▁palm	-4488
▁wait	-4489
Please	-4490
olutes	-4491
▁Elias	-4492
▁Excel	-4493
▁Rajas	-4494
▁exact	-4495
▁excel	-4496
▁rhyth	-4497
▁texts	-4498
ilities	-4499
▁afflic	-4500
▁attach	-4501
▁butter	-4502
▁commit	-4503
▁needed	-4504
▁sports	-4505
▁passing	-4506
▁pleased	-4507
▁therein	-4508
▁argument	-4509
▁branches	-4510
▁changing	-4511
▁internet	-4512
▁painting	-4513
▁positive	-4514
▁Therefore	-4515
▁daughters	-4516
▁conscience	-4517
▁techniques	-4518
▁directories	-4519
1/	-4520
RG	-4521
Int	-4522
ami	-4523
gae	-4524
ums	-4525
abel	-4526
ably	-4527
oted	-4528
rage	-4529
▁Bar	-4530
▁Day	-4531
▁der	-4532
▁gif	-4533
▁oil	-4534
avour	-4535
lling	-4536
ontal	-4537
space	-4538
▁Asia	-4539
▁Bend	-4540
▁Char	-4541
▁Kash	-4542
▁Raja	-4543
▁Read	-4544
▁chem	-4545
▁drew	-4546
▁lakh	-4547
ioxide	-4548
resent	-4549
▁abode	-4550
▁asana	-4551
▁chant	-4552
▁kinds	-4553
▁loose	-4554
▁roots	-4555
▁sanct	-4556
▁setup	-4557
▁signs	-4558
▁Person	-4559
▁darker	-4560
▁ensure	-4561
▁hither	-4562
▁lawful	-4563
▁namely	-4564
▁satisf	-4565
▁secret	-4566
▁wonder	-4567
▁Explore	-4568
▁Serials	-4569
▁brushes	-4570
▁buttons	-4571
▁carried	-4572
▁charity	-4573
▁covered	-4574
▁parable	-4575
▁removed	-4576
▁returns	-4577
▁stomach	-4578
▁surface	-4579
▁upwards	-4580
▁vitamin	-4581
▁willing	-4582
▁Launcher	-4583
▁alphabet	-4584
▁disciple	-4585
▁division	-4586
▁humility	-4587
▁passover	-4588
▁produced	-4589
▁operation	-4590
▁getDetails	-4591
▁comfortable	-4592
Ch	-4593
Of	-4594
ji	-4595
nc	-4596
adh	-4597
pat	-4598
uly	-4599
”."	-4600
▁21	-4601
▁ur	-4602
Serv	-4603
aged	-4604
raft	-4605
▁3.7	-4606
▁Bio	-4607
▁Fil	-4608
▁ash	-4609
▁dry	-4610
▁low	-4611
eader	-4612
ereth	-4613
gmail	-4614
ifier	-4615
iling	-4616
▁cold	-4617
▁dele	-4618
▁game	-4619
▁leaf	-4620
▁rate	-4621
▁repe	-4622
▁subs	-4623
▁warm	-4624
father	-4625
ternal	-4626
▁numer	-4627
▁paths	-4628
▁proud	-4629
▁topic	-4630
▁valid	-4631
▁width	-4632
ability	-4633
biology	-4634
cending	-4635
ributes	-4636
▁Number	-4637
▁People	-4638
▁battle	-4639
▁lifted	-4640
▁strang	-4641
▁Hanuman	-4642
▁Install	-4643
▁Supreme	-4644
▁condemn	-4645
▁efforts	-4646
▁filling	-4647
▁spirits	-4648
▁Maintain	-4649
▁actually	-4650
▁building	-4651
osynthesis	-4652
▁mountains	-4653
▁neighbour	-4654
▁understood	-4655
yl	-4656
Com	-4657
Rec	-4658
gar	-4659
pdf	-4660
uge	-4661
▁1,	-4662
▁Ra	-4663
Edit	-4664
ades	-4665
aked	-4666
alls	-4667
lent	-4668
oked	-4669
oure	-4670
phas	-4671
teen	-4672
▁Mag	-4673
▁Min	-4674
▁PHP	-4675
▁enh	-4676
▁gir	-4677
▁pol	-4678
▁sto	-4679
orses	-4680
otten	-4681
stand	-4682
▁beat	-4683
▁diet	-4684
▁firm	-4685
▁grie	-4686
▁mood	-4687
▁seem	-4688
▁tail	-4689
▁term	-4690
ithila	-4691
sation	-4692
▁Suksh	-4693
▁compr	-4694
▁excre	-4695
▁frame	-4696
▁hypoc	-4697
▁keeps	-4698
▁lying	-4699
▁notes	-4700
tenance	-4701
▁Import	-4702
▁active	-4703
▁effort	-4704
▁partak	-4705
▁Company	-4706
▁clothed	-4707
▁highest	-4708
▁history	-4709
▁journey	-4710
▁session	-4711
▁supreme	-4712
▁entering	-4713
▁finished	-4714
▁including	-4715
▁medicinal	-4716
▁receiveth	-4717
▁expression	-4718
▁foreground	-4719
▁description	-4720
▁fornication	-4721
uk	-4722
vi	-4723
++.	-4724
Boy	-4725
eng	-4726
lse	-4727
mir	-4728
yah	-4729
▁90	-4730
▁Ge	-4731
▁Ro	-4732
adhi	-4733
anti	-4734
atma	-4735
haps	-4736
ieth	-4737
keys	-4738
unch	-4739
▁Pra	-4740
▁mas	-4741
▁pdf	-4742
▁ric	-4743
antra	-4744
ieves	-4745
imize	-4746
▁Barn	-4747
▁Cond	-4748
▁Feel	-4749
▁Marc	-4750
▁Prad	-4751
▁Rest	-4752
▁flex	-4753
▁join	-4754
▁nose	-4755
▁subt	-4756
▁unit	-4757
atalog	-4758
static	-4759
▁Print	-4760
▁Right	-4761
▁Trans	-4762
▁Vedas	-4763
▁edges	-4764
▁enrol	-4765
▁fixed	-4766
▁foods	-4767
▁freed	-4768
▁grant	-4769
▁major	-4770
▁minds	-4771
▁typed	-4772
acharya	-4773
tension	-4774
▁Object	-4775
▁Plants	-4776
▁assemb	-4777
▁colors	-4778
▁fourth	-4779
▁happen	-4780
▁header	-4781
▁nerves	-4782
▁riches	-4783
▁status	-4784
▁goddess	-4785
▁players	-4786
▁replace	-4787
▁usually	-4788
▁Barnabas	-4789
▁checkbox	-4790
▁powerful	-4791
▁revealed	-4792
▁Dandasana	-4793
▁languages	-4794
▁preaching	-4795
▁reference	-4796
▁remaining	-4797
▁operations	-4798
YY	-4799
gi	-4800
Rem	-4801
upe	-4802
val	-4803
vet	-4804
▁7.	-4805
▁80	-4806
▁Of	-4807
▁Rs	-4808
▁iv	-4809
)"""	-4810
acle	-4811
acob	-4812
akar	-4813
akes	-4814
atex	-4815
lets	-4816
race	-4817
test	-4818
vels	-4819
▁May	-4820
▁Vaj	-4821
▁ann	-4822
▁bad	-4823
▁fly	-4824
▁iii	-4825
astly	-4826
entle	-4827
ested	-4828
organ	-4829
▁Over	-4830
▁Sukt	-4831
▁hang	-4832
▁hell	-4833
▁lose	-4834
▁rice	-4835
▁salt	-4836
stract	-4837
▁Bring	-4838
▁Jacob	-4839
▁ahead	-4840
▁alive	-4841
▁coven	-4842
▁extra	-4843
▁goods	-4844
▁grown	-4845
▁mango	-4846
▁moves	-4847
▁price	-4848
▁repro	-4849
▁stuff	-4850
▁troub	-4851
Because	-4852
▁Custom	-4853
▁Stroke	-4854
▁gentle	-4855
▁inspir	-4856
▁marvel	-4857
▁proced	-4858
▁recomm	-4859
▁smooth	-4860
▁vision	-4861
▁English	-4862
▁Mozilla	-4863
▁Sukshma	-4864
▁ashamed	-4865
▁captain	-4866
▁checked	-4867
▁foolish	-4868
▁joining	-4869
▁planets	-4870
▁suppose	-4871
▁welcome	-4872
librarian	-4873
▁cleaning	-4874
▁Bookmarks	-4875
▁extension	-4876
▁increases	-4877
▁processes	-4878
▁represent	-4879
▁specified	-4880
▁Extensions	-4881
▁Properties	-4882
▁temperature	-4883
▁contribution	-4884
Ar	-4885
UI	-4886
UR	-4887
wa	-4888
39.	-4889
Our	-4890
ini	-4891
opy	-4892
uck	-4893
▁./	-4894
Know	-4895
Thus	-4896
cean	-4897
gimp	-4898
onia	-4899
unto	-4900
▁inn	-4901
▁lad	-4902
▁pit	-4903
▁sor	-4904
▁tom	-4905
▁tor	-4906
▁ves	-4907
oring	-4908
pping	-4909
▁Gree	-4910
▁View	-4911
▁fail	-4912
▁pros	-4913
▁safe	-4914
Verily	-4915
anjali	-4916
encies	-4917
▁Prone	-4918
▁Title	-4919
▁early	-4920
▁eaten	-4921
▁everl	-4922
▁fists	-4923
▁float	-4924
▁idols	-4925
▁salut	-4926
"""""""	-4927
Neither	-4928
ilizers	-4929
pective	-4930
▁Curves	-4931
▁center	-4932
▁freely	-4933
▁houses	-4934
▁invoke	-4935
▁resist	-4936
▁tabern	-4937
▁vessel	-4938
▁whence	-4939
Likewise	-4940
▁Options	-4941
▁calling	-4942
▁conduct	-4943
▁sliders	-4944
▁species	-4945
▁improves	-4946
▁interpre	-4947
▁signific	-4948
▁generated	-4949
▁attributes	-4950
▁confidence	-4951
▁everlasting	-4952
▁applications	-4953
▁administrator	-4954
)"	-4955
.,	-4956
En	-4957
Pr	-4958
hic	-4959
▁Fl	-4960
Demo	-4961
held	-4962
mosp	-4963
ucts	-4964
▁Pad	-4965
▁Rav	-4966
▁Sum	-4967
▁bul	-4968
▁dom	-4969
▁fif	-4970
▁gaz	-4971
abled	-4972
bered	-4973
chase	-4974
inary	-4975
uddhi	-4976
▁Food	-4977
▁Xfig	-4978
▁tags	-4979
Lastly	-4980
estion	-4981
▁Layer	-4982
▁Other	-4983
▁covet	-4984
▁forty	-4985
▁fully	-4986
▁lotus	-4987
▁lusts	-4988
▁query	-4989
▁smell	-4990
▁wheat	-4991
ception	-4992
itation	-4993
▁Bhagav	-4994
▁Supine	-4995
▁beheld	-4996
▁cooked	-4997
▁golden	-4998
▁loveth	-4999
▁pencil	-5000
▁player	-5001
▁prints	-5002
▁waters	-5003
▁Blessed	-5004
▁channel	-5005
▁heavens	-5006
▁reverse	-5007
▁setting	-5008
▁adultery	-5009
▁expected	-5010
▁overload	-5011
▁sanskrit	-5012
▁thinking	-5013
▁triangle	-5014
▁troubled	-5015
▁Downloads	-5016
▁dashboard	-5017
▁household	-5018
▁increased	-5019
▁individual	-5020
▁instruments	-5021
▁Microbiology	-5022
aps	-5023
asa	-5024
ato	-5025
ban	-5026
eem	-5027
ppa	-5028
www	-5029
▁14	-5030
▁BL	-5031
▁Ep	-5032
▁bi	-5033
▁dh	-5034
Many	-5035
anta	-5036
arah	-5037
fact	-5038
omet	-5039
pers	-5040
rest	-5041
▁Ach	-5042
▁GUI	-5043
▁JSP	-5044
▁bed	-5045
▁dil	-5046
▁nar	-5047
▁ran	-5048
39.50	-5049
eries	-5050
osing	-5051
riyas	-5052
utras	-5053
’."""	-5054
▁Saul	-5055
▁Year	-5056
▁amaz	-5057
▁bind	-5058
▁cool	-5059
▁echo	-5060
▁reap	-5061
▁rows	-5062
Behold	-5063
Reader	-5064
change	-5065
ecture	-5066
edient	-5067
igence	-5068
▁Among	-5069
▁Suppl	-5070
▁Users	-5071
▁World	-5072
▁dirty	-5073
▁hours	-5074
▁persu	-5075
▁share	-5076
▁unbel	-5077
erscore	-5078
▁Dharma	-5079
▁Remove	-5080
▁Upload	-5081
▁define	-5082
▁horses	-5083
▁nearly	-5084
▁points	-5085
▁powers	-5086
▁rulers	-5087
▁silver	-5088
▁topics	-5089
mosphere	-5090
▁Kashmir	-5091
▁Palette	-5092
▁Science	-5093
▁achieve	-5094
▁apostle	-5095
▁breathe	-5096
▁context	-5097
▁dioxide	-5098
▁distrib	-5099
▁garment	-5100
▁knowest	-5101
▁maximum	-5102
▁minutes	-5103
▁prayers	-5104
▁prophes	-5105
▁shlokas	-5106
▁Projects	-5107
▁chemical	-5108
▁glorious	-5109
▁minerals	-5110
▁celebrate	-5111
▁configure	-5112
▁Assignment	-5113
▁Management	-5114
▁discussion	-5115
▁guidelines	-5116
▁expressions	-5117
▁interesting	-5118
:,	-5119
II	-5120
han	-5121
▁18	-5122
▁19	-5123
▁24	-5124
▁wc	-5125
Else	-5126
Just	-5127
Keep	-5128
anka	-5129
ards	-5130
ests	-5131
fold	-5132
hern	-5133
heth	-5134
home	-5135
iral	-5136
itiz	-5137
izes	-5138
many	-5139
▁Gen	-5140
▁Not	-5141
▁Sol	-5142
▁bal	-5143
▁lat	-5144
▁tip	-5145
ASANA	-5146
ifies	-5147
kelet	-5148
rency	-5149
ropri	-5150
▁Biop	-5151
▁Demo	-5152
▁Each	-5153
▁Know	-5154
▁Look	-5155
▁dung	-5156
▁edge	-5157
▁gear	-5158
▁lack	-5159
▁myst	-5160
▁rock	-5161
abhati	-5162
brance	-5163
essage	-5164
ograph	-5165
▁Again	-5166
▁Align	-5167
▁Books	-5168
▁Creat	-5169
▁Gives	-5170
▁Kapal	-5171
▁Surya	-5172
▁Timot	-5173
▁cases	-5174
▁exhib	-5175
▁gedit	-5176
▁noble	-5177
▁scale	-5178
▁scatt	-5179
▁sixth	-5180
▁solar	-5181
▁stead	-5182
▁warri	-5183
ression	-5184
▁Gandhi	-5185
▁almost	-5186
▁dances	-5187
▁deeply	-5188
▁divine	-5189
▁exists	-5190
▁listen	-5191
▁liveth	-5192
▁salute	-5193
▁senses	-5194
▁stroke	-5195
▁yellow	-5196
Remember	-5197
hematics	-5198
▁Stretch	-5199
▁aligned	-5200
▁compare	-5201
▁editing	-5202
▁evening	-5203
▁heareth	-5204
▁insects	-5205
▁opacity	-5206
▁resolve	-5207
▁sisters	-5208
▁specify	-5209
▁trouble	-5210
▁updated	-5211
▁Accounts	-5212
▁Conducts	-5213
▁appropri	-5214
▁consider	-5215
▁pleasure	-5216
▁programs	-5217
▁training	-5218
▁Biopython	-5219
▁centurion	-5220
▁conscious	-5221
▁exercises	-5222
▁pranayama	-5223
▁separated	-5224
▁witnesses	-5225
▁celebrated	-5226
▁everywhere	-5227
▁navigation	-5228
▁synagogues	-5229
▁remembrance	-5230
▁conversation	-5231
▁Superlibrarian	-5232
ID	-5233
uce	-5234
▁BO	-5235
▁Gu	-5236
▁Lo	-5237
▁ST	-5238
▁ir	-5239
Save	-5240
aded	-5241
adhy	-5242
date	-5243
this	-5244
▁Niy	-5245
Every	-5246
ained	-5247
artha	-5248
ffice	-5249
print	-5250
saias	-5251
▁Auto	-5252
▁Both	-5253
▁Mask	-5254
▁bare	-5255
▁card	-5256
▁info	-5257
▁slow	-5258
▁weap	-5259
harana	-5260
itteth	-5261
terday	-5262
▁Maced	-5263
▁Watch	-5264
▁aside	-5265
▁chain	-5266
▁drawn	-5267
▁greet	-5268
▁overw	-5269
▁seeth	-5270
▁tried	-5271
▁blocks	-5272
▁finish	-5273
▁instit	-5274
▁refers	-5275
▁stones	-5276
▁wanted	-5277
andatory	-5278
▁Catalog	-5279
▁accompl	-5280
▁arrange	-5281
▁explore	-5282
▁introdu	-5283
▁produce	-5284
▁reflect	-5285
▁walking	-5286
imization	-5287
▁Password	-5288
▁covenant	-5289
▁subclass	-5290
▁whatever	-5291
▁whenever	-5292
▁appointed	-5293
▁basically	-5294
▁depending	-5295
▁medicines	-5296
▁procedure	-5297
▁selecting	-5298
▁connection	-5299
▁initialize	-5300
▁protection	-5301
▁structures	-5302
▁traditions	-5303
▁appropriate	-5304
▁Administration	-5305
10	-5306
12	-5307
dh	-5308
ux	-5309
Bre	-5310
Dis	-5311
Ind	-5312
een	-5313
him	-5314
ior	-5315
nes	-5316
por	-5317
rix	-5318
set	-5319
utt	-5320
▁Ac	-5321
▁eg	-5322
anes	-5323
beit	-5324
enty	-5325
etch	-5326
iber	-5327
land	-5328
oned	-5329
room	-5330
uary	-5331
ucle	-5332
umbs	-5333
▁Act	-5334
▁Alp	-5335
▁Doc	-5336
▁Hel	-5337
▁Mus	-5338
▁Sil	-5339
▁Tra	-5340
▁Val	-5341
▁adj	-5342
▁din	-5343
▁dog	-5344
▁fit	-5345
▁har	-5346
▁spr	-5347
rowse	-5348
”."""	-5349
▁Mark	-5350
▁Sync	-5351
▁excl	-5352
▁flag	-5353
▁heal	-5354
▁news	-5355
▁sage	-5356
isible	-5357
llipse	-5358
▁Being	-5359
▁Bhish	-5360
▁Bhram	-5361
▁Clean	-5362
▁Field	-5363
▁Green	-5364
▁Lanka	-5365
▁adopt	-5366
▁becom	-5367
▁colon	-5368
▁gifts	-5369
▁limit	-5370
▁proxy	-5371
▁sharp	-5372
▁stage	-5373
▁sweet	-5374
▁tears	-5375
▁thief	-5376
olation	-5377
thegimp	-5378
▁Format	-5379
▁Typing	-5380
▁animal	-5381
▁begins	-5382
▁caused	-5383
▁eateth	-5384
▁fishes	-5385
▁matrix	-5386
▁pieces	-5387
▁prepar	-5388
▁swaras	-5389
▁Filters	-5390
▁bondage	-5391
▁charged	-5392
▁confess	-5393
▁feeling	-5394
▁folders	-5395
▁heading	-5396
▁helpful	-5397
▁prosper	-5398
▁stories	-5399
▁victory	-5400
esticides	-5401
velopment	-5402
▁Explorer	-5403
▁MarcEdit	-5404
▁bringeth	-5405
▁business	-5406
▁enrolled	-5407
▁feedback	-5408
▁heavenly	-5409
▁negative	-5410
▁surround	-5411
▁discussed	-5412
▁thousands	-5413
▁atmosphere	-5414
▁increasing	-5415
▁meditation	-5416
▁previously	-5417
AM	-5418
lu	-5419
cto	-5420
ler	-5421
udh	-5422
▁Co	-5423
▁rm	-5424
2017	-5425
adow	-5426
agar	-5427
arts	-5428
atio	-5429
gens	-5430
hadi	-5431
ioch	-5432
kash	-5433
udes	-5434
▁Mel	-5435
▁Ref	-5436
▁Thy	-5437
▁raw	-5438
astic	-5439
eness	-5440
ounds	-5441
stron	-5442
▁Meet	-5443
▁boys	-5444
▁cost	-5445
▁lock	-5446
▁null	-5447
▁pair	-5448
▁rose	-5449
▁shed	-5450
▁subm	-5451
▁wash	-5452
▁womb	-5453
ancial	-5454
aviour	-5455
ctober	-5456
efined	-5457
ounded	-5458
▁Asana	-5459
▁BLAST	-5460
▁Color	-5461
▁apply	-5462
▁citiz	-5463
▁flame	-5464
▁horse	-5465
▁marri	-5466
▁marry	-5467
▁thick	-5468
▁Browse	-5469
▁Esaias	-5470
▁armies	-5471
▁clouds	-5472
▁consum	-5473
▁degree	-5474
▁insert	-5475
▁maketh	-5476
▁medium	-5477
▁mostly	-5478
▁worlds	-5479
▁Antioch	-5480
▁Trataka	-5481
▁council	-5482
▁counsel	-5483
▁forgive	-5484
▁growing	-5485
▁relaxed	-5486
▁sayings	-5487
▁selects	-5488
▁smaller	-5489
▁wrought	-5490
▁Pandavas	-5491
▁Ramayana	-5492
▁anywhere	-5493
▁dwelleth	-5494
▁precious	-5495
▁problems	-5496
▁services	-5497
▁Configure	-5498
▁Macedonia	-5499
▁highlight	-5500
▁organized	-5501
▁Navigation	-5502
▁permissions	-5503
CE	-5504
YP	-5505
New	-5506
Wor	-5507
aac	-5508
acy	-5509
ixt	-5510
pes	-5511
rid	-5512
▁IS	-5513
▁bh	-5514
,000	-5515
Talk	-5516
herd	-5517
isms	-5518
stal	-5519
yard	-5520
▁Kal	-5521
▁Nad	-5522
▁Try	-5523
▁hun	-5524
▁mal	-5525
▁sti	-5526
Never	-5527
after	-5528
andha	-5529
categ	-5530
imary	-5531
ruits	-5532
usion	-5533
▁Even	-5534
▁Mann	-5535
▁Prat	-5536
▁Tell	-5537
▁acqu	-5538
▁conv	-5539
▁serp	-5540
though	-5541
▁About	-5542
▁Isaac	-5543
▁Items	-5544
▁Level	-5545
▁Under	-5546
▁bliss	-5547
▁bride	-5548
▁crops	-5549
▁doesn	-5550
▁elder	-5551
▁fungi	-5552
▁habit	-5553
▁liter	-5554
▁nodes	-5555
▁ocean	-5556
▁shift	-5557
▁tribe	-5558
drogens	-5559
keleton	-5560
▁Design	-5561
▁Sample	-5562
▁Server	-5563
▁arrows	-5564
▁caught	-5565
▁compet	-5566
▁forget	-5567
▁hidden	-5568
▁moodle	-5569
▁sealed	-5570
ccording	-5571
▁allowed	-5572
▁benefit	-5573
▁century	-5574
▁raiment	-5575
▁remains	-5576
▁seasons	-5577
▁seconds	-5578
▁stipend	-5579
▁strange	-5580
▁systems	-5581
▁toolbar	-5582
▁unright	-5583
▁wonders	-5584
▁Bhramari	-5585
▁blessing	-5586
▁bookmark	-5587
▁constant	-5588
▁generate	-5589
▁governor	-5590
▁imported	-5591
▁offering	-5592
▁duplicate	-5593
▁sentences	-5594
▁sometimes	-5595
▁percentage	-5596
▁practicing	-5597
▁repentance	-5598
▁tabernacle	-5599
▁underscore	-5600
▁programming	-5601
▁recommended	-5602
▁unrighteous	-5603
▁continuously	-5604
▁instructions	-5605
▁responsibility	-5606
td	-5607
ATH	-5608
His	-5609
aki	-5610
has	-5611
key	-5612
lly	-5613
mar	-5614
oka	-5615
pan	-5616
tha	-5617
▁13	-5618
▁31	-5619
▁60	-5620
▁Ve	-5621
Come	-5622
anot	-5623
gged	-5624
htra	-5625
ikas	-5626
inct	-5627
inth	-5628
meet	-5629
zier	-5630
▁Art	-5631
▁Get	-5632
▁Mar	-5633
▁War	-5634
▁ble	-5635
▁fac	-5636
▁kit	-5637
▁mix	-5638
▁spl	-5639
ighty	-5640
irban	-5641
opies	-5642
upees	-5643
▁deny	-5644
▁duty	-5645
▁eyeb	-5646
▁fort	-5647
▁mist	-5648
▁sell	-5649
▁sile	-5650
▁tour	-5651
ancing	-5652
ervous	-5653
icious	-5654
itudes	-5655
▁Impro	-5656
▁Tamas	-5657
▁Vedic	-5658
▁accur	-5659
▁coast	-5660
▁cycle	-5661
▁glass	-5662
▁iniqu	-5663
▁lived	-5664
▁micro	-5665
▁owner	-5666
▁renew	-5667
▁shame	-5668
▁smoke	-5669
▁utter	-5670
▁Apache	-5671
▁Bezier	-5672
▁Exhale	-5673
▁Layers	-5674
▁accord	-5675
▁astron	-5676
▁challe	-5677
▁easier	-5678
▁employ	-5679
▁google	-5680
▁loaves	-5681
▁talked	-5682
▁Balance	-5683
▁ability	-5684
▁attract	-5685
▁briefly	-5686
▁decided	-5687
▁deleted	-5688
▁endowed	-5689
▁exactly	-5690
▁rebuked	-5691
▁sources	-5692
▁testdir	-5693
▁torment	-5694
▁Database	-5695
▁Describe	-5696
▁absorbed	-5697
▁contrast	-5698
▁hydrogen	-5699
▁ordained	-5700
▁vineyard	-5701
▁Namaskara	-5702
▁continued	-5703
▁invisible	-5704
▁scattered	-5705
meetthegimp	-5706
▁attachment	-5707
▁completing	-5708
▁directions	-5709
▁multitudes	-5710
▁Kapalabhati	-5711
▁differences	-5712
▁inheritance	-5713
▁traditional	-5714
.4	-5715
Ap	-5716
ih	-5717
la	-5718
wd	-5719
Cho	-5720
Fin	-5721
Get	-5722
HEN	-5723
cpp	-5724
isk	-5725
yan	-5726
▁Dr	-5727
▁GL	-5728
▁Jo	-5729
▁Ty	-5730
▁sn	-5731
▁vi	-5732
Bank	-5733
atel	-5734
aten	-5735
hood	-5736
itro	-5737
pare	-5738
unas	-5739
▁3.3	-5740
▁Ang	-5741
▁Att	-5742
▁Don	-5743
▁Nar	-5744
▁Pan	-5745
▁Reg	-5746
▁Tax	-5747
▁bag	-5748
▁enl	-5749
▁jsp	-5750
▁kid	-5751
▁lin	-5752
▁pul	-5753
▁sew	-5754
▁tit	-5755
acent	-5756
anish	-5757
arpen	-5758
clock	-5759
epend	-5760
ideth	-5761
imate	-5762
iring	-5763
lobal	-5764
olunt	-5765
omuch	-5766
plete	-5767
rates	-5768
rence	-5769
shala	-5770
under	-5771
▁Date	-5772
▁Hold	-5773
▁Mult	-5774
▁Satt	-5775
▁calf	-5776
▁cout	-5777
▁ends	-5778
▁font	-5779
▁manu	-5780
▁mill	-5781
▁seat	-5782
▁vend	-5783
Select	-5784
otions	-5785
▁Chand	-5786
▁Ephes	-5787
▁Geeta	-5788
▁Indra	-5789
▁Input	-5790
▁Karma	-5791
▁State	-5792
▁altar	-5793
▁arise	-5794
▁aston	-5795
▁conqu	-5796
▁dwelt	-5797
▁encou	-5798
▁naked	-5799
▁oppos	-5800
▁overr	-5801
▁polit	-5802
▁quant	-5803
▁ratio	-5804
▁throw	-5805
Welcome	-5806
aternal	-5807
avigate	-5808
itrogen	-5809
▁fallen	-5810
▁forbid	-5811
▁giveth	-5812
▁joined	-5813
▁latest	-5814
▁market	-5815
▁prefer	-5816
▁sayest	-5817
▁spiral	-5818
▁thorns	-5819
▁twenty	-5820
▁uncirc	-5821
▁washed	-5822
▁worked	-5823
▁Because	-5824
▁Lecture	-5825
▁October	-5826
▁assumes	-5827
▁baptism	-5828
▁bestows	-5829
▁corners	-5830
▁desires	-5831
▁desktop	-5832
▁fulfill	-5833
▁placing	-5834
▁profile	-5835
▁sounded	-5836
▁summary	-5837
▁whereof	-5838
▁worketh	-5839
▁Students	-5840
▁covetous	-5841
▁describe	-5842
▁drinking	-5843
▁happened	-5844
▁immunity	-5845
▁miracles	-5846
▁printing	-5847
▁sentence	-5848
▁treasure	-5849
▁uploaded	-5850
▁partakers	-5851
▁references	-5852
▁sacrifices	-5853
▁fertilizers	-5854
▁characteristics	-5855
.2	-5856
PU	-5857
ze	-5858
.05	-5859
.30	-5860
TRL	-5861
awk	-5862
cip	-5863
het	-5864
hra	-5865
ogn	-5866
aven	-5867
hatt	-5868
ivil	-5869
nown	-5870
oman	-5871
sian	-5872
▁Fun	-5873
▁HYP	-5874
▁Its	-5875
▁Rot	-5876
▁Sav	-5877
▁Two	-5878
▁avo	-5879
anged	-5880
atell	-5881
point	-5882
rites	-5883
udeva	-5884
urity	-5885
works	-5886
▁"""(	-5887
▁CTRL	-5888
▁Lear	-5889
▁Stat	-5890
▁asks	-5891
▁calm	-5892
▁chin	-5893
▁cord	-5894
▁flat	-5895
▁harv	-5896
▁sees	-5897
▁undo	-5898
▁Delhi	-5899
▁Hence	-5900
▁Login	-5901
▁Shlok	-5902
▁Swami	-5903
▁Tools	-5904
▁angry	-5905
▁craft	-5906
▁holds	-5907
▁nucle	-5908
▁parse	-5909
▁piece	-5910
▁sages	-5911
▁split	-5912
▁unity	-5913
▁urine	-5914
▁utens	-5915
▁walls	-5916
actions	-5917
anamask	-5918
▁Arrays	-5919
▁HYPHEN	-5920
▁Thanks	-5921
▁bought	-5922
▁crying	-5923
▁depend	-5924
▁enroll	-5925
▁feared	-5926
▁hunger	-5927
▁infirm	-5928
▁mainly	-5929
▁morrow	-5930
▁satell	-5931
▁slight	-5932
▁Address	-5933
▁Goddess	-5934
▁Posture	-5935
▁avoided	-5936
▁commend	-5937
▁delight	-5938
▁effects	-5939
▁harvest	-5940
▁manager	-5941
▁thieves	-5942
▁whither	-5943
▁accepted	-5944
▁adjacent	-5945
▁destroys	-5946
▁garments	-5947
▁greatest	-5948
▁homepage	-5949
▁manufact	-5950
▁protects	-5951
▁relation	-5952
▁sunlight	-5953
▁supports	-5954
ifications	-5955
▁excretion	-5956
▁mandatory	-5957
▁materials	-5958
▁nutrition	-5959
▁collection	-5960
▁determined	-5961
▁remembered	-5962
▁sharpening	-5963
▁agriculture	-5964
sc	-5965
Con	-5966
Str	-5967
cer	-5968
elt	-5969
hoo	-5970
ims	-5971
oss	-5972
thi	-5973
▁Ev	-5974
▁Sm	-5975
▁er	-5976
More	-5977
Take	-5978
area	-5979
chen	-5980
hana	-5981
ishi	-5982
ival	-5983
rict	-5984
▁Ash	-5985
▁THE	-5986
▁lam	-5987
▁pun	-5988
▁spo	-5989
▁vio	-5990
Other	-5991
forth	-5992
istic	-5993
istle	-5994
▁Blur	-5995
▁Chak	-5996
▁Dist	-5997
▁Fund	-5998
▁Norm	-5999
▁Once	-6000
▁Turn	-6001
▁afar	-6002
▁hate	-6003
▁heir	-6004
▁idea	-6005
▁lion	-6006
▁loss	-6007
▁push	-6008
▁tast	-6009
ellect	-6010
icular	-6011
ubbing	-6012
▁3.7.0	-6013
▁Ganga	-6014
▁Patel	-6015
▁dream	-6016
▁leads	-6017
▁metal	-6018
▁mixed	-6019
▁offic	-6020
▁tells	-6021
▁truly	-6022
Finally	-6023
Project	-6024
ishment	-6025
orrowed	-6026
▁11.10,	-6027
▁Colour	-6028
▁amazed	-6029
▁beside	-6030
▁illust	-6031
▁inhale	-6032
▁rename	-6033
▁travel	-6034
arashtra	-6035
standing	-6036
▁Bhishma	-6037
▁Content	-6038
▁GenBank	-6039
▁Opacity	-6040
▁Purusha	-6041
▁devotee	-6042
▁earthqu	-6043
▁harmony	-6044
▁modesty	-6045
▁mystery	-6046
▁nervous	-6047
▁patient	-6048
▁pertain	-6049
▁pulling	-6050
▁putting	-6051
▁serving	-6052
▁singing	-6053
▁someone	-6054
▁tempted	-6055
▁Addition	-6056
▁Remember	-6057
▁attached	-6058
▁brothers	-6059
▁includes	-6060
▁marriage	-6061
▁overcome	-6062
▁repeated	-6063
▁calculate	-6064
▁completes	-6065
▁described	-6066
▁developed	-6067
▁generally	-6068
▁marvelled	-6069
▁technique	-6070
▁astonished	-6071
▁deficiency	-6072
▁horizontal	-6073
▁hypocrites	-6074
▁successful	-6075
▁experiences	-6076
▁respiratory	-6077
2)	-6078
HA	-6079
ba	-6080
Sal	-6081
god	-6082
jsp	-6083
kar	-6084
nut	-6085
rel	-6086
▁CD	-6087
Hell	-6088
Mann	-6089
Thou	-6090
ande	-6091
appe	-6092
arat	-6093
book	-6094
ivek	-6095
llap	-6096
pper	-6097
▁200	-6098
▁Bib	-6099
▁Ger	-6100
▁Hem	-6101
▁Sah	-6102
▁hot	-6103
▁mel	-6104
▁tax	-6105
Enter	-6106
Hello	-6107
agram	-6108
hicle	-6109
osaur	-6110
ouble	-6111
quent	-6112
rishn	-6113
▁Circ	-6114
▁Pada	-6115
▁Self	-6116
▁Yama	-6117
▁ball	-6118
▁bask	-6119
▁blur	-6120
▁imag	-6121
▁lake	-6122
▁magn	-6123
▁murd	-6124
▁repl	-6125
▁roof	-6126
▁sown	-6127
▁sted	-6128
▁urge	-6129
Inhale	-6130
NMEICT	-6131
asmuch	-6132
asures	-6133
struct	-6134
▁16.05	-6135
▁Alpha	-6136
▁agree	-6137
▁basis	-6138
▁dedic	-6139
▁eleph	-6140
▁fresh	-6141
▁honey	-6142
▁initi	-6143
▁linen	-6144
▁maths	-6145
▁model	-6146
▁overl	-6147
▁recip	-6148
▁salts	-6149
▁seats	-6150
▁yield	-6151
Servlet	-6152
edience	-6153
▁Bhakti	-6154
▁Suktam	-6155
▁arrays	-6156
▁blanks	-6157
▁compan	-6158
▁copied	-6159
▁groups	-6160
▁loosed	-6161
▁modern	-6162
▁reject	-6163
▁spaces	-6164
▁stress	-6165
▁summer	-6166
▁termin	-6167
iversary	-6168
ographic	-6169
▁Another	-6170
▁Compile	-6171
▁abideth	-6172
▁burning	-6173
▁freedom	-6174
▁liberty	-6175
▁mineral	-6176
▁partial	-6177
▁perhaps	-6178
▁younger	-6179
▁Checkout	-6180
▁Vasudeva	-6181
▁external	-6182
▁eyeballs	-6183
▁properly	-6184
▁redirect	-6185
▁stedfast	-6186
▁subcateg	-6187
▁Patanjali	-6188
▁correctly	-6189
▁exception	-6190
▁otherwise	-6191
▁positions	-6192
▁publicans	-6193
▁satisfied	-6194
▁specially	-6195
▁wherewith	-6196
▁appearance	-6197
▁Application	-6198
▁Description	-6199
▁Maintenance	-6200
▁anniversary	-6201
▁flexibility	-6202
▁Applications	-6203
MS	-6204
OR	-6205
fr	-6206
ka	-6207
▁!	-6208
ibh	-6209
oli	-6210
war	-6211
▁AW	-6212
▁Bo	-6213
▁US	-6214
▁pH	-6215
▁vo	-6216
Inst	-6217
Look	-6218
amil	-6219
aped	-6220
avya	-6221
gram	-6222
grat	-6223
iger	-6224
illi	-6225
vind	-6226
wali	-6227
▁CPU	-6228
▁Dur	-6229
▁Mon	-6230
▁Nay	-6231
▁Rag	-6232
▁Sab	-6233
▁Seq	-6234
▁gen	-6235
▁hit	-6236
▁omn	-6237
▁sco	-6238
▁seg	-6239
▁sho	-6240
▁sth	-6241
▁wax	-6242
faces	-6243
known	-6244
mense	-6245
udent	-6246
▁Beng	-6247
▁Bhuj	-6248
▁Gaus	-6249
▁Modi	-6250
▁Most	-6251
▁Thus	-6252
▁burd	-6253
▁cart	-6254
▁debu	-6255
▁hide	-6256
▁poly	-6257
▁sand	-6258
▁skip	-6259
▁task	-6260
▁town	-6261
▁wear	-6262
hether	-6263
onsist	-6264
▁"""2.	-6265
▁Apply	-6266
▁Brahm	-6267
▁Damas	-6268
▁Force	-6269
▁Human	-6270
▁Vivek	-6271
▁aster	-6272
▁brake	-6273
▁catch	-6274
▁drunk	-6275
▁faces	-6276
▁falls	-6277
▁greed	-6278
▁herbs	-6279
▁nanot	-6280
▁quote	-6281
▁slain	-6282
▁terms	-6283
▁thumb	-6284
▁vital	-6285
Another	-6286
amation	-6287
example	-6288
▁Animal	-6289
▁Locate	-6290
▁Panini	-6291
▁Python	-6292
▁chance	-6293
▁coasts	-6294
▁config	-6295
▁decide	-6296
▁excess	-6297
▁larger	-6298
▁manage	-6299
▁potato	-6300
▁profit	-6301
▁shadow	-6302
▁skills	-6303
umerable	-6304
▁Pradesh	-6305
▁Preview	-6306
▁Saviour	-6307
▁clearly	-6308
▁complex	-6309
▁courage	-6310
▁formats	-6311
▁general	-6312
▁glorify	-6313
▁greatly	-6314
▁immense	-6315
▁leaders	-6316
▁masters	-6317
▁reached	-6318
▁Bhagavad	-6319
▁Category	-6320
▁Gaussian	-6321
▁Username	-6322
▁attained	-6323
▁decrease	-6324
▁definite	-6325
▁exhibits	-6326
▁filename	-6327
▁fourteen	-6328
▁ministry	-6329
▁personal	-6330
▁promised	-6331
▁recorded	-6332
▁visiting	-6333
▁Tutorials	-6334
▁animation	-6335
▁collected	-6336
▁digestion	-6337
▁sequences	-6338
▁installing	-6339
▁pesticides	-6340
▁sufficient	-6341
Nevertheless	-6342
▁combination	-6343
▁destination	-6344
▁grandfather	-6345
▁innumerable	-6346
▁manifestation	-6347
IR	-6348
Pl	-6349
UT	-6350
ni	-6351
AME	-6352
Out	-6353
ein	-6354
lim	-6355
lis	-6356
olf	-6357
ott	-6358
▁"(	-6359
▁70	-6360
▁Id	-6361
▁dy	-6362
Book	-6363
Each	-6364
Paul	-6365
cast	-6366
cell	-6367
gies	-6368
hand	-6369
osha	-6370
teth	-6371
uras	-6372
vest	-6373
yama	-6374
▁Dep	-6375
▁Did	-6376
▁Guj	-6377
▁Spe	-6378
▁deb	-6379
▁gas	-6380
▁hat	-6381
▁mob	-6382
▁oft	-6383
▁rag	-6384
▁tid	-6385
▁woe	-6386
agues	-6387
alted	-6388
arrow	-6389
arshi	-6390
chron	-6391
cipal	-6392
lence	-6393
metic	-6394
stone	-6395
▁Only	-6396
▁Sams	-6397
▁boat	-6398
▁brah	-6399
▁dang	-6400
▁earn	-6401
▁ende	-6402
▁felt	-6403
▁gird	-6404
▁hurt	-6405
▁hymn	-6406
▁inno	-6407
▁inqu	-6408
▁maid	-6409
▁mass	-6410
▁purp	-6411
▁rese	-6412
▁surn	-6413
▁zeal	-6414
aratha	-6415
itches	-6416
overed	-6417
▁Great	-6418
▁Organ	-6419
▁Raise	-6420
▁Staff	-6421
▁_____	-6422
▁accus	-6423
▁broad	-6424
▁fault	-6425
▁ghost	-6426
▁horns	-6427
▁lists	-6428
▁pause	-6429
▁reads	-6430
▁shine	-6431
▁smote	-6432
▁staff	-6433
▁trump	-6434
▁ungod	-6435
▁Access	-6436
▁Amount	-6437
▁Ravana	-6438
▁attend	-6439
▁basics	-6440
▁bitter	-6441
▁copies	-6442
▁disput	-6443
▁distur	-6444
▁doctor	-6445
▁geomet	-6446
▁intest	-6447
▁mathem	-6448
▁offend	-6449
▁office	-6450
▁plugin	-6451
▁shared	-6452
▁sthiti	-6453
▁transg	-6454
▁verify	-6455
▁voices	-6456
▁Correct	-6457
▁Current	-6458
▁Dharana	-6459
▁Germany	-6460
▁However	-6461
▁January	-6462
▁MyFirst	-6463
▁calleth	-6464
▁congrat	-6465
▁creates	-6466
▁derived	-6467
▁disappe	-6468
▁dubbing	-6469
▁kitchen	-6470
▁leading	-6471
▁mothers	-6472
▁prevent	-6473
According	-6474
▁Improves	-6475
▁Shithila	-6476
▁abstract	-6477
▁arranged	-6478
▁chariots	-6479
▁concaten	-6480
▁iniquity	-6481
▁medicine	-6482
▁security	-6483
▁tomorrow	-6484
▁Vajrasana	-6485
▁assembled	-6486
▁ignorance	-6487
▁inconsist	-6488
▁separator	-6489
............	-6490
▁destruction	-6491
▁MyFirstProject	-6492
▁inconsistencies	-6493
▁unrighteousness	-6494
ED	-6495
EN	-6496
RO	-6497
fl	-6498
ny	-6499
zo	-6500
▁;	-6501
but	-6502
ilo	-6503
ima	-6504
nto	-6505
sha	-6506
ups	-6507
▁Jy	-6508
▁Om	-6509
alas	-6510
arit	-6511
case	-6512
cket	-6513
enly	-6514
heus	-6515
iply	-6516
ithm	-6517
naum	-6518
ndar	-6519
osit	-6520
reed	-6521
▁5.6	-6522
▁AWK	-6523
▁Bec	-6524
▁Dhy	-6525
▁Exp	-6526
▁IIT	-6527
▁Led	-6528
▁Yag	-6529
▁abs	-6530
▁aud	-6531
Right	-6532
World	-6533
ailed	-6534
aning	-6535
aries	-6536
econd	-6537
iloma	-6538
itute	-6539
ogram	-6540
ordan	-6541
orted	-6542
pherd	-6543
rical	-6544
riter	-6545
▁Bell	-6546
▁Find	-6547
▁Font	-6548
▁Moon	-6549
▁Soft	-6550
▁Waid	-6551
▁econ	-6552
▁emer	-6553
▁exam	-6554
▁fair	-6555
▁fled	-6556
▁fold	-6557
▁huge	-6558
▁pick	-6559
▁scan	-6560
▁sust	-6561
▁unle	-6562
Sample	-6563
Within	-6564
cended	-6565
ferent	-6566
google	-6567
▁Caper	-6568
▁Tamil	-6569
▁Using	-6570
▁chmod	-6571
▁dress	-6572
▁enemy	-6573
▁event	-6574
▁feels	-6575
▁fever	-6576
▁grows	-6577
▁incor	-6578
▁ornam	-6579
▁outer	-6580
▁phone	-6581
▁recon	-6582
▁scour	-6583
▁steal	-6584
▁stick	-6585
▁tests	-6586
alendar	-6587
criptor	-6588
picious	-6589
umcised	-6590
▁Diwali	-6591
▁Hemant	-6592
▁Jordan	-6593
▁Krishn	-6594
▁Ledger	-6595
▁Linear	-6596
▁Recall	-6597
▁braces	-6598
▁denied	-6599
▁digits	-6600
▁escape	-6601
▁mental	-6602
▁orders	-6603
▁preced	-6604
▁tribal	-6605
▁vendor	-6606
ifferent	-6607
ithmetic	-6608
▁Default	-6609
▁Element	-6610
▁Ephesus	-6611
▁Himself	-6612
▁answers	-6613
▁applied	-6614
▁attains	-6615
▁catalog	-6616
▁compost	-6617
▁cutting	-6618
▁discipl	-6619
▁ellipse	-6620
▁plastic	-6621
▁private	-6622
▁raising	-6623
▁removes	-6624
▁strings	-6625
▁windows	-6626
elligence	-6627
▁Damascus	-6628
▁Waidande	-6629
▁backward	-6630
▁betrayed	-6631
▁offended	-6632
▁opposite	-6633
▁parables	-6634
▁receives	-6635
▁rhythmic	-6636
▁rotation	-6637
▁skeleton	-6638
▁transfer	-6639
▁warriors	-6640
▁Capernaum	-6641
▁Hydrogens	-6642
▁abdominal	-6643
▁cleansing	-6644
▁comprises	-6645
▁condemned	-6646
▁diversity	-6647
▁excellent	-6648
▁extracted	-6649
▁persuaded	-6650
▁possessed	-6651
▁regularly	-6652
▁reverence	-6653
▁strangers	-6654
▁yesterday	-6655
▁Background	-6656
▁containing	-6657
▁industries	-6658
▁manifested	-6659
▁registered	-6660
▁situations	-6661
▁Mathematics	-6662
▁personality	-6663
▁tribulation	-6664
▁introduction	-6665
▁photosynthesis	-6666
.”	-6667
IC	-6668
US	-6669
vt	-6670
aim	-6671
gor	-6672
hee	-6673
hyd	-6674
ina	-6675
iny	-6676
irt	-6677
oll	-6678
rim	-6679
rip	-6680
sop	-6681
▁Vi	-6682
Modi	-6683
from	-6684
gest	-6685
hata	-6686
iler	-6687
know	-6688
leep	-6689
mber	-6690
quit	-6691
rama	-6692
sole	-6693
tree	-6694
type	-6695
▁"2.	-6696
▁7.0	-6697
▁Cow	-6698
▁Mik	-6699
▁Rig	-6700
▁Sim	-6701
▁Top	-6702
▁Yea	-6703
▁bor	-6704
▁cos	-6705
▁dna	-6706
▁egg	-6707
▁job	-6708
▁vig	-6709
anges	-6710
asses	-6711
bohyd	-6712
griva	-6713
itage	-6714
umans	-6715
umbai	-6716
which	-6717
yphen	-6718
▁Anim	-6719
▁Answ	-6720
▁Bapt	-6721
▁Buff	-6722
▁Hind	-6723
▁Nort	-6724
▁Prot	-6725
▁Quiz	-6726
▁Ramu	-6727
▁Rolf	-6728
▁Sard	-6729
▁True	-6730
▁Yogi	-6731
▁Yudh	-6732
▁curd	-6733
▁dust	-6734
▁heel	-6735
▁lect	-6736
▁oath	-6737
▁oint	-6738
▁pent	-6739
▁shut	-6740
▁sore	-6741
▁sudd	-6742
▁sung	-6743
▁wand	-6744
Altern	-6745
arlier	-6746
ection	-6747
einort	-6748
ipping	-6749
parent	-6750
requis	-6751
vision	-6752
▁Arise	-6753
▁Bhagw	-6754
▁Grade	-6755
▁Greet	-6756
▁Label	-6757
▁Maths	-6758
▁Sutra	-6759
▁Vikas	-6760
▁algor	-6761
▁clock	-6762
▁colle	-6763
▁dilig	-6764
▁meant	-6765
▁orbit	-6766
▁ragas	-6767
▁souls	-6768
▁stops	-6769
▁tight	-6770
▁waist	-6771
Teacher	-6772
Through	-6773
anirban	-6774
raction	-6775
ragment	-6776
resents	-6777
▁5.6.30	-6778
▁Bremen	-6779
▁Leaves	-6780
▁MikTeX	-6781
▁Mumbai	-6782
▁Return	-6783
▁Update	-6784
▁brilli	-6785
▁curves	-6786
▁emphas	-6787
▁endure	-6788
▁farmer	-6789
▁played	-6790
▁recogn	-6791
▁resize	-6792
▁shines	-6793
▁stores	-6794
▁thumbs	-6795
▁trying	-6796
oluntary	-6797
▁Baptist	-6798
▁Samyama	-6799
▁concept	-6800
▁counted	-6801
▁denotes	-6802
▁holding	-6803
▁leaving	-6804
▁outline	-6805
▁reports	-6806
▁reprodu	-6807
▁servlet	-6808
▁thereon	-6809
▁washing	-6810
▁weapons	-6811
▁whereas	-6812
▁Northern	-6813
▁Steinort	-6814
▁asterisk	-6815
▁begotten	-6816
▁compiler	-6817
▁contrary	-6818
▁creature	-6819
▁perceive	-6820
uryanamask	-6821
▁Sometimes	-6822
▁afterward	-6823
▁ascending	-6824
▁bookmarks	-6825
▁component	-6826
▁currently	-6827
▁documents	-6828
▁intellect	-6829
▁religious	-6830
▁henceforth	-6831
▁husbandmen	-6832
▁meditative	-6833
▁Information	-6834
▁competition	-6835
▁exclamation	-6836
▁inspiration	-6837
▁parenthesis	-6838
▁presentation	-6839
▁respectively	-6840
GB	-6841
IV	-6842
Is	-6843
OK	-6844
oj	-6845
uh	-6846
,""	-6847
8.4	-6848
Add	-6849
Any	-6850
Des	-6851
Woe	-6852
ads	-6853
aja	-6854
era	-6855
hus	-6856
mes	-6857
ula	-6858
▁IT	-6859
▁JP	-6860
▁Sn	-6861
ango	-6862
arga	-6863
arna	-6864
azar	-6865
bits	-6866
else	-6867
ency	-6868
imin	-6869
isis	-6870
itor	-6871
ivas	-6872
omen	-6873
rows	-6874
uous	-6875
urus	-6876
what	-6877
▁10.	-6878
▁Bab	-6879
▁DOT	-6880
▁Hue	-6881
▁Ren	-6882
▁SQL	-6883
▁Sid	-6884
▁Sky	-6885
▁Tab	-6886
▁Tag	-6887
▁Tux	-6888
▁axe	-6889
▁lau	-6890
▁mot	-6891
▁unf	-6892
chief	-6893
crete	-6894
erted	-6895
hatma	-6896
inesh	-6897
ivate	-6898
plate	-6899
uloma	-6900
uryod	-6901
venth	-6902
▁Bond	-6903
▁Boys	-6904
▁Send	-6905
▁Subs	-6906
▁Work	-6907
▁atom	-6908
▁clut	-6909
▁cock	-6910
▁deed	-6911
▁dumb	-6912
▁exit	-6913
▁exte	-6914
▁fash	-6915
▁furn	-6916
▁gate	-6917
▁hero	-6918
▁lots	-6919
▁nour	-6920
▁perv	-6921
▁prec	-6922
▁ring	-6923
▁seal	-6924
▁spot	-6925
▁stim	-6926
▁tied	-6927
Ubuntu	-6928
active	-6929
ananda	-6930
apital	-6931
apping	-6932
ceived	-6933
ilosop	-6934
inking	-6935
ressed	-6936
▁Basic	-6937
▁Bella	-6938
▁Benef	-6939
▁Incre	-6940
▁March	-6941
▁Namah	-6942
▁Peace	-6943
▁Quick	-6944
▁Refer	-6945
▁Width	-6946
▁algae	-6947
▁borne	-6948
▁calls	-6949
▁fiber	-6950
▁liked	-6951
▁links	-6952
▁sutra	-6953
▁tarry	-6954
▁usage	-6955
Blessed	-6956
aration	-6957
fulness	-6958
oration	-6959
▁Author	-6960
▁Carbon	-6961
▁Kriyas	-6962
▁Submit	-6963
▁Sutras	-6964
▁abound	-6965
▁asking	-6966
▁danger	-6967
▁events	-6968
▁forces	-6969
▁fulfil	-6970
▁gently	-6971
▁issues	-6972
▁marked	-6973
▁mayest	-6974
▁member	-6975
▁multid	-6976
▁recite	-6977
▁safety	-6978
▁sailed	-6979
▁sounds	-6980
▁undert	-6981
Tutorial	-6982
ulations	-6983
▁Sitting	-6984
▁deceive	-6985
▁diagram	-6986
▁exalted	-6987
▁fashion	-6988
▁healing	-6989
▁missing	-6990
▁offence	-6991
▁reaches	-6992
▁segment	-6993
▁sensory	-6994
▁showing	-6995
▁studies	-6996
▁talents	-6997
▁visited	-6998
▁weeping	-6999
Exception	-7000
Whosoever	-7001
▁Caesarea	-7002
▁Training	-7003
▁balanced	-7004
▁checking	-7005
▁cultural	-7006
▁everyday	-7007
▁executes	-7008
▁insomuch	-7009
▁involves	-7010
▁normally	-7011
▁pentagon	-7012
▁performs	-7013
▁pointing	-7014
▁quantity	-7015
▁released	-7016
▁vitamins	-7017
▁Timotheus	-7018
▁astronomy	-7019
▁carefully	-7020
▁financial	-7021
▁perceived	-7022
▁shouldest	-7023
▁transform	-7024
▁treatment	-7025
▁wonderful	-7026
▁Categories	-7027
▁definitely	-7028
▁management	-7029
▁dimensional	-7030
▁transformed	-7031
▁uncircumcision	-7032
-1	-7033
DD	-7034
Fo	-7035
Im	-7036
MB	-7037
Ms	-7038
co	-7039
ii	-7040
lt	-7041
”,	-7042
6.1	-7043
Due	-7044
NTS	-7045
alu	-7046
bre	-7047
itu	-7048
iya	-7049
kal	-7050
oun	-7051
rat	-7052
vid	-7053
▁35	-7054
▁NR	-7055
▁PD	-7056
EGIN	-7057
Msgs	-7058
anya	-7059
cils	-7060
cium	-7061
cred	-7062
emic	-7063
ires	-7064
java	-7065
keep	-7066
mana	-7067
onas	-7068
ongs	-7069
ungi	-7070
▁Any	-7071
▁Bcc	-7072
▁Div	-7073
▁Gar	-7074
▁Med	-7075
▁Mud	-7076
▁Nat	-7077
▁Say	-7078
▁TeX	-7079
▁abc	-7080
▁bab	-7081
▁bud	-7082
▁cod	-7083
▁hol	-7084
▁sam	-7085
Intro	-7086
Press	-7087
acles	-7088
alaya	-7089
erala	-7090
night	-7091
quest	-7092
▁Blue	-7093
▁Drag	-7094
▁Kaur	-7095
▁Magd	-7096
▁Nand	-7097
▁Rabb	-7098
▁Site	-7099
▁colt	-7100
▁ferv	-7101
▁flee	-7102
▁gram	-7103
▁grid	-7104
▁insp	-7105
▁mour	-7106
▁pred	-7107
▁rays	-7108
▁rent	-7109
▁slew	-7110
▁tips	-7111
▁wast	-7112
▁west	-7113
Applet	-7114
Enroll	-7115
Recall	-7116
String	-7117
antras	-7118
hyphen	-7119
iction	-7120
ifieth	-7121
isting	-7122
ortion	-7123
yahara	-7124
▁4.6.1	-7125
▁BEGIN	-7126
▁Prana	-7127
▁Sidon	-7128
▁brave	-7129
▁civil	-7130
▁depth	-7131
▁disob	-7132
▁guide	-7133
▁holes	-7134
▁incom	-7135
▁issue	-7136
▁memor	-7137
▁plain	-7138
▁sakes	-7139
▁spent	-7140
▁surpr	-7141
▁wants	-7142
▁wheel	-7143
▁withd	-7144
Instead	-7145
itution	-7146
quitoes	-7147
▁Action	-7148
▁Duryod	-7149
▁Greeks	-7150
▁Height	-7151
▁ceased	-7152
▁checks	-7153
▁collap	-7154
▁crisis	-7155
▁dwells	-7156
▁enable	-7157
▁enthus	-7158
▁extend	-7159
▁favour	-7160
▁immort	-7161
▁inches	-7162
▁kidney	-7163
▁occurs	-7164
▁rising	-7165
▁saving	-7166
▁strait	-7167
▁supper	-7168
▁throws	-7169
▁unjust	-7170
▁wishes	-7171
▁writes	-7172
angasana	-7173
attering	-7174
▁Actions	-7175
▁Becomes	-7176
▁Connect	-7177
▁Pattern	-7178
▁Samsara	-7179
▁Sugriva	-7180
▁Suppose	-7181
▁aspects	-7182
▁console	-7183
▁devices	-7184
▁earnest	-7185
▁epistle	-7186
▁figures	-7187
▁finally	-7188
▁horizon	-7189
▁invoked	-7190
▁lessons	-7191
▁married	-7192
▁matters	-7193
▁palette	-7194
▁pointer	-7195
▁primary	-7196
▁reasons	-7197
▁regions	-7198
▁seeking	-7199
▁silence	-7200
▁sitteth	-7201
▁squares	-7202
▁streams	-7203
organisms	-7204
▁Ayurveda	-7205
▁Compiler	-7206
▁Creating	-7207
▁Namaskar	-7208
▁Vikasaka	-7209
▁becoming	-7210
▁clothing	-7211
▁families	-7212
▁grepdemo	-7213
▁ignorant	-7214
▁override	-7215
▁referred	-7216
▁shepherd	-7217
▁stronger	-7218
▁unbelief	-7219
▁watching	-7220
▁Duplicate	-7221
▁attribute	-7222
▁dedicated	-7223
▁existence	-7224
▁indicator	-7225
▁interpret	-7226
▁prerequis	-7227
▁regarding	-7228
▁sharpened	-7229
▁wherefore	-7230
▁Distribute	-7231
▁Saturation	-7232
▁continuous	-7233
▁earthquake	-7234
▁government	-7235
▁ministered	-7236
▁originated	-7237
▁population	-7238
▁represents	-7239
▁sanctified	-7240
▁stretching	-7241
▁circulation	-7242
▁conditional	-7243
▁dissolution	-7244
▁suggestions	-7245
▁agricultural	-7246
▁condemnation	-7247
▁demonstrated	-7248
▁requirements	-7249
▁subscription	-7250
▁StudentEnroll	-7251
4-	-7252
LE	-7253
PE	-7254
mr	-7255
uv	-7256
May	-7257
Sir	-7258
Yea	-7259
Yet	-7260
ayi	-7261
lex	-7262
rot	-7263
▁9,	-7264
▁PO	-7265
▁cp	-7266
-"""	-7267
48.4	-7268
athi	-7269
ayat	-7270
chol	-7271
cont	-7272
food	-7273
ggle	-7274
half	-7275
ikar	-7276
more	-7277
otal	-7278
rain	-7279
reth	-7280
ruit	-7281
ryab	-7282
suff	-7283
that	-7284
▁Adv	-7285
▁Bal	-7286
▁Das	-7287
▁Gir	-7288
▁Gra	-7289
▁Jay	-7290
▁Kam	-7291
▁Non	-7292
▁bin	-7293
▁ego	-7294
▁inj	-7295
▁kil	-7296
▁lod	-7297
▁tum	-7298
akthi	-7299
block	-7300
chure	-7301
erers	-7302
onour	-7303
owing	-7304
pends	-7305
ucees	-7306
▁Fear	-7307
▁JPEG	-7308
▁Parv	-7309
▁Sadd	-7310
▁Tyre	-7311
▁clay	-7312
▁demo	-7313
▁diam	-7314
▁disp	-7315
▁east	-7316
▁host	-7317
▁hung	-7318
▁iter	-7319
▁lift	-7320
▁meal	-7321
▁mort	-7322
▁murm	-7323
▁poet	-7324
▁quar	-7325
▁sear	-7326
▁sets	-7327
▁teac	-7328
▁vers	-7329
▁vibr	-7330
▁wept	-7331
Create	-7332
Return	-7333
atical	-7334
azarus	-7335
urally	-7336
verted	-7337
▁1."""	-7338
▁2."""	-7339
▁Block	-7340
▁Local	-7341
▁Their	-7342
▁Yogic	-7343
▁belly	-7344
▁cheer	-7345
▁chlor	-7346
▁crore	-7347
▁deter	-7348
▁domin	-7349
▁flood	-7350
▁homes	-7351
▁media	-7352
▁moist	-7353
▁skull	-7354
▁sober	-7355
▁south	-7356
▁spend	-7357
▁spoke	-7358
▁swine	-7359
▁tasty	-7360
▁verse	-7361
▁worse	-7362
Alright	-7363
Knowing	-7364
eyboard	-7365
omorrow	-7366
persand	-7367
▁0.48.4	-7368
▁Acquis	-7369
▁Double	-7370
▁Follow	-7371
▁Record	-7372
▁Serial	-7373
▁accuse	-7374
▁anyone	-7375
▁applet	-7376
▁beamer	-7377
▁beauty	-7378
▁cement	-7379
▁damsel	-7380
▁defile	-7381
▁dragon	-7382
▁gained	-7383
▁habits	-7384
▁launch	-7385
▁leaven	-7386
▁offers	-7387
▁prince	-7388
▁sinned	-7389
▁thirst	-7390
▁update	-7391
▁vector	-7392
▁winter	-7393
Moreover	-7394
inations	-7395
▁Bharata	-7396
▁Lakshmi	-7397
▁Lazarus	-7398
▁Samaria	-7399
▁amongst	-7400
▁crucify	-7401
▁depends	-7402
▁describ	-7403
▁herself	-7404
▁monkeys	-7405
▁musical	-7406
▁overcom	-7407
▁portion	-7408
▁promote	-7409
▁shining	-7410
▁talking	-7411
▁thither	-7412
▁tribute	-7413
▁uncheck	-7414
▁univers	-7415
▁Fragment	-7416
▁Maharshi	-7417
▁Selector	-7418
▁Software	-7419
▁Supplier	-7420
▁TeXworks	-7421
▁controll	-7422
▁explicit	-7423
▁focusing	-7424
▁forwards	-7425
▁fragment	-7426
▁industry	-7427
▁launcher	-7428
▁ointment	-7429
▁register	-7430
▁slightly	-7431
bohydrates	-7432
ronacharya	-7433
▁Functions	-7434
▁Sadducees	-7435
▁abundance	-7436
▁algorithm	-7437
▁ampersand	-7438
▁comforted	-7439
▁errorMsgs	-7440
▁generates	-7441
▁godliness	-7442
▁naturally	-7443
▁potential	-7444
▁rejoicing	-7445
▁sensitive	-7446
▁testified	-7447
▁transport	-7448
▁undefined	-7449
▁witnessed	-7450
▁Cataloging	-7451
▁corruption	-7452
▁instrument	-7453
▁prosperity	-7454
▁relational	-7455
▁sufferings	-7456
▁Circulation	-7457
▁Development	-7458
▁compilation	-7459
▁performance	-7460
▁transaction	-7461
▁construction	-7462
1)	-7463
11	-7464
5.	-7465
FF	-7466
Sw	-7467
aa	-7468
bl	-7469
cf	-7470
(),	-7471
(2,	-7472
Lie	-7473
Rel	-7474
cca	-7475
cod	-7476
dis	-7477
ena	-7478
ino	-7479
jun	-7480
kay	-7481
ran	-7482
rin	-7483
uel	-7484
▁NC	-7485
▁ps	-7486
Make	-7487
User	-7488
Yoga	-7489
ales	-7490
alsy	-7491
anak	-7492
ares	-7493
bind	-7494
char	-7495
fall	-7496
gery	-7497
itra	-7498
lice	-7499
mble	-7500
nana	-7501
onse	-7502
uice	-7503
▁1."	-7504
▁4.3	-7505
▁ARG	-7506
▁End	-7507
▁Hig	-7508
▁Lib	-7509
▁Mac	-7510
▁Mad	-7511
▁PDF	-7512
▁Pub	-7513
▁Sar	-7514
▁Sin	-7515
▁ban	-7516
▁ink	-7517
▁obl	-7518
▁pet	-7519
▁pwd	-7520
▁sav	-7521
▁sym	-7522
AMESS	-7523
Along	-7524
Being	-7525
Score	-7526
Those	-7527
abhar	-7528
alene	-7529
amber	-7530
becca	-7531
eties	-7532
groom	-7533
odhya	-7534
olume	-7535
osity	-7536
shell	-7537
uster	-7538
uting	-7539
water	-7540
▁Comm	-7541
▁Fest	-7542
▁Hist	-7543
▁Raju	-7544
▁Stop	-7545
▁axis	-7546
▁clim	-7547
▁dost	-7548
▁fame	-7549
▁fier	-7550
▁gaze	-7551
▁ghee	-7552
▁hall	-7553
▁hosp	-7554
▁laun	-7555
▁liqu	-7556
▁onto	-7557
▁plat	-7558
▁vacc	-7559
Apache	-7560
arance	-7561
ashank	-7562
atives	-7563
ciples	-7564
herent	-7565
ingers	-7566
plants	-7567
ulated	-7568
utable	-7569
▁Clone	-7570
▁Frame	-7571
▁Jonas	-7572
▁Langu	-7573
▁Value	-7574
▁alert	-7575
▁conch	-7576
▁doest	-7577
▁grain	-7578
▁innov	-7579
▁latex	-7580
▁manip	-7581
▁merch	-7582
▁pixel	-7583
▁ports	-7584
▁prior	-7585
▁shoes	-7586
▁warli	-7587
braries	-7588
itivity	-7589
ossible	-7590
▁During	-7591
▁Humans	-7592
▁Kerala	-7593
▁Output	-7594
▁Sardar	-7595
▁archer	-7596
▁asleep	-7597
▁burned	-7598
▁curved	-7599
▁filter	-7600
▁hermit	-7601
▁mantra	-7602
▁possib	-7603
▁raster	-7604
▁strand	-7605
▁thirty	-7606
▁tribes	-7607
▁virtue	-7608
ilosophy	-7609
▁Chandra	-7610
▁Subject	-7611
▁benefic	-7612
▁borders	-7613
▁clutter	-7614
▁degrees	-7615
▁emotion	-7616
▁enabled	-7617
▁engaged	-7618
▁essence	-7619
▁fulness	-7620
▁however	-7621
▁lecture	-7622
▁logical	-7623
▁medical	-7624
▁passage	-7625
▁seeketh	-7626
▁tarried	-7627
▁teaches	-7628
▁turning	-7629
▁variety	-7630
▁vessels	-7631
Breathing	-7632
uspicious	-7633
▁Bacteria	-7634
▁Generate	-7635
▁Purchase	-7636
▁Standing	-7637
▁affected	-7638
▁borrowed	-7639
▁contract	-7640
▁creative	-7641
▁customer	-7642
▁dinosaur	-7643
▁husbands	-7644
▁navigate	-7645
▁promises	-7646
▁purposes	-7647
▁rejoiced	-7648
▁removing	-7649
▁utensils	-7650
▁wherever	-7651
▁wondered	-7652
▁Magdalene	-7653
▁Whosoever	-7654
▁alignment	-7655
▁community	-7656
▁container	-7657
▁decrement	-7658
▁dependent	-7659
▁formation	-7660
▁gradually	-7661
▁listening	-7662
▁localhost	-7663
▁programme	-7664
▁receiving	-7665
▁secondary	-7666
▁situation	-7667
▁bridegroom	-7668
▁displaying	-7669
▁fellowship	-7670
▁impossible	-7671
▁pertaining	-7672
▁processing	-7673
▁recipients	-7674
▁temptation	-7675
▁incremented	-7676
▁instruction	-7677
▁perspective	-7678
▁constructors	-7679
▁parameterized	-7680
▁administration	-7681
BN	-7682
ES	-7683
Se	-7684
Tr	-7685
gn	-7686
ky	-7687
Bel	-7688
Mah	-7689
eda	-7690
eus	-7691
hip	-7692
ica	-7693
idh	-7694
yal	-7695
▁2,	-7696
▁Cc	-7697
▁Ly	-7698
▁Na	-7699
▁OR	-7700
▁RA	-7701
▁gn	-7702
Cont	-7703
Fire	-7704
ails	-7705
asal	-7706
iasm	-7707
itha	-7708
itus	-7709
kara	-7710
lood	-7711
oral	-7712
plan	-7713
rons	-7714
ylon	-7715
▁2."	-7716
▁Air	-7717
▁Dec	-7718
▁Hor	-7719
▁Inv	-7720
▁Isc	-7721
▁Lie	-7722
▁Pen	-7723
▁esc	-7724
▁mos	-7725
▁tet	-7726
▁unw	-7727
▁van	-7728
▁win	-7729
,""""	-7730
acock	-7731
ading	-7732
aming	-7733
anias	-7734
anted	-7735
arily	-7736
arted	-7737
asmas	-7738
avior	-7739
ecute	-7740
ipole	-7741
ishes	-7742
isode	-7743
iture	-7744
izard	-7745
minus	-7746
oting	-7747
ounce	-7748
river	-7749
ugust	-7750
ungle	-7751
▁2017	-7752
▁Fold	-7753
▁Folk	-7754
▁acid	-7755
▁alms	-7756
▁bash	-7757
▁buff	-7758
▁dish	-7759
▁girl	-7760
▁isom	-7761
▁meek	-7762
▁mixt	-7763
▁nine	-7764
▁radi	-7765
▁resc	-7766
▁stam	-7767
▁tele	-7768
anesha	-7769
arishi	-7770
ifiers	-7771
itamin	-7772
panied	-7773
quence	-7774
raddha	-7775
▁Brush	-7776
▁Devas	-7777
▁Email	-7778
▁Grace	-7779
▁Jnana	-7780
▁Kriya	-7781
▁Makar	-7782
▁Molec	-7783
▁Notes	-7784
▁Phase	-7785
▁Pract	-7786
▁Silas	-7787
▁Space	-7788
▁Table	-7789
▁Titus	-7790
▁Unity	-7791
▁appre	-7792
▁chast	-7793
▁creep	-7794
▁curse	-7795
▁doors	-7796
▁drive	-7797
▁girls	-7798
▁lakhs	-7799
▁meter	-7800
▁plays	-7801
▁schol	-7802
▁smile	-7803
▁tremb	-7804
▁widow	-7805
Howbeit	-7806
Whether	-7807
aughter	-7808
ierarch	-7809
kalavya	-7810
▁Dhyana	-7811
▁Except	-7812
▁GAMESS	-7813
▁Gently	-7814
▁Niyama	-7815
▁Viloma	-7816
▁assess	-7817
▁assume	-7818
▁bigger	-7819
▁boldly	-7820
▁breeds	-7821
▁cattle	-7822
▁commer	-7823
▁conven	-7824
▁incarn	-7825
▁issued	-7826
▁levels	-7827
▁logged	-7828
▁logout	-7829
▁nested	-7830
▁shaken	-7831
▁sinner	-7832
▁spinal	-7833
▁thrust	-7834
▁titles	-7835
lessness	-7836
ryabhatt	-7837
▁Anuloma	-7838
▁Control	-7839
▁Ganesha	-7840
▁Mahatma	-7841
▁Replace	-7842
▁Samadhi	-7843
▁Service	-7844
▁Shakthi	-7845
▁accepts	-7846
▁besides	-7847
▁capable	-7848
▁conform	-7849
▁crystal	-7850
▁episode	-7851
▁evolved	-7852
▁findeth	-7853
▁finding	-7854
▁kindred	-7855
▁mistake	-7856
▁schools	-7857
▁serpent	-7858
▁studied	-7859
▁testify	-7860
▁trumpet	-7861
▁Advanced	-7862
▁Iscariot	-7863
▁Mahabhar	-7864
▁TestData	-7865
▁anointed	-7866
▁attempts	-7867
▁carrying	-7868
▁chanting	-7869
▁chapters	-7870
▁consists	-7871
▁deceived	-7872
▁exchange	-7873
▁nanotube	-7874
▁nostrils	-7875
▁optional	-7876
▁prophecy	-7877
▁recompen	-7878
▁repented	-7879
▁testtree	-7880
eredReader	-7881
▁Lakshmana	-7882
▁alphabets	-7883
▁backslash	-7884
▁creatures	-7885
▁debugging	-7886
▁digestive	-7887
▁extremely	-7888
▁greetings	-7889
▁obedience	-7890
▁scientist	-7891
▁spreading	-7892
▁testament	-7893
▁accounting	-7894
▁biological	-7895
▁classified	-7896
▁completion	-7897
▁conversion	-7898
▁definition	-7899
▁department	-7900
▁production	-7901
▁profession	-7902
▁protecting	-7903
▁scientific	-7904
▁separately	-7905
▁supporting	-7906
▁Suryanamask	-7907
▁accompanied	-7908
▁infirmities	-7909
▁overloading	-7910
▁showDetails	-7911
▁reproduction	-7912
▁modifications	-7913
2-	-7914
40	-7915
BI	-7916
ET	-7917
IF	-7918
IO	-7919
Pe	-7920
Sl	-7921
ql	-7922
su	-7923
vy	-7924
zy	-7925
Par	-7926
She	-7927
Sri	-7928
abd	-7929
cet	-7930
cky	-7931
gon	-7932
hab	-7933
hel	-7934
how	-7935
pid	-7936
reO	-7937
ris	-7938
yam	-7939
zes	-7940
▁00	-7941
▁Gl	-7942
▁SO	-7943
▁Sv	-7944
▁ri	-7945
File	-7946
Rama	-7947
Whom	-7948
Your	-7949
ayah	-7950
brew	-7951
emon	-7952
gien	-7953
hent	-7954
iped	-7955
link	-7956
ndra	-7957
ours	-7958
pace	-7959
pile	-7960
post	-7961
when	-7962
▁Amb	-7963
▁Jat	-7964
▁Mod	-7965
▁Plu	-7966
▁Pri	-7967
▁Pvt	-7968
▁Ray	-7969
▁San	-7970
▁Sod	-7971
▁dur	-7972
▁imb	-7973
▁ing	-7974
▁jer	-7975
▁rob	-7976
▁via	-7977
▁wee	-7978
abbas	-7979
admin	-7980
check	-7981
erved	-7982
forms	-7983
frame	-7984
inent	-7985
iseth	-7986
olute	-7987
reams	-7988
upadi	-7989
urved	-7990
▁Copy	-7991
▁Cows	-7992
▁Exit	-7993
▁Fore	-7994
▁Like	-7995
▁Madh	-7996
▁Mode	-7997
▁Prin	-7998
▁Summ	-7999
▁Tree	-8000
▁Vibh	-8001
▁Whom	-8002
▁brim	-8003
▁damn	-8004
▁fors	-8005
▁hind	-8006
▁lapt	-8007
▁lawy	-8008
▁pand	-8009
▁scor	-8010
▁stir	-8011
▁vary	-8012
Seeing	-8013
agraph	-8014
allest	-8015
ariote	-8016
atures	-8017
avened	-8018
direct	-8019
ishing	-8020
isions	-8021
mighty	-8022
ogging	-8023
ulates	-8024
urance	-8025
▁Algae	-8026
▁Apoll	-8027
▁Gmail	-8028
▁Gunas	-8029
▁Since	-8030
▁Singh	-8031
▁Trash	-8032
▁Units	-8033
▁acids	-8034
▁adult	-8035
▁aloud	-8036
▁amino	-8037
▁conve	-8038
▁dName	-8039
▁didst	-8040
▁doGet	-8041
▁fetch	-8042
▁gmail	-8043
▁godly	-8044
▁hated	-8045
▁heavy	-8046
▁juice	-8047
▁nasal	-8048
▁ordin	-8049
▁palsy	-8050
▁plent	-8051
▁radio	-8052
▁rapid	-8053
▁soles	-8054
▁tired	-8055
▁tresp	-8056
▁twist	-8057
▁wives	-8058
erchief	-8059
lightly	-8060
ltimate	-8061
println	-8062
vantage	-8063
▁August	-8064
▁Bandha	-8065
▁Engine	-8066
▁Hebrew	-8067
▁LibreO	-8068
▁Martha	-8069
▁Rotate	-8070
▁Single	-8071
▁Static	-8072
▁absent	-8073
▁absorb	-8074
▁alumin	-8075
▁behalf	-8076
▁bidden	-8077
▁desert	-8078
▁edited	-8079
▁engine	-8080
▁enters	-8081
▁grains	-8082
▁hygien	-8083
▁minded	-8084
▁openly	-8085
▁poured	-8086
▁render	-8087
▁rhythm	-8088
▁rights	-8089
▁sacred	-8090
▁sewing	-8091
▁shloka	-8092
▁steady	-8093
▁strive	-8094
▁supply	-8095
▁target	-8096
▁thrown	-8097
▁widows	-8098
asmasura	-8099
iversity	-8100
▁Bethany	-8101
▁Bhagwan	-8102
▁Brahman	-8103
▁History	-8104
▁Profile	-8105
▁Program	-8106
▁Rebecca	-8107
▁Shlokas	-8108
▁bottles	-8109
▁brahmin	-8110
▁calcium	-8111
▁combine	-8112
▁despise	-8113
▁laboure	-8114
▁minimum	-8115
▁network	-8116
▁organic	-8117
▁preview	-8118
▁product	-8119
▁putteth	-8120
▁queries	-8121
▁reduced	-8122
▁reduces	-8123
▁steward	-8124
▁stopped	-8125
▁tabular	-8126
▁ungodly	-8127
▁unknown	-8128
▁workers	-8129
ependence	-8130
suffering	-8131
▁Barabbas	-8132
▁Currency	-8133
▁Customer	-8134
▁Kauravas	-8135
▁Language	-8136
▁Pharisee	-8137
▁Question	-8138
▁Yudhisht	-8139
▁accessed	-8140
▁advanced	-8141
▁brighter	-8142
▁checkout	-8143
▁citizens	-8144
▁currency	-8145
▁desiring	-8146
▁inherent	-8147
▁national	-8148
▁numerous	-8149
▁nutrient	-8150
▁observed	-8151
▁optimize	-8152
▁pleasing	-8153
▁prisoner	-8154
▁reasoned	-8155
▁resemble	-8156
▁stitches	-8157
▁suitable	-8158
▁supposed	-8159
▁synchron	-8160
▁websites	-8161
▁withered	-8162
liographic	-8163
▁Administr	-8164
▁beholding	-8165
▁classical	-8166
▁hermitage	-8167
▁intestine	-8168
▁paragraph	-8169
▁purifying	-8170
▁suffering	-8171
▁whereunto	-8172
Alternately	-8173
▁Duryodhana	-8174
▁HelloWorld	-8175
▁attendance	-8176
▁descending	-8177
▁descriptor	-8178
▁diligently	-8179
▁enthusiasm	-8180
▁formatting	-8181
▁gentleness	-8182
▁liberation	-8183
▁multiplied	-8184
▁overcometh	-8185
▁revolution	-8186
▁salutation	-8187
▁scientists	-8188
otosynthesis	-8189
withstanding	-8190
▁LibreOffice	-8191
▁assignments	-8192
▁consolation	-8193
▁exceedingly	-8194
▁maintaining	-8195
▁accomplished	-8196
▁congratulate	-8197
▁distribution	-8198
▁mathematical	-8199
▁longsuffering	-8200
▁BufferedReader	-8201
▁implementation	-8202
NU	-8203
ev	-8204
Him	-8205
Per	-8206
Sth	-8207
Two	-8208
arp	-8209
edd	-8210
enz	-8211
etc	-8212
fix	-8213
kat	-8214
lay	-8215
log	-8216
mus	-8217
ozo	-8218
pta	-8219
rus	-8220
uct	-8221
uro	-8222
urs	-8223
van	-8224
wed	-8225
xml	-8226
▁75	-8227
▁Es	-8228
▁PR	-8229
ahoo	-8230
andh	-8231
apur	-8232
asks	-8233
idas	-8234
left	-8235
mond	-8236
omon	-8237
otic	-8238
ozoa	-8239
rial	-8240
some	-8241
uate	-8242
unar	-8243
user	-8244
wara	-8245
▁1.1	-8246
▁Gur	-8247
▁Mis	-8248
▁Ven	-8249
▁Vid	-8250
▁Vis	-8251
▁fou	-8252
▁gav	-8253
▁gro	-8254
▁mov	-8255
▁tea	-8256
▁vow	-8257
▁wra	-8258
ATION	-8259
apter	-8260
cking	-8261
cular	-8262
iceps	-8263
iform	-8264
igare	-8265
iscal	-8266
plies	-8267
ublic	-8268
ucing	-8269
urtle	-8270
▁2018	-8271
▁2019	-8272
▁Adam	-8273
▁Alex	-8274
▁Asht	-8275
▁Data	-8276
▁NCBI	-8277
▁Sage	-8278
▁Sidd	-8279
▁Word	-8280
▁arch	-8281
▁aver	-8282
▁bone	-8283
▁brid	-8284
▁crow	-8285
▁ctrl	-8286
▁debt	-8287
▁envy	-8288
▁hash	-8289
▁kiss	-8290
▁late	-8291
▁pill	-8292
▁reed	-8293
Salute	-8294
enzene	-8295
giving	-8296
iments	-8297
rained	-8298
reated	-8299
tained	-8300
▁Heart	-8301
▁Nanak	-8302
▁Navig	-8303
▁Scale	-8304
▁Stage	-8305
▁Total	-8306
▁alway	-8307
▁blame	-8308
▁boost	-8309
▁brows	-8310
▁camer	-8311
▁dried	-8312
▁enlar	-8313
▁gates	-8314
▁khadi	-8315
▁knock	-8316
▁lampp	-8317
▁magaz	-8318
▁menus	-8319
▁ninth	-8320
▁north	-8321
▁penny	-8322
▁purch	-8323
▁rural	-8324
▁shore	-8325
▁tasks	-8326
▁toler	-8327
▁veins	-8328
▁vigor	-8329
Display	-8330
Message	-8331
Observe	-8332
Student	-8333
osition	-8334
▁Applet	-8335
▁Centre	-8336
▁Devote	-8337
▁Export	-8338
▁Festus	-8339
▁Janaka	-8340
▁Normal	-8341
▁Window	-8342
▁actual	-8343
▁altern	-8344
▁angles	-8345
▁cosmic	-8346
▁deploy	-8347
▁dreams	-8348
▁drinks	-8349
▁firmly	-8350
▁gavest	-8351
▁gazing	-8352
▁global	-8353
▁highly	-8354
▁impact	-8355
▁integr	-8356
▁liquid	-8357
▁observ	-8358
▁palace	-8359
▁patron	-8360
▁physic	-8361
▁poster	-8362
▁refres	-8363
▁rupees	-8364
▁showed	-8365
▁thrice	-8366
clicking	-8367
▁Ananias	-8368
▁Ayodhya	-8369
▁Babylon	-8370
▁Classes	-8371
▁Gujarat	-8372
▁Neither	-8373
▁Sharpen	-8374
▁Solomon	-8375
▁bearing	-8376
▁belongs	-8377
▁breaths	-8378
▁caption	-8379
▁casting	-8380
▁clicked	-8381
▁concern	-8382
▁enhance	-8383
▁extends	-8384
▁fasting	-8385
▁graphic	-8386
▁orgname	-8387
▁pencils	-8388
▁plagues	-8389
▁praying	-8390
▁soldier	-8391
▁uniform	-8392
▁virtues	-8393
▁webpage	-8394
▁Almighty	-8395
▁Benefits	-8396
▁Ekalavya	-8397
▁achieved	-8398
▁approved	-8399
▁bestowed	-8400
▁candlest	-8401
▁cleansed	-8402
▁district	-8403
▁dwelling	-8404
▁electric	-8405
▁hierarch	-8406
▁involved	-8407
▁launched	-8408
▁ornament	-8409
▁pictures	-8410
▁property	-8411
▁purchase	-8412
▁relaxing	-8413
▁requires	-8414
▁suddenly	-8415
▁superior	-8416
▁violence	-8417
cellaneous	-8418
▁appearing	-8419
▁blessings	-8420
▁centuries	-8421
▁education	-8422
▁effective	-8423
▁encourage	-8424
▁followers	-8425
▁introduce	-8426
▁offerings	-8427
▁practiced	-8428
▁submitted	-8429
▁translate	-8430
▁Additional	-8431
▁acceptable	-8432
▁mosquitoes	-8433
▁perfection	-8434
▁persecuted	-8435
▁subjection	-8436
▁Dronacharya	-8437
▁circumcised	-8438
▁respiration	-8439
▁significant	-8440
▁subcategory	-8441
▁transparent	-8442
▁Subscription	-8443
▁optimization	-8444
▁consciousness	-8445
-"	-8446
1'	-8447
;)	-8448
Ad	-8449
LA	-8450
Ph	-8451
UB	-8452
sv	-8453
01/	-8454
808	-8455
Can	-8456
KAR	-8457
PID	-8458
Pre	-8459
anc	-8460
apu	-8461
bug	-8462
cal	-8463
dec	-8464
def	-8465
hai	-8466
iet	-8467
iki	-8468
jay	-8469
law	-8470
nge	-8471
ody	-8472
oor	-8473
raj	-8474
see	-8475
spe	-8476
sto	-8477
uta	-8478
▁45	-8479
▁Cy	-8480
▁IN	-8481
▁Ol	-8482
▁UN	-8483
▁Ud	-8484
▁lu	-8485
▁ox	-8486
Lear	-8487
Over	-8488
Post	-8489
SANA	-8490
adev	-8491
ajna	-8492
amah	-8493
anna	-8494
avan	-8495
cond	-8496
ebed	-8497
hyll	-8498
iest	-8499
irds	-8500
move	-8501
ocal	-8502
omas	-8503
orem	-8504
ores	-8505
pass	-8506
show	-8507
than	-8508
ulin	-8509
zing	-8510
▁...	-8511
▁1.7	-8512
▁255	-8513
▁64-	-8514
▁Anj	-8515
▁BRE	-8516
▁Cho	-8517
▁Dam	-8518
▁Dig	-8519
▁Dog	-8520
▁END	-8521
▁Ego	-8522
▁Moh	-8523
▁PLA	-8524
▁Pun	-8525
▁RGB	-8526
▁USB	-8527
▁Utt	-8528
▁Ver	-8529
▁ank	-8530
▁bee	-8531
▁cpp	-8532
▁dro	-8533
▁exc	-8534
▁fav	-8535
▁glo	-8536
▁hop	-8537
▁por	-8538
▁psy	-8539
▁std	-8540
▁tok	-8541
askar	-8542
astra	-8543
bably	-8544
becky	-8545
etime	-8546
odium	-8547
▁Acha	-8548
▁Cong	-8549
▁Full	-8550
▁Ital	-8551
▁Pran	-8552
▁Sand	-8553
▁Shav	-8554
▁Shit	-8555
▁Sold	-8556
▁Sund	-8557
▁Vali	-8558
▁Veda	-8559
▁aven	-8560
▁cere	-8561
▁defe	-8562
▁disk	-8563
▁guru	-8564
▁hill	-8565
▁hole	-8566
▁lame	-8567
▁male	-8568
▁obst	-8569
▁ours	-8570
▁plug	-8571
▁poem	-8572
▁shel	-8573
▁tiny	-8574
▁upro	-8575
▁wave	-8576
▁wedd	-8577
Exhale	-8578
Pilate	-8579
angled	-8580
called	-8581
cember	-8582
ebedee	-8583
esides	-8584
living	-8585
nuhata	-8586
ophyll	-8587
▁Ardha	-8588
▁Covid	-8589
▁Durga	-8590
▁Helps	-8591
▁Light	-8592
▁Melch	-8593
▁Music	-8594
▁Never	-8595
▁Pause	-8596
▁Sinha	-8597
▁Sodom	-8598
▁alloc	-8599
▁alter	-8600
▁blast	-8601
▁boast	-8602
▁brass	-8603
▁brick	-8604
▁embed	-8605
▁embod	-8606
▁equip	-8607
▁fills	-8608
▁flock	-8609
▁fragr	-8610
▁frequ	-8611
▁goats	-8612
▁griev	-8613
▁haven	-8614
▁integ	-8615
▁linux	-8616
▁mudra	-8617
▁novel	-8618
▁prove	-8619
▁royal	-8620
▁scope	-8621
▁sorry	-8622
▁stumb	-8623
▁swear	-8624
▁tiger	-8625
▁units	-8626
▁yours	-8627
Chooser	-8628
posture	-8629
ptember	-8630
reshold	-8631
▁Copies	-8632
▁Fiscal	-8633
▁Jframe	-8634
▁Syntax	-8635
▁agreed	-8636
▁attack	-8637
▁biceps	-8638
▁camera	-8639
▁chairs	-8640
▁circum	-8641
▁conser	-8642
▁infect	-8643
▁ingred	-8644
▁intake	-8645
▁jungle	-8646
▁laptop	-8647
▁nought	-8648
▁pulses	-8649
▁reconc	-8650
▁redeem	-8651
▁refuge	-8652
▁retrie	-8653
▁sticks	-8654
▁submit	-8655
▁toggle	-8656
Although	-8657
Practice	-8658
Whenever	-8659
entation	-8660
▁Apollos	-8661
▁Measure	-8662
▁Raymond	-8663
▁Section	-8664
▁Sithila	-8665
▁Vehicle	-8666
▁bonding	-8667
▁disable	-8668
▁fortune	-8669
▁goshala	-8670
▁grieved	-8671
▁indices	-8672
▁mixture	-8673
▁nucleot	-8674
▁perpend	-8675
▁refresh	-8676
▁sending	-8677
▁shortly	-8678
▁spacing	-8679
▁surname	-8680
▁toolbox	-8681
▁whereby	-8682
▁wrapped	-8683
▁Shashank	-8684
▁Variable	-8685
▁behavior	-8686
▁brochure	-8687
▁challeng	-8688
▁chariote	-8689
▁coloured	-8690
▁detailed	-8691
▁elephant	-8692
▁emotions	-8693
▁floating	-8694
▁geometry	-8695
▁holiness	-8696
▁identity	-8697
▁indicate	-8698
▁learners	-8699
▁manifold	-8700
▁outwards	-8701
▁polluted	-8702
▁praising	-8703
▁prophesy	-8704
▁rejected	-8705
▁remained	-8706
▁showData	-8707
▁sleeping	-8708
▁standeth	-8709
▁subjects	-8710
▁Aryabhatt	-8711
▁Practices	-8712
▁Suppliers	-8713
▁conceived	-8714
▁damnation	-8715
▁describes	-8716
▁histogram	-8717
▁indicated	-8718
▁multiples	-8719
▁presented	-8720
▁processed	-8721
▁sorrowful	-8722
▁specifier	-8723
▁surprised	-8724
▁workspace	-8725
▁Bhasmasura	-8726
▁accessible	-8727
▁additional	-8728
▁affliction	-8729
▁auspicious	-8730
▁brilliance	-8731
▁constantly	-8732
▁politeness	-8733
▁satellites	-8734
▁suggestion	-8735
▁translated	-8736
▁declaration	-8737
▁ingredients	-8738
▁preparation	-8739
▁remembering	-8740
▁relationship	-8741
▁participation	-8742
▁perpendicular	-8743
-3	-8744
6-	-8745
6.	-8746
MM	-8747
hm	-8748
kh	-8749
rr	-8750
yi	-8751
2."	-8752
God	-8753
HIS	-8754
Man	-8755
SSN	-8756
___	-8757
aal	-8758
clo	-8759
eti	-8760
iam	-8761
ocs	-8762
ret	-8763
ria	-8764
rik	-8765
uls	-8766
▁(.	-8767
▁17	-8768
▁Gr	-8769
▁ON	-8770
▁Tw	-8771
▁mv	-8772
Copy	-8773
Dear	-8774
RGAN	-8775
Vari	-8776
Well	-8777
ammu	-8778
atur	-8779
born	-8780
enta	-8781
enth	-8782
grad	-8783
gree	-8784
iche	-8785
ilty	-8786
oeba	-8787
okas	-8788
oura	-8789
owls	-8790
stra	-8791
uded	-8792
▁01/	-8793
▁300	-8794
▁Ann	-8795
▁Equ	-8796
▁GNU	-8797
▁Ltd	-8798
▁Nas	-8799
▁bid	-8800
▁cin	-8801
▁elo	-8802
▁mah	-8803
▁sus	-8804
Below	-8805
Bring	-8806
Child	-8807
India	-8808
Watch	-8809
ancel	-8810
aneya	-8811
arith	-8812
arkar	-8813
armas	-8814
itals	-8815
oning	-8816
owess	-8817
rippa	-8818
▁Atal	-8819
▁BOSS	-8820
▁Bapu	-8821
▁Dest	-8822
▁Jyot	-8823
▁Sant	-8824
▁THIS	-8825
▁Well	-8826
▁acts	-8827
▁ease	-8828
▁educ	-8829
▁hips	-8830
▁jump	-8831
▁miss	-8832
▁mush	-8833
▁phon	-8834
▁road	-8835
▁rout	-8836
▁runs	-8837
▁scar	-8838
▁stro	-8839
ATHING	-8840
Detail	-8841
Though	-8842
akarma	-8843
coming	-8844
comput	-8845
iously	-8846
lished	-8847
mother	-8848
object	-8849
ritten	-8850
▁3."""	-8851
▁Arjun	-8852
▁Count	-8853
▁Fixed	-8854
▁Greek	-8855
▁Khadi	-8856
▁Paint	-8857
▁Param	-8858
▁Priya	-8859
▁Snake	-8860
▁Vyasa	-8861
▁Yagya	-8862
▁alias	-8863
▁camel	-8864
▁conse	-8865
▁coord	-8866
▁decor	-8867
▁digit	-8868
▁evalu	-8869
▁filth	-8870
▁flows	-8871
▁forbe	-8872
▁harsh	-8873
▁heirs	-8874
▁liken	-8875
▁motiv	-8876
▁noise	-8877
▁occup	-8878
▁plate	-8879
▁proof	-8880
▁revel	-8881
▁rises	-8882
▁rooms	-8883
▁rough	-8884
▁shake	-8885
▁sites	-8886
▁steel	-8887
▁sugar	-8888
▁timed	-8889
▁winds	-8890
▁wrest	-8891
Beloved	-8892
Initial	-8893
account	-8894
address	-8895
autions	-8896
emption	-8897
ichever	-8898
izontal	-8899
licated	-8900
otation	-8901
related	-8902
▁Achaia	-8903
▁Before	-8904
▁Cancel	-8905
▁Levels	-8906
▁Manage	-8907
▁Nasika	-8908
▁Sattwa	-8909
▁Second	-8910
▁Sports	-8911
▁Thomas	-8912
▁Though	-8913
▁advers	-8914
▁carnal	-8915
▁chains	-8916
▁damage	-8917
▁duties	-8918
▁endeav	-8919
▁equals	-8920
▁grades	-8921
▁guests	-8922
▁helped	-8923
▁honest	-8924
▁idolat	-8925
▁inward	-8926
▁merged	-8927
▁mocked	-8928
▁muscle	-8929
▁naming	-8930
▁purple	-8931
▁rebuke	-8932
▁selves	-8933
▁stable	-8934
▁street	-8935
▁subtle	-8936
▁videos	-8937
."""""""	-8938
rengthen	-8939
▁Agrippa	-8940
▁Initial	-8941
▁Jayanti	-8942
▁Kalidas	-8943
▁Methods	-8944
▁Plugins	-8945
▁Process	-8946
▁Samarit	-8947
▁Upanish	-8948
▁Various	-8949
▁afflict	-8950
▁archery	-8951
▁blurred	-8952
▁citizen	-8953
▁cleanse	-8954
▁concave	-8955
▁consult	-8956
▁cowshed	-8957
▁defines	-8958
▁disturb	-8959
▁doctors	-8960
▁drunken	-8961
▁flowing	-8962
▁hungred	-8963
▁imagine	-8964
▁invoice	-8965
▁limited	-8966
▁peacock	-8967
▁pressed	-8968
▁privile	-8969
▁prowess	-8970
▁scourge	-8971
▁seddemo	-8972
▁streets	-8973
▁stripes	-8974
▁tidings	-8975
▁unbelie	-8976
▁wedding	-8977
nutrition	-8978
▁December	-8979
▁Evolutes	-8980
▁Hydrogen	-8981
▁Keyboard	-8982
▁Savarkar	-8983
▁Sequence	-8984
▁Shraddha	-8985
▁abundant	-8986
▁accounts	-8987
▁commonly	-8988
▁communic	-8989
▁compared	-8990
▁darkened	-8991
▁designed	-8992
▁dominion	-8993
▁dragging	-8994
▁eloquent	-8995
▁entereth	-8996
▁goodness	-8997
▁handling	-8998
▁incident	-8999
▁modified	-9000
▁nitrogen	-9001
▁officers	-9002
▁orbitals	-9003
▁organize	-9004
▁reaching	-9005
▁religion	-9006
▁ultimate	-9007
▁validate	-9008
▁wouldest	-9009
▁BREATHING	-9010
▁Knowledge	-9011
▁Selection	-9012
▁September	-9013
▁advantage	-9014
▁blasphemy	-9015
▁challenge	-9016
▁confident	-9017
▁contained	-9018
▁customize	-9019
▁greatness	-9020
▁preferred	-9021
▁protected	-9022
▁providing	-9023
▁searching	-9024
▁trembling	-9025
▁varieties	-9026
▁abundantly	-9027
▁arithmetic	-9028
▁beneficial	-9029
▁discovered	-9030
▁philosophy	-9031
▁redemption	-9032
▁saturation	-9033
▁substances	-9034
▁unleavened	-9035
▁Vivekananda	-9036
▁accordingly	-9037
▁enrollments	-9038
▁functioning	-9039
▁generations	-9040
▁overwritten	-9041
▁persecution	-9042
▁uncleanness	-9043
▁covetousness	-9044
▁organization	-9045
▁Miscellaneous	-9046
▁carbohydrates	-9047
▁configuration	-9048
▁displayMessage	-9049
▁transformation	-9050
EW	-9051
Mo	-9052
OP	-9053
SV	-9054
YA	-9055
▁q	-9056
"",	-9057
();	-9058
AND	-9059
App	-9060
RNA	-9061
Sat	-9062
Set	-9063
Yog	-9064
bet	-9065
cha	-9066
fly	-9067
hor	-9068
ncy	-9069
odd	-9070
rav	-9071
uja	-9072
xcf	-9073
you	-9074
▁-(	-9075
▁26	-9076
▁8.	-9077
▁AT	-9078
▁FO	-9079
▁II	-9080
▁LO	-9081
▁Ne	-9082
▁Ok	-9083
Back	-9084
Give	-9085
Mark	-9086
Pada	-9087
ache	-9088
ahas	-9089
alms	-9090
alon	-9091
andi	-9092
bage	-9093
bars	-9094
elix	-9095
epar	-9096
have	-9097
icha	-9098
ieve	-9099
lest	-9100
loro	-9101
menu	-9102
ocol	-9103
oget	-9104
otra	-9105
ruly	-9106
▁"1.	-9107
▁"3.	-9108
▁10,	-9109
▁5.5	-9110
▁Aar	-9111
▁Ast	-9112
▁Cyp	-9113
▁Gom	-9114
▁Lot	-9115
▁Nav	-9116
▁ack	-9117
▁arc	-9118
▁bye	-9119
▁hem	-9120
▁jew	-9121
▁nay	-9122
▁raj	-9123
▁rid	-9124
▁rod	-9125
▁shy	-9126
▁zip	-9127
"""",	-9128
1."""	-9129
Check	-9130
Peter	-9131
Relax	-9132
Stand	-9133
agers	-9134
arias	-9135
arken	-9136
aying	-9137
boxes	-9138
ceive	-9139
chang	-9140
endor	-9141
fasta	-9142
gines	-9143
hetra	-9144
human	-9145
ikeyi	-9146
inger	-9147
ivacy	-9148
liant	-9149
oking	-9150
olean	-9151
power	-9152
rarch	-9153
rying	-9154
these	-9155
uruks	-9156
using	-9157
▁Caia	-9158
▁Chin	-9159
▁Cook	-9160
▁Corn	-9161
▁Crop	-9162
▁Grid	-9163
▁Head	-9164
▁Levi	-9165
▁Milk	-9166
▁Node	-9167
▁Push	-9168
▁Radi	-9169
▁Shir	-9170
▁Such	-9171
▁Time	-9172
▁bags	-9173
▁beck	-9174
▁clip	-9175
▁cure	-9176
▁didn	-9177
▁eats	-9178
▁lies	-9179
▁pots	-9180
▁rend	-9181
▁tall	-9182
▁thor	-9183
▁unsh	-9184
▁util	-9185
codile	-9186
erring	-9187
fruits	-9188
idhant	-9189
▁"""3.	-9190
▁10.04	-9191
▁11.04	-9192
▁14.04	-9193
▁4.3.1	-9194
▁Enjoy	-9195
▁Felix	-9196
▁Forum	-9197
▁Funds	-9198
▁Garud	-9199
▁Hindi	-9200
▁Joppa	-9201
▁Melak	-9202
▁Purch	-9203
▁Renew	-9204
▁Sheet	-9205
▁Short	-9206
▁Techn	-9207
▁White	-9208
▁ascet	-9209
▁bases	-9210
▁begun	-9211
▁binds	-9212
▁canst	-9213
▁cough	-9214
▁dynam	-9215
▁faint	-9216
▁fifth	-9217
▁finds	-9218
▁fowls	-9219
▁gains	-9220
▁gases	-9221
▁glimp	-9222
▁globe	-9223
▁influ	-9224
▁inode	-9225
▁moral	-9226
▁omnis	-9227
▁patri	-9228
▁pluck	-9229
▁psych	-9230
▁quiet	-9231
▁raksh	-9232
▁smite	-9233
▁swell	-9234
▁theme	-9235
▁tread	-9236
▁virus	-9237
▁waves	-9238
Besides	-9239
atively	-9240
bracket	-9241
contact	-9242
eedback	-9243
limited	-9244
ogether	-9245
ountain	-9246
parency	-9247
▁Andrew	-9248
▁Answer	-9249
▁Bengal	-9250
▁Column	-9251
▁Cyprus	-9252
▁Dinesh	-9253
▁Expand	-9254
▁Folder	-9255
▁Fruits	-9256
▁Nadish	-9257
▁Olives	-9258
▁PLANTS	-9259
▁Rupees	-9260
▁Vendor	-9261
▁acknow	-9262
▁banana	-9263
▁corona	-9264
▁deceit	-9265
▁deterg	-9266
▁divide	-9267
▁filthy	-9268
▁gladly	-9269
▁hardly	-9270
▁kindly	-9271
▁linked	-9272
▁obeyed	-9273
▁orange	-9274
▁rotten	-9275
▁sector	-9276
▁serves	-9277
▁spices	-9278
▁spring	-9279
▁stoned	-9280
▁tempor	-9281
Brethren	-9282
Employee	-9283
acharias	-9284
utations	-9285
▁Animals	-9286
▁Banking	-9287
▁Brushes	-9288
▁Courses	-9289
▁Example	-9290
▁Indians	-9291
▁Niyamas	-9292
▁Overlay	-9293
▁Pandava	-9294
▁Prakash	-9295
▁Prepare	-9296
▁Vitamin	-9297
▁appreci	-9298
▁baptize	-9299
▁baskets	-9300
▁beareth	-9301
▁chooser	-9302
▁customs	-9303
▁dancing	-9304
▁economy	-9305
▁escaped	-9306
▁farming	-9307
▁feeding	-9308
▁filters	-9309
▁inwards	-9310
▁judgeth	-9311
▁keepeth	-9312
▁magistr	-9313
▁miracle	-9314
▁moments	-9315
▁oneself	-9316
▁onwards	-9317
▁quizzes	-9318
▁restaur	-9319
▁restric	-9320
▁rounded	-9321
▁sharing	-9322
▁thereby	-9323
▁warning	-9324
vironment	-9325
▁Abstract	-9326
▁Anjaneya	-9327
▁Caiaphas	-9328
▁Congress	-9329
▁Greeting	-9330
▁Krishnah	-9331
▁Likewise	-9332
▁Multiply	-9333
▁ascended	-9334
▁boasting	-9335
▁comments	-9336
▁deselect	-9337
▁directed	-9338
▁distinct	-9339
▁distress	-9340
▁entirely	-9341
▁heritage	-9342
▁measures	-9343
▁modifier	-9344
▁murmured	-9345
▁muscular	-9346
▁overview	-9347
▁practise	-9348
▁probably	-9349
▁rainfall	-9350
▁reducing	-9351
▁reserved	-9352
▁smallest	-9353
▁somewhat	-9354
▁template	-9355
▁unwanted	-9356
urukshetra	-9357
▁Navigator	-9358
▁Resources	-9359
▁destroyer	-9360
▁expressed	-9361
▁forgotten	-9362
▁libraries	-9363
▁observing	-9364
▁obstacles	-9365
▁occasions	-9366
▁principal	-9367
▁remission	-9368
▁specifies	-9369
▁testScore	-9370
▁Pratyahara	-9371
▁Preference	-9372
▁Relaxation	-9373
▁accusation	-9374
▁brightness	-9375
▁collective	-9376
▁connecting	-9377
▁creativity	-9378
▁distribute	-9379
▁identified	-9380
▁interested	-9381
▁introduced	-9382
▁nucleotide	-9383
▁prescribed	-9384
▁proceeding	-9385
▁profitable	-9386
▁repeatedly	-9387
▁superclass	-9388
▁transgress	-9389
▁wickedness	-9390
▁Correctness	-9391
▁Maharashtra	-9392
▁afflictions	-9393
▁arrangement	-9394
▁concentrate	-9395
▁exhortation	-9396
▁highlighted	-9397
▁initializes	-9398
▁maintenance	-9399
▁Bhujangasana	-9400
▁nevertheless	-9401
▁purification	-9402
▁surroundings	-9403
▁transactions	-9404
▁communication	-9405
▁prerequisites	-9406
-4	-9407
30	-9408
AB	-9409
Ab	-9410
OW	-9411
lc	-9412
lk	-9413
oo	-9414
1."	-9415
ASH	-9416
Men	-9417
Mus	-9418
Sam	-9419
Ser	-9420
Som	-9421
Use	-9422
YAM	-9423
ady	-9424
equ	-9425
ley	-9426
oda	-9427
omb	-9428
rep	-9429
uli	-9430
uti	-9431
xed	-9432
▁5,	-9433
▁9.	-9434
▁El	-9435
▁MM	-9436
▁ki	-9437
▁ol	-9438
▁pu	-9439
20.1	-9440
MENT	-9441
Tell	-9442
YYYY	-9443
airs	-9444
ajra	-9445
apas	-9446
cest	-9447
hara	-9448
hash	-9449
heme	-9450
kind	-9451
lkse	-9452
nals	-9453
olis	-9454
omic	-9455
opal	-9456
quir	-9457
rint	-9458
rsna	-9459
said	-9460
text	-9461
vara	-9462
wood	-9463
▁0."	-9464
▁3."	-9465
▁Cry	-9466
▁Cut	-9467
▁Enh	-9468
▁Nic	-9469
▁Pet	-9470
▁Pop	-9471
▁Van	-9472
▁Vir	-9473
▁Yaj	-9474
▁alp	-9475
▁emb	-9476
▁fem	-9477
▁tox	-9478
"""".	-9479
2."""	-9480
Close	-9481
Email	-9482
Greet	-9483
Simon	-9484
abeth	-9485
aging	-9486
clude	-9487
gular	-9488
iline	-9489
ishis	-9490
joice	-9491
odice	-9492
olate	-9493
onday	-9494
ption	-9495
riman	-9496
ushed	-9497
ystem	-9498
▁1000	-9499
▁8080	-9500
▁Ahim	-9501
▁Arch	-9502
▁Bold	-9503
▁Call	-9504
▁Docs	-9505
▁Host	-9506
▁ISBN	-9507
▁ISSN	-9508
▁Padm	-9509
▁Part	-9510
▁Pept	-9511
▁Rect	-9512
▁Sarv	-9513
▁Shah	-9514
▁Sign	-9515
▁Size	-9516
▁Supp	-9517
▁Tuls	-9518
▁Vers	-9519
▁cott	-9520
▁deer	-9521
▁drum	-9522
▁gene	-9523
▁grat	-9524
▁grew	-9525
▁herd	-9526
▁kins	-9527
▁lets	-9528
▁liar	-9529
▁lips	-9530
▁merc	-9531
▁scen	-9532
▁shif	-9533
▁shop	-9534
▁surv	-9535
▁swim	-9536
▁terr	-9537
Choose	-9538
Slowly	-9539
ailing	-9540
estyle	-9541
ethane	-9542
idents	-9543
ilikar	-9544
iosity	-9545
ivalya	-9546
ivores	-9547
lisher	-9548
pected	-9549
porate	-9550
rethra	-9551
▁Adopt	-9552
▁Black	-9553
▁Debug	-9554
▁Jammu	-9555
▁Krsna	-9556
▁Manip	-9557
▁Medit	-9558
▁Panch	-9559
▁Reena	-9560
▁Scrap	-9561
▁Swing	-9562
▁Yogis	-9563
▁chose	-9564
▁clone	-9565
▁delim	-9566
▁drain	-9567
▁equiv	-9568
▁flour	-9569
▁geeta	-9570
▁limbs	-9571
▁olive	-9572
▁pound	-9573
▁rests	-9574
▁rocks	-9575
▁roles	-9576
▁ships	-9577
▁twain	-9578
▁weeks	-9579
▁wings	-9580
▁yajna	-9581
Earlier	-9582
Stretch	-9583
artment	-9584
because	-9585
liament	-9586
ostream	-9587
section	-9588
yurveda	-9589
▁3.20.1	-9590
▁Assets	-9591
▁Asuras	-9592
▁Attach	-9593
▁BibTeX	-9594
▁Define	-9595
▁Mantra	-9596
▁Monday	-9597
▁Sister	-9598
▁Status	-9599
▁advice	-9600
▁anoint	-9601
▁basket	-9602
▁breast	-9603
▁coding	-9604
▁compar	-9605
▁convey	-9606
▁copper	-9607
▁deeper	-9608
▁demand	-9609
▁doPost	-9610
▁eighth	-9611
▁ending	-9612
▁fisher	-9613
▁flying	-9614
▁frying	-9615
▁grands	-9616
▁hateth	-9617
▁indign	-9618
▁intent	-9619
▁loudly	-9620
▁mobile	-9621
▁planet	-9622
▁plenty	-9623
▁remind	-9624
▁serial	-9625
▁strain	-9626
▁summar	-9627
▁supine	-9628
▁sweets	-9629
▁uproar	-9630
▁writer	-9631
Describe	-9632
arithmic	-9633
national	-9634
▁Alexand	-9635
▁Budgets	-9636
▁Capital	-9637
▁Crystal	-9638
▁Editing	-9639
▁Goshala	-9640
▁Laodice	-9641
▁Message	-9642
▁Regular	-9643
▁Summary	-9644
▁Timothy	-9645
▁absence	-9646
▁accused	-9647
▁average	-9648
▁biggest	-9649
▁consent	-9650
▁consist	-9651
▁counter	-9652
▁decimal	-9653
▁devoted	-9654
▁falling	-9655
▁fearing	-9656
▁forests	-9657
▁garbage	-9658
▁grammar	-9659
▁inquire	-9660
▁jogging	-9661
▁mangoes	-9662
▁meeting	-9663
▁narrate	-9664
▁passive	-9665
▁renewed	-9666
▁repeats	-9667
▁restore	-9668
▁revolve	-9669
▁seventh	-9670
▁sidhant	-9671
▁storing	-9672
▁tension	-9673
▁vaccine	-9674
▁waiting	-9675
▁watched	-9676
Depending	-9677
Pranayama	-9678
rengthens	-9679
▁Children	-9680
▁Gradient	-9681
▁Inhaling	-9682
▁Location	-9683
▁Nitrogen	-9684
▁Servlets	-9685
▁Standard	-9686
▁Teachers	-9687
▁activate	-9688
▁believes	-9689
▁brahmins	-9690
▁browsing	-9691
▁circumst	-9692
▁concrete	-9693
▁disabled	-9694
▁employee	-9695
▁ensuring	-9696
▁hospital	-9697
▁implicit	-9698
▁integers	-9699
▁inverted	-9700
▁manually	-9701
▁matching	-9702
▁midnight	-9703
▁obedient	-9704
▁operands	-9705
▁ordinary	-9706
▁pandemic	-9707
▁persecut	-9708
▁recently	-9709
▁resolved	-9710
▁serpents	-9711
▁teachest	-9712
▁tetrarch	-9713
▁Similarly	-9714
▁Wherefore	-9715
▁afflicted	-9716
▁blameless	-9717
▁brimstone	-9718
▁compounds	-9719
▁computers	-9720
▁downwards	-9721
▁fellowser	-9722
▁furniture	-9723
▁happening	-9724
▁interlock	-9725
▁locations	-9726
▁ministers	-9727
▁namespace	-9728
▁prominent	-9729
▁resulting	-9730
▁satellite	-9731
▁stumbling	-9732
▁uttermost	-9733
development	-9734
hentication	-9735
ritarashtra	-9736
▁Chakrasana	-9737
▁Horizontal	-9738
▁assessment	-9739
▁challenges	-9740
▁committeth	-9741
▁equivalent	-9742
▁instructed	-9743
▁selections	-9744
▁stedfastly	-9745
▁technology	-9746
▁trespasses	-9747
▁vertically	-9748
SampleApplet	-9749
▁constructed	-9750
▁disobedient	-9751
▁forgiveness	-9752
▁immortality	-9753
▁indignation	-9754
▁precautions	-9755
▁strengthens	-9756
▁translation	-9757
▁Introduction	-9758
▁Optimization	-9759
▁confirmation	-9760
▁institutions	-9761
▁intelligence	-9762
▁significance	-9763
▁transparency	-9764
▁manufacturing	-9765
▁Suryanamaskara	-9766
7,	-9767
7.	-9768
:.	-9769
EM	-9770
IL	-9771
Id	-9772
Ma	-9773
Me	-9774
hu	-9775
mo	-9776
rt	-9777
ye	-9778
ACT	-9779
Ass	-9780
Bas	-9781
III	-9782
Nor	-9783
Rep	-9784
Res	-9785
Sum	-9786
YST	-9787
bin	-9788
can	-9789
fun	-9790
had	-9791
ikh	-9792
kin	-9793
pur	-9794
rac	-9795
rev	-9796
rog	-9797
som	-9798
▁FS	-9799
▁Ji	-9800
▁MO	-9801
▁Ms	-9802
▁SH	-9803
▁Va	-9804
Food	-9805
URCE	-9806
Unto	-9807
alay	-9808
alya	-9809
anyu	-9810
arms	-9811
atin	-9812
atsy	-9813
avel	-9814
cite	-9815
hesh	-9816
icho	-9817
ilae	-9818
irms	-9819
king	-9820
milk	-9821
nded	-9822
neth	-9823
open	-9824
pril	-9825
seat	-9826
uals	-9827
umni	-9828
umps	-9829
yles	-9830
▁128	-9831
▁Adi	-9832
▁Arg	-9833
▁Cre	-9834
▁Hex	-9835
▁Hit	-9836
▁Ice	-9837
▁Iss	-9838
▁Jal	-9839
▁Lal	-9840
▁Mok	-9841
▁Nor	-9842
▁Tem	-9843
▁eag	-9844
▁eth	-9845
▁fed	-9846
▁hex	-9847
▁isn	-9848
▁mad	-9849
▁mud	-9850
▁odd	-9851
▁pin	-9852
▁rub	-9853
▁sad	-9854
▁stu	-9855
▁una	-9856
▁ven	-9857
Think	-9858
amine	-9859
anner	-9860
apura	-9861
brush	-9862
ctive	-9863
elius	-9864
ffron	-9865
hatur	-9866
igned	-9867
image	-9868
inite	-9869
inity	-9870
ivery	-9871
ograp	-9872
ourse	-9873
stial	-9874
touch	-9875
utton	-9876
▁Appe	-9877
▁BOOK	-9878
▁Elis	-9879
▁Gods	-9880
▁Help	-9881
▁High	-9882
▁Holi	-9883
▁JSPs	-9884
▁Kara	-9885
▁Less	-9886
▁Nadi	-9887
▁Nadu	-9888
▁Neti	-9889
▁PATH	-9890
▁POST	-9891
▁Port	-9892
▁Sama	-9893
▁Sank	-9894
▁Sion	-9895
▁Srin	-9896
▁Sure	-9897
▁adds	-9898
▁anch	-9899
▁bade	-9900
▁bene	-9901
▁bulk	-9902
▁deal	-9903
▁fats	-9904
▁jeal	-9905
▁koha	-9906
▁lady	-9907
▁loos	-9908
▁mace	-9909
▁mere	-9910
▁nets	-9911
▁pace	-9912
▁pear	-9913
▁pens	-9914
▁sang	-9915
▁slay	-9916
▁suck	-9917
▁temp	-9918
▁tone	-9919
▁weed	-9920
6-2017	-9921
Dispat	-9922
People	-9923
arcode	-9924
enance	-9925
ervlet	-9926
hereth	-9927
ifully	-9928
isedec	-9929
itched	-9930
oureth	-9931
shalas	-9932
ssalon	-9933
uality	-9934
umbers	-9935
unders	-9936
▁"""1.	-9937
▁Abhim	-9938
▁Allow	-9939
▁Array	-9940
▁Blood	-9941
▁Chann	-9942
▁Colle	-9943
▁Const	-9944
▁Intro	-9945
▁Janya	-9946
▁Jivas	-9947
▁Karna	-9948
▁Multi	-9949
▁Nayak	-9950
▁Proxy	-9951
▁Roots	-9952
▁Sahib	-9953
▁Sound	-9954
▁Sukta	-9955
▁Swach	-9956
▁Tapas	-9957
▁Touch	-9958
▁Truth	-9959
▁Vishw	-9960
▁Woman	-9961
▁Women	-9962
▁avail	-9963
▁bowed	-9964
▁burnt	-9965
▁caret	-9966
▁dying	-9967
▁expel	-9968
▁grave	-9969
▁grind	-9970
▁ideal	-9971
▁infer	-9972
▁lands	-9973
▁lieth	-9974
▁loins	-9975
▁loops	-9976
▁meets	-9977
▁modes	-9978
▁nails	-9979
▁navel	-9980
▁older	-9981
▁omnip	-9982
▁photo	-9983
▁queen	-9984
▁repet	-9985
▁sales	-9986
▁seals	-9987
▁slipp	-9988
▁solve	-9989
▁spoil	-9990
▁talks	-9991
▁tares	-9992
▁theat	-9993
▁turns	-9994
initial	-9995
iveness	-9996
keeping	-9997
ourable	-9998
umerate	-9999
uminous	-10000
unities	-10001
▁Always	-10002
▁Atalji	-10003
▁Dialog	-10004
▁Fields	-10005
▁Volume	-10006
▁ancest	-10007
▁appeal	-10008
▁arises	-10009
▁arjuna	-10010
▁chants	-10011
▁convin	-10012
▁cotton	-10013
▁devout	-10014
▁disord	-10015
▁gender	-10016
▁histor	-10017
▁injury	-10018
▁labels	-10019
▁ladies	-10020
▁lament	-10021
▁laying	-10022
▁leader	-10023
▁manual	-10024
▁manure	-10025
▁motion	-10026
▁orient	-10027
▁perman	-10028
▁petals	-10029
▁preser	-10030
▁recall	-10031
▁recent	-10032
▁savour	-10033
▁seemed	-10034
▁slokas	-10035
▁sodium	-10036
▁soever	-10037
▁softer	-10038
▁soweth	-10039
▁speaks	-10040
▁sprink	-10041
▁statue	-10042
▁strife	-10043
▁tumult	-10044
▁upward	-10045
▁wizard	-10046
Download	-10047
Whatever	-10048
Wherever	-10049
arnataka	-10050
organism	-10051
selected	-10052
▁Bengali	-10053
▁Browser	-10054
▁Confirm	-10055
▁Galilae	-10056
▁Jericho	-10057
▁Kaikeyi	-10058
▁Peptide	-10059
▁Printer	-10060
▁Rigveda	-10061
▁Session	-10062
▁Toolbar	-10063
▁assumed	-10064
▁breadcr	-10065
▁burdens	-10066
▁central	-10067
▁chamber	-10068
▁choices	-10069
▁circles	-10070
▁colored	-10071
▁creator	-10072
▁digital	-10073
▁endured	-10074
▁forgave	-10075
▁granted	-10076
▁insulin	-10077
▁invited	-10078
▁jealous	-10079
▁krishna	-10080
▁lawyers	-10081
▁modules	-10082
▁needles	-10083
▁newline	-10084
▁palming	-10085
▁passion	-10086
▁pollute	-10087
▁profess	-10088
▁routine	-10089
▁scholar	-10090
▁telling	-10091
▁treated	-10092
▁trusted	-10093
Sometimes	-10094
ilikarana	-10095
mediately	-10096
▁........	-10097
▁16.04"""	-10098
▁Calendar	-10099
▁Narayana	-10100
▁Soldiers	-10101
▁although	-10102
▁approach	-10103
▁assembly	-10104
▁becometh	-10105
▁blinking	-10106
▁calendar	-10107
▁cleanses	-10108
▁composed	-10109
▁confirms	-10110
▁covering	-10111
▁cultures	-10112
▁dividing	-10113
▁drinketh	-10114
▁duration	-10115
▁enhances	-10116
▁equation	-10117
▁horizont	-10118
▁informed	-10119
▁inserted	-10120
▁interact	-10121
▁machines	-10122
▁magazine	-10123
▁meditate	-10124
▁moisture	-10125
▁platform	-10126
▁replaced	-10127
▁resizing	-10128
▁restored	-10129
▁revolves	-10130
▁stranger	-10131
▁swelling	-10132
▁tempting	-10133
▁virtuous	-10134
▁watering	-10135
Dispatcher	-10136
▁2016-2017	-10137
▁Abhimanyu	-10138
▁Construct	-10139
▁Cornelius	-10140
▁Elisabeth	-10141
▁Framework	-10142
▁MyServlet	-10143
▁Otherwise	-10144
▁Quotation	-10145
▁Rajasthan	-10146
▁Rectangle	-10147
▁Thessalon	-10148
▁believing	-10149
▁buildings	-10150
▁celestial	-10151
▁clockwise	-10152
▁crocodile	-10153
▁curiosity	-10154
▁departing	-10155
▁emotional	-10156
▁establish	-10157
▁flowering	-10158
▁forthwith	-10159
▁graphical	-10160
▁hierarchy	-10161
▁incorrupt	-10162
▁installer	-10163
▁labourers	-10164
▁listeners	-10165
▁overwrite	-10166
▁particles	-10167
▁persecute	-10168
▁privately	-10169
▁purchased	-10170
▁refreshed	-10171
▁solutions	-10172
▁spreadshe	-10173
▁stitching	-10174
▁universal	-10175
▁voluntary	-10176
▁Appearance	-10177
▁addressing	-10178
▁blasphemed	-10179
▁convenient	-10180
▁convention	-10181
▁forcefully	-10182
▁incomplete	-10183
▁indicators	-10184
▁innovative	-10185
▁literature	-10186
▁prophesied	-10187
▁reconciled	-10188
▁resolution	-10189
▁revelation	-10190
▁television	-10191
▁vibrations	-10192
▁whomsoever	-10193
▁Melchisedec	-10194
▁Nadishuddhi	-10195
▁complicated	-10196
▁grandmother	-10197
▁magistrates	-10198
▁publication	-10199
▁sensitivity	-10200
▁surrounding	-10201
▁underground	-10202
▁Installation	-10203
▁difficulties	-10204
▁thanksgiving	-10205
▁Administrator	-10206
▁Bibliographic	-10207
▁Shashankasana	-10208
questDispatcher	-10209
▁interpretation	-10210
/2	-10211
4,	-10212
65	-10213
99	-10214
Bl	-10215
Dh	-10216
KT	-10217
Le	-10218
RU	-10219
Up	-10220
Us	-10221
rd	-10222
sk	-10223
ta	-10224
uz	-10225
123	-10226
Cle	-10227
Red	-10228
Sun	-10229
Vas	-10230
abc	-10231
alo	-10232
arr	-10233
asc	-10234
ayu	-10235
elv	-10236
iff	-10237
jan	-10238
orr	-10239
rud	-10240
who	-10241
xls	-10242
▁'-	-10243
▁22	-10244
▁AL	-10245
▁TV	-10246
.1--	-10247
Ctrl	-10248
Vish	-10249
akha	-10250
anad	-10251
arel	-10252
arer	-10253
asan	-10254
asas	-10255
atra	-10256
chem	-10257
comp	-10258
empl	-10259
eral	-10260
fare	-10261
hari	-10262
icia	-10263
icus	-10264
ihir	-10265
ilde	-10266
imes	-10267
inst	-10268
lend	-10269
miki	-10270
pati	-10271
prof	-10272
same	-10273
sure	-10274
time	-10275
uble	-10276
yang	-10277
zone	-10278
▁(1)	-10279
▁(2)	-10280
▁150	-10281
▁Adh	-10282
▁Bel	-10283
▁Deg	-10284
▁Dif	-10285
▁Dra	-10286
▁Eff	-10287
▁Eve	-10288
▁Hir	-10289
▁Inc	-10290
▁Kum	-10291
▁Kut	-10292
▁Niv	-10293
▁coo	-10294
▁fee	-10295
▁flu	-10296
▁htd	-10297
▁orb	-10298
▁pod	-10299
▁ptr	-10300
▁tie	-10301
▁toe	-10302
▁vlc	-10303
▁wet	-10304
▁yag	-10305
Gener	-10306
Whose	-10307
about	-10308
apers	-10309
arasw	-10310
asury	-10311
brane	-10312
build	-10313
comes	-10314
domin	-10315
eneth	-10316
imsen	-10317
ional	-10318
lands	-10319
lehem	-10320
odine	-10321
osmic	-10322
otent	-10323
plier	-10324
produ	-10325
rated	-10326
riksh	-10327
saida	-10328
valid	-10329
write	-10330
▁ARGV	-10331
▁Agni	-10332
▁Amer	-10333
▁Cash	-10334
▁Cons	-10335
▁Cyan	-10336
▁Deep	-10337
▁Done	-10338
▁FOSS	-10339
▁Hams	-10340
▁Happ	-10341
▁Hath	-10342
▁Inte	-10343
▁Land	-10344
▁Last	-10345
▁Lets	-10346
▁Maya	-10347
▁Nath	-10348
▁Pras	-10349
▁Pres	-10350
▁Shal	-10351
▁Shiv	-10352
▁Unit	-10353
▁Unto	-10354
▁West	-10355
▁ages	-10356
▁amid	-10357
▁bark	-10358
▁blow	-10359
▁boon	-10360
▁bows	-10361
▁cens	-10362
▁clav	-10363
▁coat	-10364
▁cube	-10365
▁duck	-10366
▁dull	-10367
▁film	-10368
▁foul	-10369
▁harl	-10370
▁hire	-10371
▁mRNA	-10372
▁nurt	-10373
▁pole	-10374
▁puff	-10375
▁pump	-10376
▁rare	-10377
▁reck	-10378
▁sail	-10379
▁sams	-10380
▁sect	-10381
▁sits	-10382
▁spit	-10383
▁stru	-10384
▁sukt	-10385
▁tank	-10386
▁tend	-10387
▁unre	-10388
▁wars	-10389
Chatur	-10390
Delete	-10391
Follow	-10392
RGANIS	-10393
ainted	-10394
ancers	-10395
asanas	-10396
asters	-10397
ediate	-10398
ensity	-10399
iation	-10400
illing	-10401
licity	-10402
mental	-10403
mitted	-10404
organs	-10405
othing	-10406
result	-10407
ronics	-10408
▁Bhava	-10409
▁Blend	-10410
▁Fungi	-10411
▁Grand	-10412
▁Major	-10413
▁Names	-10414
▁Price	-10415
▁Rabbi	-10416
▁Separ	-10417
▁Tulsi	-10418
▁Uttar	-10419
▁admon	-10420
▁artic	-10421
▁audio	-10422
▁board	-10423
▁brown	-10424
▁cease	-10425
▁cured	-10426
▁dates	-10427
▁dense	-10428
▁depos	-10429
▁drums	-10430
▁eager	-10431
▁elbow	-10432
▁energ	-10433
▁faced	-10434
▁hairs	-10435
▁laugh	-10436
▁newly	-10437
▁prays	-10438
▁react	-10439
▁reply	-10440
▁scrip	-10441
▁sheet	-10442
▁sloka	-10443
▁subch	-10444
▁tones	-10445
▁tract	-10446
▁waxed	-10447
Compile	-10448
Example	-10449
Firefox	-10450
Trataka	-10451
Wherein	-10452
allowed	-10453
dominal	-10454
ichloro	-10455
ournals	-10456
telling	-10457
▁Arvind	-10458
▁Basics	-10459
▁Buddha	-10460
▁Carbox	-10461
▁Friend	-10462
▁Global	-10463
▁Madhya	-10464
▁Moksha	-10465
▁Office	-10466
▁Priest	-10467
▁Report	-10468
▁Sarasw	-10469
▁Social	-10470
▁Sunday	-10471
▁Talent	-10472
▁advent	-10473
▁auster	-10474
▁compel	-10475
▁cutter	-10476
▁demons	-10477
▁device	-10478
▁dinner	-10479
▁dipole	-10480
▁driver	-10481
▁duplic	-10482
▁enjoys	-10483
▁former	-10484
▁frames	-10485
▁htdocs	-10486
▁invent	-10487
▁island	-10488
▁jewels	-10489
▁loving	-10490
▁nutrit	-10491
▁parted	-10492
▁pasted	-10493
▁planes	-10494
▁poison	-10495
▁pulled	-10496
▁purity	-10497
▁relief	-10498
▁resemb	-10499
▁secure	-10500
▁setter	-10501
▁sketch	-10502
▁threes	-10503
▁unless	-10504
▁virgin	-10505
▁weapon	-10506
▁wooden	-10507
Children	-10508
astasana	-10509
atabases	-10510
igarette	-10511
irection	-10512
piration	-10513
▁Acharya	-10514
▁Barcode	-10515
▁Central	-10516
▁Changes	-10517
▁Chooser	-10518
▁College	-10519
▁Command	-10520
▁Corinth	-10521
▁Destroy	-10522
▁Details	-10523
▁Network	-10524
▁Perhaps	-10525
▁Privacy	-10526
▁Stephen	-10527
▁Systems	-10528
▁Without	-10529
▁absorbs	-10530
▁adverse	-10531
▁apparel	-10532
▁asunder	-10533
▁consume	-10534
▁copying	-10535
▁crossed	-10536
▁denoted	-10537
▁descend	-10538
▁digging	-10539
▁ensures	-10540
▁equally	-10541
▁extinct	-10542
▁felicit	-10543
▁fervent	-10544
▁fifteen	-10545
▁gardens	-10546
▁isomers	-10547
▁lifting	-10548
▁mantras	-10549
▁mustard	-10550
▁offline	-10551
▁outward	-10552
▁payment	-10553
▁planted	-10554
▁plucked	-10555
▁plugins	-10556
▁podcast	-10557
▁polygon	-10558
▁princes	-10559
▁profane	-10560
▁reigned	-10561
▁shewing	-10562
▁staying	-10563
▁textbox	-10564
▁touches	-10565
▁typical	-10566
▁vehicle	-10567
▁viewing	-10568
▁warrior	-10569
▁wounded	-10570
Forasmuch	-10571
computers	-10572
knowledge	-10573
▁Draupadi	-10574
▁Homepage	-10575
▁Kaivalya	-10576
▁Minister	-10577
▁Optional	-10578
▁Starting	-10579
▁Tomorrow	-10580
▁________	-10581
▁audience	-10582
▁commerce	-10583
▁compiled	-10584
▁desolate	-10585
▁downward	-10586
▁edifying	-10587
▁energies	-10588
▁flexible	-10589
▁friendly	-10590
▁garlands	-10591
▁humanity	-10592
▁keywords	-10593
▁measured	-10594
▁meekness	-10595
▁mentally	-10596
▁merciful	-10597
▁mightest	-10598
▁perished	-10599
▁predomin	-10600
▁protozoa	-10601
▁purifies	-10602
▁redeemed	-10603
▁reported	-10604
▁sickness	-10605
▁solution	-10606
▁suggests	-10607
▁toString	-10608
▁treasury	-10609
▁weakness	-10610
▁withdraw	-10611
ouncements	-10612
▁Bethlehem	-10613
▁Bethsaida	-10614
▁Documents	-10615
▁Principal	-10616
▁Threshold	-10617
▁attempted	-10618
▁automatic	-10619
▁chemicals	-10620
▁companies	-10621
▁conquered	-10622
▁constants	-10623
▁continues	-10624
▁dinosaurs	-10625
▁earnestly	-10626
▁elephants	-10627
▁enjoyment	-10628
▁executing	-10629
▁imbalance	-10630
▁murderers	-10631
▁nourished	-10632
▁objective	-10633
▁perfectly	-10634
▁physician	-10635
▁popularly	-10636
▁processor	-10637
▁published	-10638
▁reflected	-10639
▁releasing	-10640
▁repeating	-10641
▁reproduce	-10642
▁stability	-10643
▁tolerable	-10644
▁tormented	-10645
▁wrestling	-10646
▁Makarasana	-10647
▁Technology	-10648
▁bottomless	-10649
▁companions	-10650
▁configured	-10651
▁contribute	-10652
▁converting	-10653
▁correction	-10654
▁difficulty	-10655
▁disappears	-10656
▁discipline	-10657
▁explicitly	-10658
▁indicating	-10659
▁initiative	-10660
▁instructor	-10661
▁interfaces	-10662
▁ordinances	-10663
▁principles	-10664
▁privileges	-10665
▁programmes	-10666
▁scattering	-10667
▁threescore	-10668
▁Accessories	-10669
▁Engineering	-10670
▁Environment	-10671
▁Kurukshetra	-10672
▁Perspective	-10673
▁controlling	-10674
▁distributed	-10675
▁electricity	-10676
▁interpreted	-10677
▁omniscience	-10678
▁orientation	-10679
▁participate	-10680
▁synchronize	-10681
▁understands	-10682
▁Acquisitions	-10683
photosynthesis	-10684
▁circumstances	-10685
▁environmental	-10686
▁opportunities	-10687
▁possibilities	-10688
▁strengthening	-10689
▁studentDetail	-10690
▁administrative	-10691
▁GreetingServlet	-10692
5,	-10693
AD	-10694
CH	-10695
IP	-10696
KA	-10697
LL	-10698
SH	-10699
dk	-10700
gu	-10701
mm	-10702
ns	-10703
"".	-10704
.)"	-10705
2--	-10706
Dep	-10707
Mar	-10708
Org	-10709
Sim	-10710
Try	-10711
ait	-10712
ano	-10713
aro	-10714
awn	-10715
bal	-10716
bib	-10717
bow	-10718
bub	-10719
col	-10720
eya	-10721
gam	-10722
ham	-10723
his	-10724
inj	-10725
mat	-10726
mrk	-10727
mys	-10728
ndo	-10729
rya	-10730
sir	-10731
sof	-10732
svg	-10733
tml	-10734
ulg	-10735
vah	-10736
was	-10737
▁28	-10738
▁29	-10739
▁BH	-10740
▁Ip	-10741
▁RE	-10742
▁Vr	-10743
▁ow	-10744
2018	-10745
Both	-10746
Fear	-10747
Half	-10748
Main	-10749
Most	-10750
Show	-10751
abir	-10752
also	-10753
arta	-10754
elze	-10755
emus	-10756
ench	-10757
esth	-10758
ghed	-10759
hita	-10760
info	-10761
kdir	-10762
lled	-10763
loom	-10764
neys	-10765
othi	-10766
raud	-10767
roat	-10768
rome	-10769
sect	-10770
thar	-10771
upon	-10772
vell	-10773
will	-10774
▁2.3	-10775
▁40.	-10776
▁5."	-10777
▁7.1	-10778
▁Bhe	-10779
▁Bit	-10780
▁Dar	-10781
▁Due	-10782
▁Gad	-10783
▁Hos	-10784
▁Jag	-10785
▁Rah	-10786
▁Row	-10787
▁Sha	-10788
▁Uns	-10789
▁aid	-10790
▁aim	-10791
▁bew	-10792
▁cmp	-10793
▁hel	-10794
▁ids	-10795
▁jag	-10796
▁lic	-10797
▁obe	-10798
▁php	-10799
▁til	-10800
▁utt	-10801
▁won	-10802
▁www	-10803
.)"""	-10804
?""""	-10805
Grace	-10806
adder	-10807
anine	-10808
arned	-10809
asant	-10810
astya	-10811
begin	-10812
blast	-10813
ching	-10814
count	-10815
edita	-10816
email	-10817
going	-10818
iceth	-10819
imeon	-10820
inate	-10821
inety	-10822
ingly	-10823
label	-10824
odies	-10825
okent	-10826
otted	-10827
plend	-10828
scale	-10829
ssils	-10830
stain	-10831
stool	-10832
yahoo	-10833
▁10."	-10834
▁Abhi	-10835
▁Apar	-10836
▁Auro	-10837
▁Brit	-10838
▁Desi	-10839
▁Five	-10840
▁Flat	-10841
▁Hero	-10842
▁Jala	-10843
▁Lakh	-10844
▁Mind	-10845
▁Nach	-10846
▁None	-10847
▁Phot	-10848
▁Pont	-10849
▁Raga	-10850
▁SYST	-10851
▁Side	-10852
▁Siva	-10853
▁Star	-10854
▁Subt	-10855
▁Suff	-10856
▁Undo	-10857
▁Vide	-10858
▁abom	-10859
▁beam	-10860
▁bill	-10861
▁blog	-10862
▁busy	-10863
▁clar	-10864
▁core	-10865
▁cred	-10866
▁deaf	-10867
▁dogs	-10868
▁dots	-10869
▁hail	-10870
▁incr	-10871
▁kern	-10872
▁oils	-10873
▁pink	-10874
▁prim	-10875
▁satt	-10876
▁sink	-10877
▁sixt	-10878
▁tidy	-10879
▁tiss	-10880
▁toys	-10881
()."""	-10882
Author	-10883
Exists	-10884
Giving	-10885
Output	-10886
Sprint	-10887
Stream	-10888
anches	-10889
angles	-10890
figure	-10891
geance	-10892
hedral	-10893
hicles	-10894
ialias	-10895
import	-10896
inform	-10897
ivarma	-10898
olving	-10899
output	-10900
public	-10901
rating	-10902
riting	-10903
rivers	-10904
ulture	-10905
versed	-10906
▁0."""	-10907
▁4."""	-10908
▁April	-10909
▁Arist	-10910
▁Arrow	-10911
▁Assam	-10912
▁Bliss	-10913
▁Chlor	-10914
▁Eleph	-10915
▁Enrol	-10916
▁Index	-10917
▁Leave	-10918
▁Medha	-10919
▁Satya	-10920
▁Tiled	-10921
▁Vanas	-10922
▁Varah	-10923
▁Virat	-10924
▁Warri	-10925
▁alike	-10926
▁aller	-10927
▁ashes	-10928
▁awake	-10929
▁award	-10930
▁bajra	-10931
▁bount	-10932
▁brace	-10933
▁caves	-10934
▁cocon	-10935
▁codes	-10936
▁comic	-10937
▁deals	-10938
▁delic	-10939
▁drank	-10940
▁durst	-10941
▁ended	-10942
▁expir	-10943
▁fifty	-10944
▁fools	-10945
▁foref	-10946
▁graff	-10947
▁grief	-10948
▁guest	-10949
▁guile	-10950
▁hides	-10951
▁hymns	-10952
▁hyper	-10953
▁impur	-10954
▁jerky	-10955
▁lemon	-10956
▁loads	-10957
▁lunch	-10958
▁meats	-10959
▁movie	-10960
▁newer	-10961
▁noted	-10962
▁pests	-10963
▁ponds	-10964
▁reson	-10965
▁scanf	-10966
▁shabd	-10967
▁shock	-10968
▁shook	-10969
▁sings	-10970
▁sowed	-10971
▁spawn	-10972
▁stabl	-10973
▁stack	-10974
▁stamp	-10975
▁stays	-10976
▁stoop	-10977
▁sware	-10978
▁threw	-10979
▁tombs	-10980
▁train	-10981
▁tries	-10982
▁worry	-10983
Balance	-10984
Krishna	-10985
arpened	-10986
between	-10987
default	-10988
elzebub	-10989
esthood	-10990
gnuhata	-10991
ocation	-10992
ography	-10993
reliant	-10994
teacher	-10995
utation	-10996
▁01/01/	-10997
▁Devaki	-10998
▁Groups	-10999
▁Guides	-11000
▁Higher	-11001
▁Inquir	-11002
▁Inside	-11003
▁Interp	-11004
▁Kapala	-11005
▁Manual	-11006
▁Nandig	-11007
▁Narada	-11008
▁Nation	-11009
▁Oxygen	-11010
▁Rabbit	-11011
▁SOURCE	-11012
▁Shloka	-11013
▁Struct	-11014
▁Topics	-11015
▁Writer	-11016
▁alumni	-11017
▁beware	-11018
▁burden	-11019
▁buying	-11020
▁castle	-11021
▁choked	-11022
▁crowns	-11023
▁differ	-11024
▁dishes	-11025
▁esteem	-11026
▁extent	-11027
▁fairly	-11028
▁fierce	-11029
▁fornic	-11030
▁fought	-11031
▁guides	-11032
▁intend	-11033
▁monkey	-11034
▁nearby	-11035
▁nights	-11036
▁overth	-11037
▁plough	-11038
▁purify	-11039
▁sawest	-11040
▁shells	-11041
▁sowing	-11042
▁staves	-11043
▁stotra	-11044
▁synony	-11045
▁threat	-11046
▁throat	-11047
▁vanish	-11048
▁verses	-11049
▁visual	-11050
▁warned	-11051
▁wheels	-11052
urations	-11053
▁Biology	-11054
▁Builder	-11055
▁Convert	-11056
▁Earlier	-11057
▁Healing	-11058
▁Invalid	-11059
▁Ipython	-11060
▁Monkeys	-11061
▁Reading	-11062
▁Release	-11063
▁Reports	-11064
▁Shriman	-11065
▁Shuddhi	-11066
▁Someone	-11067
▁Valmiki	-11068
▁alerted	-11069
▁chapati	-11070
▁defiled	-11071
▁diamond	-11072
▁discern	-11073
▁edition	-11074
▁engines	-11075
▁expands	-11076
▁feather	-11077
▁flavour	-11078
▁foreign	-11079
▁hygiene	-11080
▁iterate	-11081
▁journal	-11082
▁learner	-11083
▁neglect	-11084
▁painted	-11085
▁provoke	-11086
▁recites	-11087
▁revered	-11088
▁rotates	-11089
▁scenari	-11090
▁shelter	-11091
▁sustain	-11092
▁symbols	-11093
▁testing	-11094
▁thunder	-11095
▁uttered	-11096
▁zealous	-11097
abilities	-11098
backslash	-11099
directory	-11100
ialiasing	-11101
resources	-11102
▁Bookmark	-11103
▁Contents	-11104
▁Features	-11105
▁Herodias	-11106
▁Journals	-11107
▁Learning	-11108
▁Material	-11109
▁Slightly	-11110
▁beckoned	-11111
▁choosing	-11112
▁circular	-11113
▁delusion	-11114
▁digested	-11115
▁disaster	-11116
▁domestic	-11117
▁embodied	-11118
▁eyesight	-11119
▁fighting	-11120
▁forceful	-11121
▁grievous	-11122
▁kerchief	-11123
▁mediator	-11124
▁melodies	-11125
▁minimize	-11126
▁multiply	-11127
▁offences	-11128
▁paternal	-11129
▁pleasant	-11130
▁priority	-11131
▁promotes	-11132
▁publican	-11133
▁response	-11134
▁rotating	-11135
▁searched	-11136
▁searches	-11137
▁skipping	-11138
▁sometime	-11139
▁subtract	-11140
▁supplied	-11141
▁vehicles	-11142
▁versions	-11143
▁Beelzebub	-11144
▁Dasaratha	-11145
▁Extension	-11146
▁Financial	-11147
▁Karnataka	-11148
▁Molecular	-11149
▁Publisher	-11150
▁Shavasana	-11151
▁Workspace	-11152
▁alternate	-11153
▁ancestors	-11154
▁childhood	-11155
▁commander	-11156
▁conformer	-11157
▁confusion	-11158
▁customers	-11159
▁delimiter	-11160
▁diligence	-11161
▁dishonour	-11162
▁endeavour	-11163
▁entreated	-11164
▁expedient	-11165
▁firstborn	-11166
▁footstool	-11167
▁foreheads	-11168
▁fragments	-11169
▁fragrance	-11170
▁incidents	-11171
▁infirmity	-11172
▁liberated	-11173
▁lifestyle	-11174
▁lightness	-11175
▁molecular	-11176
▁necessity	-11177
▁pleasures	-11178
▁political	-11179
▁producing	-11180
▁rakshasas	-11181
▁remaineth	-11182
▁rendering	-11183
▁resistant	-11184
▁returning	-11185
▁sentiment	-11186
▁supposing	-11187
▁typically	-11188
▁Connection	-11189
▁Dasharatha	-11190
▁Difference	-11191
▁Melakartha	-11192
▁MethodDemo	-11193
▁Parliament	-11194
▁Samaritans	-11195
▁accurately	-11196
▁breakpoint	-11197
▁calculated	-11198
▁decreasing	-11199
▁detergents	-11200
▁determines	-11201
▁developing	-11202
▁expressing	-11203
▁honourable	-11204
▁implements	-11205
▁impurities	-11206
▁nutritious	-11207
▁preference	-11208
▁priesthood	-11209
▁prosperous	-11210
▁punishment	-11211
▁restaurant	-11212
▁succession	-11213
▁userExists	-11214
▁validation	-11215
▁vigorously	-11216
StreamReader	-11217
okentutorial	-11218
▁Cleanliness	-11219
▁Salutations	-11220
▁Strengthens	-11221
▁Vishwakarma	-11222
▁chlorophyll	-11223
▁continually	-11224
▁corruptible	-11225
▁countenance	-11226
▁essentially	-11227
▁foolishness	-11228
▁forefingers	-11229
▁implemented	-11230
▁ministering	-11231
▁submissions	-11232
▁TalentSprint	-11233
▁conservation	-11234
▁coordination	-11235
▁experiencing	-11236
▁horizontally	-11237
▁ministration	-11238
▁organisation	-11239
▁Shitilikarana	-11240
▁subcategories	-11241
Notwithstanding	-11242
▁initialization	-11243
▁implementations	-11244
!!	-11245
-2	-11246
.(	-11247
.)	-11248
0,	-11249
94	-11250
Av	-11251
Fe	-11252
IK	-11253
IM	-11254
NR	-11255
OG	-11256
OM	-11257
RY	-11258
SC	-11259
SE	-11260
WW	-11261
cd	-11262
di	-11263
fe	-11264
pa	-11265
yo	-11266
yr	-11267
().	-11268
?""	-11269
Art	-11270
Cal	-11271
NAL	-11272
Pur	-11273
VIR	-11274
Why	-11275
agh	-11276
elu	-11277
ese	-11278
gra	-11279
hyl	-11280
inc	-11281
mas	-11282
maz	-11283
mer	-11284
mrc	-11285
nel	-11286
nit	-11287
och	-11288
pra	-11289
ref	-11290
rna	-11291
rup	-11292
ulw	-11293
zan	-11294
▁0,	-11295
▁4,	-11296
▁72	-11297
▁Aw	-11298
▁Hi	-11299
▁Hr	-11300
▁IP	-11301
.3--	-11302
Brah	-11303
Crew	-11304
Koha	-11305
Lord	-11306
NAME	-11307
NTRY	-11308
TION	-11309
akum	-11310
alse	-11311
amal	-11312
aman	-11313
angi	-11314
ayan	-11315
bhar	-11316
cale	-11317
dish	-11318
gets	-11319
iant	-11320
isha	-11321
isho	-11322
krut	-11323
lass	-11324
licy	-11325
life	-11326
made	-11327
make	-11328
mini	-11329
nath	-11330
ntil	-11331
oise	-11332
pura	-11333
rror	-11334
ruta	-11335
sign	-11336
size	-11337
ster	-11338
take	-11339
uber	-11340
ubes	-11341
ulti	-11342
unti	-11343
vide	-11344
warm	-11345
▁000	-11346
▁2.4	-11347
▁20.	-11348
▁4."	-11349
▁800	-11350
▁ALT	-11351
▁Ank	-11352
▁Ara	-11353
▁Ask	-11354
▁Bho	-11355
▁Cep	-11356
▁FNR	-11357
▁Jes	-11358
▁LMS	-11359
▁Ras	-11360
▁Sea	-11361
▁Shr	-11362
▁Sut	-11363
▁Ter	-11364
▁Vip	-11365
▁abd	-11366
▁apt	-11367
▁bat	-11368
▁bib	-11369
▁gop	-11370
▁mil	-11371
▁phr	-11372
▁rit	-11373
▁sab	-11374
▁ton	-11375
▁vip	-11376
.....	-11377
Beans	-11378
Books	-11379
CTION	-11380
Great	-11381
Music	-11382
Place	-11383
Sutra	-11384
Water	-11385
abbed	-11386
adays	-11387
aksho	-11388
anael	-11389
anesh	-11390
ankar	-11391
apati	-11392
arest	-11393
atile	-11394
aveda	-11395
bindo	-11396
brain	-11397
built	-11398
enced	-11399
enger	-11400
gebra	-11401
gnore	-11402
green	-11403
harah	-11404
hello	-11405
icker	-11406
ineth	-11407
ineum	-11408
ingal	-11409
injal	-11410
istha	-11411
latex	-11412
mazon	-11413
named	-11414
ollen	-11415
orned	-11416
paste	-11417
phone	-11418
ramah	-11419
their	-11420
there	-11421
ucose	-11422
uning	-11423
▁2.4.	-11424
▁2020	-11425
▁Amin	-11426
▁Bean	-11427
▁Bhai	-11428
▁Bike	-11429
▁Cana	-11430
▁Chem	-11431
▁Decl	-11432
▁Dell	-11433
▁Fine	-11434
▁Four	-11435
▁IITB	-11436
▁Iron	-11437
▁June	-11438
▁KING	-11439
▁Link	-11440
▁MMFF	-11441
▁Pamp	-11442
▁Poll	-11443
▁Pulw	-11444
▁Rise	-11445
▁Rome	-11446
▁Sara	-11447
▁Saty	-11448
▁Ship	-11449
▁Tags	-11450
▁Tues	-11451
▁Unix	-11452
▁bund	-11453
▁bush	-11454
▁cage	-11455
▁cite	-11456
▁dirt	-11457
▁eggs	-11458
▁enzy	-11459
▁foam	-11460
▁foes	-11461
▁hewn	-11462
▁hook	-11463
▁html	-11464
▁idle	-11465
▁lend	-11466
▁leop	-11467
▁lump	-11468
▁mart	-11469
▁mega	-11470
▁mock	-11471
▁pane	-11472
▁pars	-11473
▁pelv	-11474
▁phen	-11475
▁pond	-11476
▁pool	-11477
▁pour	-11478
▁race	-11479
▁robe	-11480
▁simp	-11481
▁soap	-11482
▁sole	-11483
▁syll	-11484
▁trav	-11485
▁unse	-11486
▁vast	-11487
▁veil	-11488
▁wist	-11489
▁yoke	-11490
00,000	-11491
Indian	-11492
Moodle	-11493
Plants	-11494
Search	-11495
Second	-11496
arians	-11497
assium	-11498
cusing	-11499
ernary	-11500
esture	-11501
inated	-11502
inical	-11503
inters	-11504
irable	-11505
isheth	-11506
issors	-11507
ituals	-11508
lences	-11509
odemus	-11510
proper	-11511
rophen	-11512
system	-11513
▁1.1.1	-11514
▁5."""	-11515
▁Angle	-11516
▁Atman	-11517
▁Autom	-11518
▁Avoid	-11519
▁BOOKS	-11520
▁Bhakt	-11521
▁ENTRY	-11522
▁Games	-11523
▁Gurud	-11524
▁Jason	-11525
▁Jatru	-11526
▁Jyoti	-11527
▁Matsy	-11528
▁Padah	-11529
▁Power	-11530
▁Prime	-11531
▁Saint	-11532
▁Shall	-11533
▁South	-11534
▁Three	-11535
▁Yamas	-11536
▁afore	-11537
▁astro	-11538
▁balls	-11539
▁banks	-11540
▁bears	-11541
▁bosom	-11542
▁breed	-11543
▁climb	-11544
▁deity	-11545
▁delet	-11546
▁discr	-11547
▁farms	-11548
▁goals	-11549
▁goest	-11550
▁ideas	-11551
▁imput	-11552
▁inhab	-11553
▁jumps	-11554
▁liver	-11555
▁masks	-11556
▁nHalf	-11557
▁pairs	-11558
▁reput	-11559
▁scorp	-11560
▁sends	-11561
▁shade	-11562
▁shoot	-11563
▁sizes	-11564
▁spont	-11565
▁sprou	-11566
▁storm	-11567
▁theft	-11568
▁thorn	-11569
▁toxic	-11570
▁whoso	-11571
▁wound	-11572
Looking	-11573
Service	-11574
Without	-11575
akarani	-11576
arshana	-11577
cretion	-11578
execute	-11579
ificial	-11580
itional	-11581
oremong	-11582
ortoise	-11583
ository	-11584
testdir	-11585
urvedic	-11586
ustrial	-11587
▁16.04"	-11588
▁Blocks	-11589
▁Cephas	-11590
▁Divine	-11591
▁Enroll	-11592
▁Mahesh	-11593
▁Modify	-11594
▁Pencil	-11595
▁Picker	-11596
▁Prince	-11597
▁Render	-11598
▁SYSTEM	-11599
▁Simple	-11600
▁Tabbed	-11601
▁Tables	-11602
▁Yellow	-11603
▁acting	-11604
▁amoeba	-11605
▁ankles	-11606
▁asketh	-11607
▁beaten	-11608
▁bodily	-11609
▁bottle	-11610
▁bowels	-11611
▁bridge	-11612
▁budget	-11613
▁buffet	-11614
▁buried	-11615
▁closer	-11616
▁confer	-11617
▁devour	-11618
▁driven	-11619
▁expert	-11620
▁explan	-11621
▁export	-11622
▁factor	-11623
▁faster	-11624
▁guilty	-11625
▁hanged	-11626
▁hatred	-11627
▁insect	-11628
▁lethar	-11629
▁lodged	-11630
▁margin	-11631
▁mixing	-11632
▁pearls	-11633
▁plates	-11634
▁pounds	-11635
▁prices	-11636
▁proved	-11637
▁puffed	-11638
▁refuse	-11639
▁remark	-11640
▁reprob	-11641
▁retain	-11642
▁review	-11643
▁ritual	-11644
▁scared	-11645
▁seated	-11646
▁silent	-11647
▁sprang	-11648
▁sprung	-11649
▁swords	-11650
▁tender	-11651
▁theory	-11652
▁unprof	-11653
▁utmost	-11654
▁varied	-11655
▁waited	-11656
▁widely	-11657
Maintain	-11658
Tadasana	-11659
Tomorrow	-11660
changing	-11661
iambecky	-11662
iousness	-11663
▁0.48.4"	-11664
▁Agastya	-11665
▁Algebra	-11666
▁Benzene	-11667
▁Bhimsen	-11668
▁Breathe	-11669
▁Contact	-11670
▁Cooking	-11671
▁Develop	-11672
▁Ellipse	-11673
▁Highest	-11674
▁Himalay	-11675
▁Hosanna	-11676
▁Mantras	-11677
▁Pulwama	-11678
▁Servlet	-11679
▁Setting	-11680
▁Shalabh	-11681
▁Tuesday	-11682
▁Uncheck	-11683
▁Version	-11684
▁Viparit	-11685
▁adopted	-11686
▁amounts	-11687
▁beating	-11688
▁beneath	-11689
▁brinjal	-11690
▁captive	-11691
▁causeth	-11692
▁ceremon	-11693
▁climate	-11694
▁closely	-11695
▁deities	-11696
▁despite	-11697
▁enjoyed	-11698
▁enlarge	-11699
▁enlight	-11700
▁envying	-11701
▁falleth	-11702
▁forgets	-11703
▁glimpse	-11704
▁goodman	-11705
▁happily	-11706
▁heathen	-11707
▁hexagon	-11708
▁inbuilt	-11709
▁instant	-11710
▁justify	-11711
▁kerning	-11712
▁laughed	-11713
▁leadeth	-11714
▁leather	-11715
▁lighter	-11716
▁matched	-11717
▁mindful	-11718
▁monitor	-11719
▁noticed	-11720
▁optimum	-11721
▁overlap	-11722
▁pointed	-11723
▁replies	-11724
▁respond	-11725
▁rotated	-11726
▁servers	-11727
▁sorrows	-11728
▁stirred	-11729
▁strokes	-11730
▁surgery	-11731
▁temples	-11732
▁theatre	-11733
▁tourism	-11734
▁unaware	-11735
▁utensil	-11736
▁vinegar	-11737
▁violent	-11738
▁wearing	-11739
▁weather	-11740
Different	-11741
eneration	-11742
▁Delivery	-11743
▁DesiCrew	-11744
▁Devotees	-11745
▁Document	-11746
▁Elements	-11747
▁Exhaling	-11748
▁Laodicea	-11749
▁Packages	-11750
▁Pressure	-11751
▁Property	-11752
▁Relative	-11753
▁Subtract	-11754
▁accuracy	-11755
▁aluminum	-11756
▁breaking	-11757
▁channels	-11758
▁collapse	-11759
▁combined	-11760
▁defeated	-11761
▁deleting	-11762
▁diseased	-11763
▁economic	-11764
▁editable	-11765
▁election	-11766
▁eleventh	-11767
▁employed	-11768
▁examined	-11769
▁expanded	-11770
▁frontacc	-11771
▁grandson	-11772
▁handloom	-11773
▁hypocris	-11774
▁independ	-11775
▁inspired	-11776
▁iostream	-11777
▁kingdoms	-11778
▁membrane	-11779
▁millions	-11780
▁oblation	-11781
▁partaker	-11782
▁patients	-11783
▁perineum	-11784
▁produces	-11785
▁quarters	-11786
▁reproach	-11787
▁samskrit	-11788
▁servlets	-11789
▁sideways	-11790
▁straitly	-11791
▁surnamed	-11792
▁synonyms	-11793
▁villager	-11794
▁worships	-11795
▁Available	-11796
▁Different	-11797
▁Happiness	-11798
▁Maharishi	-11799
▁assurance	-11800
▁believest	-11801
▁butterfly	-11802
▁compassed	-11803
▁confirmed	-11804
▁delighted	-11805
▁deposited	-11806
▁elsewhere	-11807
▁expanding	-11808
▁goddesses	-11809
▁gratitude	-11810
▁hereafter	-11811
▁idolaters	-11812
▁improving	-11813
▁infection	-11814
▁inspiring	-11815
▁instances	-11816
▁instantly	-11817
▁messenger	-11818
▁numerical	-11819
▁personnel	-11820
▁preparing	-11821
▁prisoners	-11822
▁resembles	-11823
▁transpose	-11824
▁unlearned	-11825
▁uppercase	-11826
▁variation	-11827
▁versatile	-11828
▁villagers	-11829
▁wandering	-11830
▁whichever	-11831
▁whoremong	-11832
...........	-11833
FileChooser	-11834
Immediately	-11835
dimensional	-11836
informatics	-11837
▁Accounting	-11838
▁CarService	-11839
▁Corrective	-11840
▁Formatting	-11841
▁MarcEditor	-11842
▁Statistics	-11843
▁accomplish	-11844
▁altogether	-11845
▁appreciate	-11846
▁attainment	-11847
▁attractive	-11848
▁charioteer	-11849
▁clavicular	-11850
▁commanders	-11851
▁comprising	-11852
▁controller	-11853
▁equipments	-11854
▁frequently	-11855
▁habitation	-11856
▁meditating	-11857
▁objectives	-11858
▁perceiving	-11859
▁practition	-11860
▁precedence	-11861
▁recompence	-11862
▁resembling	-11863
▁simplicity	-11864
▁straighten	-11865
▁undertaken	-11866
▁Acquisition	-11867
▁Assignments	-11868
▁Constructor	-11869
▁InvalidMark	-11870
▁Mahabharata	-11871
▁Yudhishthra	-11872
▁celebrating	-11873
▁consumption	-11874
▁discussions	-11875
▁educational	-11876
▁firstfruits	-11877
▁hundredfold	-11878
▁individuals	-11879
▁institution	-11880
▁manufacture	-11881
▁possessions	-11882
▁predominant	-11883
▁salutations	-11884
▁spontaneous	-11885
▁terminology	-11886
.............	-11887
▁Independence	-11888
▁Intelligence	-11889
▁Reproduction	-11890
▁TestEmployee	-11891
▁Transactions	-11892
▁candlesticks	-11893
▁concatenated	-11894
▁connectivity	-11895
▁highlighting	-11896
▁malnutrition	-11897
▁unprofitable	-11898
▁psychological	-11899
▁transgression	-11900
▁understandeth	-11901
▁Simultaneously	-11902
▁Viparitakarani	-11903
▁configurations	-11904
▁otherorganisms	-11905
▁principalities	-11906
0.	-11907
22	-11908
6,	-11909
AP	-11910
Fl	-11911
NC	-11912
OC	-11913
OD	-11914
RA	-11915
Sm	-11916
jo	-11917
nr	-11918
ANG	-11919
Car	-11920
HAT	-11921
IAL	-11922
Iss	-11923
Pra	-11924
Rub	-11925
Spe	-11926
Web	-11927
aas	-11928
ayo	-11929
bat	-11930
bel	-11931
bes	-11932
bha	-11933
bru	-11934
car	-11935
ele	-11936
hos	-11937
iel	-11938
ipt	-11939
irr	-11940
mah	-11941
ora	-11942
run	-11943
sth	-11944
sub	-11945
sum	-11946
vak	-11947
vam	-11948
vio	-11949
▁(3	-11950
▁3:	-11951
▁AB	-11952
▁DI	-11953
▁Pa	-11954
▁ma	-11955
▁tu	-11956
()."	-11957
ANCE	-11958
Bhag	-11959
Comm	-11960
Home	-11961
Item	-11962
List	-11963
Move	-11964
Oper	-11965
PACE	-11966
Path	-11967
Stud	-11968
Test	-11969
YAMA	-11970
abad	-11971
acic	-11972
adur	-11973
apor	-11974
aroh	-11975
avat	-11976
edia	-11977
emes	-11978
erer	-11979
even	-11980
free	-11981
hens	-11982
hira	-11983
iday	-11984
illy	-11985
ingu	-11986
ipur	-11987
mind	-11988
mine	-11989
mity	-11990
nant	-11991
omer	-11992
only	-11993
pany	-11994
part	-11995
pent	-11996
riad	-11997
rics	-11998
rous	-11999
sook	-12000
soon	-12001
they	-12002
uces	-12003
uish	-12004
ulim	-12005
upee	-12006
uses	-12007
▁127	-12008
▁202	-12009
▁245	-12010
▁250	-12011
▁7."	-12012
▁Abs	-12013
▁Aqu	-12014
▁Bad	-12015
▁CON	-12016
▁CSV	-12017
▁Cil	-12018
▁Din	-12019
▁Kit	-12020
▁Mem	-12021
▁OUR	-12022
▁Pot	-12023
▁Put	-12024
▁RAW	-12025
▁Rad	-12026
▁Rat	-12027
▁Sad	-12028
▁Sec	-12029
▁Sud	-12030
▁Ten	-12031
▁Var	-12032
▁Yet	-12033
▁Yoj	-12034
▁aaa	-12035
▁als	-12036
▁bef	-12037
▁bio	-12038
▁dal	-12039
▁dum	-12040
▁eld	-12041
▁eun	-12042
▁fan	-12043
▁gem	-12044
▁hur	-12045
▁jdk	-12046
▁lit	-12047
▁mul	-12048
▁mut	-12049
▁pig	-12050
/2017	-12051
;)"""	-12052
Admin	-12053
Given	-12054
Later	-12055
Param	-12056
Start	-12057
aimed	-12058
anned	-12059
anyan	-12060
arian	-12061
asciv	-12062
asket	-12063
bread	-12064
chown	-12065
clohe	-12066
colon	-12067
ector	-12068
equal	-12069
ethyl	-12070
front	-12071
fungi	-12072
irous	-12073
lings	-12074
lobin	-12075
longs	-12076
nings	-12077
odden	-12078
orrha	-12079
oshop	-12080
patis	-12081
prene	-12082
raint	-12083
ranti	-12084
raser	-12085
rings	-12086
rison	-12087
rooms	-12088
shine	-12089
skull	-12090
songs	-12091
three	-12092
trans	-12093
umble	-12094
utral	-12095
varah	-12096
venty	-12097
▁40."	-12098
▁ARGC	-12099
▁Ardh	-12100
▁Area	-12101
▁Bomb	-12102
▁Bose	-12103
▁Came	-12104
▁Camp	-12105
▁Dhan	-12106
▁Ease	-12107
▁Farm	-12108
▁Girl	-12109
▁Grab	-12110
▁Hail	-12111
▁Hand	-12112
▁Hear	-12113
▁Kali	-12114
▁LORD	-12115
▁Lapt	-12116
▁Math	-12117
▁Memo	-12118
▁Play	-12119
▁Shat	-12120
▁Stay	-12121
▁Stra	-12122
▁Supt	-12123
▁Will	-12124
▁bulb	-12125
▁cave	-12126
▁chew	-12127
▁corp	-12128
▁cycl	-12129
▁figs	-12130
▁fist	-12131
▁fuel	-12132
▁gimp	-12133
▁guid	-12134
▁halt	-12135
▁heap	-12136
▁jack	-12137
▁knot	-12138
▁lean	-12139
▁leap	-12140
▁logs	-12141
▁mamm	-12142
▁mism	-12143
▁mote	-12144
▁myth	-12145
▁neem	-12146
▁oxen	-12147
▁pest	-12148
▁pier	-12149
▁plag	-12150
▁rank	-12151
▁roam	-12152
▁semi	-12153
▁snow	-12154
▁sout	-12155
▁span	-12156
▁strc	-12157
▁sunr	-12158
▁vial	-12159
▁wake	-12160
▁whil	-12161
▁wipe	-12162
▁wool	-12163
Change	-12164
Dinesh	-12165
Gently	-12166
Issued	-12167
Sthiti	-12168
akshmi	-12169
andise	-12170
apolis	-12171
ashing	-12172
aution	-12173
avidas	-12174
aximum	-12175
bruary	-12176
button	-12177
cerity	-12178
degree	-12179
enched	-12180
energy	-12181
engers	-12182
ertain	-12183
erting	-12184
estern	-12185
headed	-12186
minded	-12187
spring	-12188
string	-12189
▁Aaron	-12190
▁Akash	-12191
▁Amark	-12192
▁Areas	-12193
▁Break	-12194
▁Claim	-12195
▁Clear	-12196
▁Crete	-12197
▁Diana	-12198
▁Gopal	-12199
▁Kumar	-12200
▁Kutch	-12201
▁Latex	-12202
▁Learn	-12203
▁Liber	-12204
▁Lotus	-12205
▁North	-12206
▁Pages	-12207
▁Ragas	-12208
▁Rishi	-12209
▁Roles	-12210
▁Roman	-12211
▁Santh	-12212
▁Spray	-12213
▁Whose	-12214
▁Yahoo	-12215
▁aband	-12216
▁babes	-12217
▁bhati	-12218
▁cable	-12219
▁churn	-12220
▁concl	-12221
▁eagle	-12222
▁explo	-12223
▁facet	-12224
▁fails	-12225
▁feeds	-12226
▁funds	-12227
▁groan	-12228
▁gross	-12229
▁haply	-12230
▁hired	-12231
▁hover	-12232
▁irres	-12233
▁knife	-12234
▁lobes	-12235
▁lords	-12236
▁merry	-12237
▁minor	-12238
▁mkdir	-12239
▁needy	-12240
▁obeis	-12241
▁pence	-12242
▁prose	-12243
▁rmdir	-12244
▁saves	-12245
▁score	-12246
▁slept	-12247
▁sport	-12248
▁steam	-12249
▁stems	-12250
▁stiff	-12251
▁subse	-12252
▁swing	-12253
▁towns	-12254
▁trave	-12255
▁vexed	-12256
▁vials	-12257
▁weeds	-12258
Eclipse	-12259
Himayat	-12260
adhyayi	-12261
defined	-12262
ipython	-12263
isation	-12264
ivities	-12265
objects	-12266
oglobin	-12267
panakha	-12268
parable	-12269
percent	-12270
ulimala	-12271
vellous	-12272
viously	-12273
▁10."""	-12274
▁16.04,	-12275
▁Adjust	-12276
▁Alumin	-12277
▁Ashoka	-12278
▁Chrome	-12279
▁Cosmic	-12280
▁Effect	-12281
▁Effort	-12282
▁Eraser	-12283
▁Friday	-12284
▁Having	-12285
▁Honour	-12286
▁Jyothi	-12287
▁Little	-12288
▁Living	-12289
▁Lystra	-12290
▁Making	-12291
▁Preeti	-12292
▁Radius	-12293
▁School	-12294
▁Shakti	-12295
▁Simeon	-12296
▁States	-12297
▁Stitch	-12298
▁Suffer	-12299
▁Things	-12300
▁Transl	-12301
▁Whence	-12302
▁apache	-12303
▁armour	-12304
▁ascend	-12305
▁avenge	-12306
▁brides	-12307
▁callby	-12308
▁crafts	-12309
▁cultiv	-12310
▁dearly	-12311
▁decade	-12312
▁disple	-12313
▁eldest	-12314
▁engage	-12315
▁enlist	-12316
▁enmity	-12317
▁estate	-12318
▁eunuch	-12319
▁fables	-12320
▁female	-12321
▁fiscal	-12322
▁fixing	-12323
▁genome	-12324
▁getter	-12325
▁girded	-12326
▁girdle	-12327
▁grapes	-12328
▁houset	-12329
▁impart	-12330
▁iodine	-12331
▁kissed	-12332
▁lasciv	-12333
▁layout	-12334
▁losing	-12335
▁maimed	-12336
▁mortal	-12337
▁murder	-12338
▁narrow	-12339
▁ninety	-12340
▁oversh	-12341
▁papers	-12342
▁pillar	-12343
▁poetry	-12344
▁proton	-12345
▁remote	-12346
▁rolled	-12347
▁sarees	-12348
▁seeker	-12349
▁sheets	-12350
▁singer	-12351
▁stages	-12352
▁sutras	-12353
▁tucked	-12354
▁underg	-12355
▁uphold	-12356
▁victor	-12357
▁warmed	-12358
▁warmth	-12359
complete	-12360
dichloro	-12361
feedback	-12362
olutions	-12363
ountains	-12364
▁America	-12365
▁Arrange	-12366
▁Bending	-12367
▁British	-12368
▁Chapter	-12369
▁Cilicia	-12370
▁Collect	-12371
▁Compose	-12372
▁Degrees	-12373
▁Dharmas	-12374
▁Disable	-12375
▁Enhance	-12376
▁Execute	-12377
▁Masking	-12378
▁Perform	-12379
▁Primary	-12380
▁Receive	-12381
▁Sandhya	-12382
▁Serving	-12383
▁Sidebar	-12384
▁abiding	-12385
▁abstain	-12386
▁advance	-12387
▁afterno	-12388
▁appoint	-12389
▁arrayed	-12390
▁blanket	-12391
▁breadth	-12392
▁casteth	-12393
▁categor	-12394
▁coconut	-12395
▁college	-12396
▁dancers	-12397
▁decades	-12398
▁draught	-12399
▁dynamic	-12400
▁eatable	-12401
▁electro	-12402
▁experts	-12403
▁fearful	-12404
▁forsook	-12405
▁frontal	-12406
▁graffed	-12407
▁grouped	-12408
▁hearken	-12409
▁helping	-12410
▁illumin	-12411
▁keepers	-12412
▁labours	-12413
▁loading	-12414
▁looping	-12415
▁loosing	-12416
▁lotuses	-12417
▁manures	-12418
▁neutral	-12419
▁notpass	-12420
▁obtains	-12421
▁optical	-12422
▁praised	-12423
▁privily	-12424
▁realize	-12425
▁recited	-12426
▁recover	-12427
▁rectify	-12428
▁remnant	-12429
▁replied	-12430
▁restart	-12431
▁rightly	-12432
▁rituals	-12433
▁samadhi	-12434
▁scarlet	-12435
▁serveth	-12436
▁singers	-12437
▁sorting	-12438
▁tempest	-12439
▁tighten	-12440
▁tissues	-12441
▁topmost	-12442
▁vesture	-12443
▁virgins	-12444
▁walketh	-12445
▁watches	-12446
▁yielded	-12447
Generally	-12448
Parameter	-12449
abdominal	-12450
aporation	-12451
ciousness	-12452
halations	-12453
▁Clicking	-12454
▁Debugger	-12455
▁February	-12456
▁Function	-12457
▁Gomorrha	-12458
▁Learners	-12459
▁Multiple	-12460
▁Navigate	-12461
▁Nivedita	-12462
▁Optimize	-12463
▁Rotation	-12464
▁Shirisha	-12465
▁Warriors	-12466
▁Whatever	-12467
▁altering	-12468
▁ascetics	-12469
▁attitude	-12470
▁ayurveda	-12471
▁buttonho	-12472
▁defileth	-12473
▁deployed	-12474
▁desirous	-12475
▁despised	-12476
▁develops	-12477
▁ensample	-12478
▁errorlog	-12479
▁extended	-12480
▁forearms	-12481
▁forsaken	-12482
▁furlongs	-12483
▁gnashing	-12484
▁graceful	-12485
▁guidance	-12486
▁homework	-12487
▁hundreds	-12488
▁immortal	-12489
▁inquired	-12490
▁instanti	-12491
▁jealousy	-12492
▁lethargy	-12493
▁memorize	-12494
▁mentions	-12495
▁mismatch	-12496
▁murderer	-12497
▁numbered	-12498
▁peaceful	-12499
▁phonemes	-12500
▁possibly	-12501
▁preceded	-12502
▁prepares	-12503
▁prevents	-12504
▁profited	-12505
▁projects	-12506
▁promoted	-12507
▁randomly	-12508
▁reactive	-12509
▁reconcil	-12510
▁regarded	-12511
▁relative	-12512
▁rendered	-12513
▁retrieve	-12514
▁scissors	-12515
▁seedling	-12516
▁shifting	-12517
▁southern	-12518
▁speakest	-12519
▁supplier	-12520
▁surfaces	-12521
▁talented	-12522
▁thoracic	-12523
▁toolbars	-12524
▁vitality	-12525
▁worshipp	-12526
accounting	-12527
ertilizers	-12528
▁Arguments	-12529
▁Aurobindo	-12530
▁Character	-12531
▁Depending	-12532
▁Gurudwara	-12533
▁Himalayas	-12534
▁Operators	-12535
▁Purchases	-12536
▁Ravivarma	-12537
▁Saraswati	-12538
▁Solutions	-12539
▁Stability	-12540
▁Unlimited	-12541
▁Variables	-12542
▁Yogasanas	-12543
▁abilities	-12544
▁allergies	-12545
▁aluminium	-12546
▁blockages	-12547
▁clipboard	-12548
▁consuming	-12549
▁databases	-12550
▁declaring	-12551
▁descended	-12552
▁discourse	-12553
▁disorders	-12554
▁disputing	-12555
▁enumerate	-12556
▁extortion	-12557
▁factories	-12558
▁fundament	-12559
▁guideline	-12560
▁immediate	-12561
▁initially	-12562
▁intensity	-12563
▁intercess	-12564
▁involutes	-12565
▁maintains	-12566
▁proceeded	-12567
▁protector	-12568
▁recognize	-12569
▁sincerity	-12570
▁somewhere	-12571
▁subscript	-12572
▁travelled	-12573
▁unrelated	-12574
▁uploading	-12575
▁utterance	-12576
▁willingly	-12577
▁Arithmetic	-12578
▁Krishnadev	-12579
▁Paintbrush	-12580
▁Upanishads	-12581
▁Vanaspatis	-12582
▁afterwards	-12583
▁artificial	-12584
▁colleagues	-12585
▁comparison	-12586
▁consisting	-12587
▁constitute	-12588
▁exceptions	-12589
▁executable	-12590
▁expiration	-12591
▁fulfilling	-12592
▁historical	-12593
▁illustrate	-12594
▁maintained	-12595
▁marvellous	-12596
▁neighbours	-12597
▁physically	-12598
▁recitation	-12599
▁redirected	-12600
▁restrained	-12601
▁restricted	-12602
▁sentiments	-12603
▁sequential	-12604
▁signifying	-12605
▁subsequent	-12606
▁terminated	-12607
▁Dimensional	-12608
▁acknowledge	-12609
▁battlefield	-12610
▁concatenate	-12611
▁excellences	-12612
▁experienced	-12613
▁incarnation	-12614
▁merchandise	-12615
▁persecutest	-12616
▁sacrificial	-12617
▁temptations	-12618
▁transferred	-12619
▁unbelieving	-12620
▁Manipulation	-12621
▁calculations	-12622
▁civilization	-12623
▁disobedience	-12624
▁getParameter	-12625
▁independence	-12626
▁participants	-12627
▁particularly	-12628
▁practitioner	-12629
▁storytelling	-12630
▁sustentation	-12631
▁fellowservant	-12632
▁instructional	-12633
▁presentations	-12634
▁significantly	-12635
▁whithersoever	-12636
▁lasciviousness	-12637
▁specifications	-12638
-7	-12639
25	-12640
42	-12641
45	-12642
77	-12643
91	-12644
:'	-12645
??	-12646
Bo	-12647
CN	-12648
DV	-12649
Fr	-12650
IB	-12651
IE	-12652
La	-12653
Lo	-12654
NG	-12655
Ok	-12656
Qu	-12657
SO	-12658
dr	-12659
fi	-12660
ja	-12661
yt	-12662
-10	-12663
.""	-12664
3--	-12665
Are	-12666
Att	-12667
Col	-12668
Def	-12669
Dev	-12670
IME	-12671
IPE	-12672
Jud	-12673
OHA	-12674
SRU	-12675
Sar	-12676
Sit	-12677
aoh	-12678
aru	-12679
auk	-12680
cii	-12681
cro	-12682
ded	-12683
des	-12684
gcc	-12685
gle	-12686
got	-12687
lab	-12688
loe	-12689
odt	-12690
oni	-12691
pow	-12692
sol	-12693
sql	-12694
std	-12695
tho	-12696
uva	-12697
vag	-12698
wer	-12699
win	-12700
xes	-12701
xim	-12702
ych	-12703
▁(1	-12704
▁-"	-12705
▁1/	-12706
▁2'	-12707
▁3,	-12708
▁Az	-12709
▁DE	-12710
▁Dy	-12711
▁EN	-12712
▁FI	-12713
▁IO	-12714
▁LE	-12715
▁PS	-12716
▁TO	-12717
▁ie	-12718
▁ka	-12719
▁ln	-12720
▁md	-12721
▁od	-12722
▁ok	-12723
▁ru	-12724
----	-12725
ACTI	-12726
Bend	-12727
Chak	-12728
Cons	-12729
DDED	-12730
ESUS	-12731
John	-12732
Okay	-12733
Only	-12734
Prat	-12735
Prot	-12736
Upon	-12737
adwe	-12738
aius	-12739
akam	-12740
asch	-12741
bond	-12742
came	-12743
cius	-12744
ckcl	-12745
culc	-12746
cuss	-12747
duck	-12748
eled	-12749
eman	-12750
emia	-12751
geth	-12752
hala	-12753
heit	-12754
help	-12755
hich	-12756
iate	-12757
icip	-12758
iety	-12759
igra	-12760
ilet	-12761
ilgr	-12762
imha	-12763
item	-12764
ithi	-12765
list	-12766
maya	-12767
odge	-12768
osal	-12769
owai	-12770
ping	-12771
pras	-12772
prot	-12773
rade	-12774
rene	-12775
resp	-12776
rium	-12777
shan	-12778
ssed	-12779
step	-12780
stre	-12781
such	-12782
them	-12783
ulus	-12784
umna	-12785
ungs	-12786
weet	-12787
xlsx	-12788
▁Ahm	-12789
▁Awk	-12790
▁BHU	-12791
▁Bah	-12792
▁Cha	-12793
▁Cla	-12794
▁Dem	-12795
▁Der	-12796
▁Eid	-12797
▁Eye	-12798
▁Fah	-12799
▁Fix	-12800
▁Fog	-12801
▁Hal	-12802
▁Kid	-12803
▁Kus	-12804
▁Leg	-12805
▁Lim	-12806
▁Mal	-12807
▁Map	-12808
▁NOT	-12809
▁Noe	-12810
▁Nut	-12811
▁Old	-12812
▁PID	-12813
▁Pay	-12814
▁Rao	-12815
▁Rom	-12816
▁SUB	-12817
▁Syn	-12818
▁Tog	-12819
▁VYA	-12820
▁Wed	-12821
▁Woe	-12822
▁amb	-12823
▁anx	-12824
▁ark	-12825
▁ath	-12826
▁cam	-12827
▁cha	-12828
▁dim	-12829
▁eco	-12830
▁fet	-12831
▁hom	-12832
▁hue	-12833
▁jav	-12834
▁lik	-12835
▁nap	-12836
▁pan	-12837
▁rum	-12838
▁une	-12839
▁ure	-12840
Begin	-12841
Clean	-12842
Earth	-12843
Human	-12844
LaTeX	-12845
Preet	-12846
Sahas	-12847
Title	-12848
VIRON	-12849
Vedic	-12850
Write	-12851
agiya	-12852
andra	-12853
angal	-12854
araja	-12855
arize	-12856
arter	-12857
ashes	-12858
assad	-12859
atoes	-12860
attam	-12861
auses	-12862
cling	-12863
close	-12864
conds	-12865
eshma	-12866
esity	-12867
eware	-12868
gency	-12869
group	-12870
heart	-12871
hylia	-12872
ileth	-12873
ilize	-12874
iller	-12875
ipika	-12876
itate	-12877
itter	-12878
lying	-12879
metal	-12880
ocate	-12881
oming	-12882
order	-12883
ordin	-12884
owels	-12885
pared	-12886
prosy	-12887
ptoms	-12888
redit	-12889
ribal	-12890
riers	-12891
rikon	-12892
rious	-12893
rones	-12894
sight	-12895
thene	-12896
users	-12897
ushas	-12898
value	-12899
vanus	-12900
woman	-12901
worth	-12902
ytina	-12903
▁-"""	-12904
▁0808	-12905
▁1,2-	-12906
▁Amal	-12907
▁Band	-12908
▁Bhut	-12909
▁Cain	-12910
▁City	-12911
▁Clip	-12912
▁Core	-12913
▁Cost	-12914
▁Ener	-12915
▁Hard	-12916
▁Hide	-12917
▁Icon	-12918
▁Join	-12919
▁Magh	-12920
▁Mata	-12921
▁Medi	-12922
▁Mudr	-12923
▁Nare	-12924
▁Nove	-12925
▁PIPE	-12926
▁Phen	-12927
▁Praj	-12928
▁Puja	-12929
▁Pull	-12930
▁Resp	-12931
▁Root	-12932
▁Rule	-12933
▁Shad	-12934
▁Sikh	-12935
▁Sirs	-12936
▁Sort	-12937
▁Sukh	-12938
▁Tych	-12939
▁Vana	-12940
▁Veer	-12941
▁Velu	-12942
▁Vert	-12943
▁Vyay	-12944
▁anal	-12945
▁andm	-12946
▁anti	-12947
▁apps	-12948
▁arya	-12949
▁bent	-12950
▁bhut	-12951
▁brow	-12952
▁cher	-12953
▁cuts	-12954
▁dies	-12955
▁doer	-12956
▁dosa	-12957
▁dram	-12958
▁intr	-12959
▁mete	-12960
▁ming	-12961
▁mins	-12962
▁oven	-12963
▁pack	-12964
▁paid	-12965
▁perd	-12966
▁pupp	-12967
▁quit	-12968
▁riot	-12969
▁savi	-12970
▁sess	-12971
▁tear	-12972
▁thin	-12973
▁unne	-12974
▁unsp	-12975
▁unst	-12976
▁vehe	-12977
▁vice	-12978
▁wert	-12979
39.50/	-12980
Action	-12981
Amount	-12982
Asanas	-12983
Copies	-12984
Little	-12985
Mighty	-12986
Repeat	-12987
Switch	-12988
adweep	-12989
ammine	-12990
anjaya	-12991
ansion	-12992
anskar	-12993
archus	-12994
arenes	-12995
comple	-12996
copies	-12997
explan	-12998
forter	-12999
hasana	-13000
ighten	-13001
ilizer	-13002
isesha	-13003
master	-13004
nesday	-13005
ptiles	-13006
rients	-13007
saurus	-13008
spaces	-13009
strate	-13010
ubandh	-13011
ursday	-13012
▁-----	-13013
▁7."""	-13014
▁7.1.1	-13015
▁ADDED	-13016
▁ASANA	-13017
▁Bihar	-13018
▁Built	-13019
▁Eight	-13020
▁Error	-13021
▁Fruit	-13022
▁Glass	-13023
▁Hands	-13024
▁JESUS	-13025
▁Joses	-13026
▁Kaush	-13027
▁Kunti	-13028
▁Lists	-13029
▁Mohan	-13030
▁Parts	-13031
▁Prisc	-13032
▁Pushp	-13033
▁Rupee	-13034
▁SPACE	-13035
▁Samav	-13036
▁Share	-13037
▁Speed	-13038
▁Store	-13039
▁Story	-13040
▁Svast	-13041
▁Tiger	-13042
▁adapt	-13043
▁alpha	-13044
▁annot	-13045
▁armed	-13046
▁ascii	-13047
▁beach	-13048
▁beans	-13049
▁blade	-13050
▁blink	-13051
▁bloss	-13052
▁cloke	-13053
▁coats	-13054
▁cords	-13055
▁dealt	-13056
▁debug	-13057
▁devas	-13058
▁doves	-13059
▁dummy	-13060
▁enric	-13061
▁equil	-13062
▁exalt	-13063
▁exile	-13064
▁flies	-13065
▁grasp	-13066
▁guard	-13067
▁hadst	-13068
▁hello	-13069
▁indig	-13070
▁kills	-13071
▁lamps	-13072
▁leafy	-13073
▁liars	-13074
▁lions	-13075
▁lodge	-13076
▁logic	-13077
▁lucre	-13078
▁manna	-13079
▁mihir	-13080
▁mourn	-13081
▁mysql	-13082
▁oxide	-13083
▁parad	-13084
▁phase	-13085
▁pious	-13086
▁pitch	-13087
▁plans	-13088
▁poets	-13089
▁poses	-13090
▁purse	-13091
▁rains	-13092
▁rides	-13093
▁ropes	-13094
▁sixty	-13095
▁snake	-13096
▁snare	-13097
▁solid	-13098
▁sorts	-13099
▁sower	-13100
▁spect	-13101
▁spoon	-13102
▁squat	-13103
▁stole	-13104
▁sweat	-13105
▁tilde	-13106
▁token	-13107
▁tooth	-13108
▁tower	-13109
▁trick	-13110
▁tummy	-13111
▁undes	-13112
▁vocal	-13113
▁vowel	-13114
▁wears	-13115
▁wider	-13116
▁wiped	-13117
▁wroth	-13118
ICATION	-13119
Numbers	-13120
Request	-13121
Various	-13122
akumari	-13123
apurana	-13124
chamber	-13125
ckcloth	-13126
estruct	-13127
hearted	-13128
igation	-13129
inction	-13130
loyment	-13131
muscles	-13132
myimage	-13133
process	-13134
renheit	-13135
revolve	-13136
ruitful	-13137
uddenly	-13138
version	-13139
volutes	-13140
▁14.04,	-13141
▁40."""	-13142
▁50,000	-13143
▁Agency	-13144
▁Ahimsa	-13145
▁Amazon	-13146
▁Andhra	-13147
▁Aquila	-13148
▁Asteya	-13149
▁Beamer	-13150
▁Bombay	-13151
▁Brahmi	-13152
▁Center	-13153
▁Coming	-13154
▁Cyrene	-13155
▁Dipole	-13156
▁Doctor	-13157
▁Driver	-13158
▁Events	-13159
▁Ganesh	-13160
▁Geomet	-13161
▁Govind	-13162
▁Ignore	-13163
▁Invert	-13164
▁Italic	-13165
▁Jlabel	-13166
▁Miller	-13167
▁Mudras	-13168
▁Norman	-13169
▁Resize	-13170
▁Retail	-13171
▁Romans	-13172
▁Seeing	-13173
▁Spread	-13174
▁Toggle	-13175
▁Within	-13176
▁advert	-13177
▁affirm	-13178
▁astray	-13179
▁barley	-13180
▁barren	-13181
▁behave	-13182
▁bestow	-13183
▁binary	-13184
▁bricks	-13185
▁bullet	-13186
▁clothe	-13187
▁collar	-13188
▁compre	-13189
▁cooker	-13190
▁cooper	-13191
▁corpse	-13192
▁deadly	-13193
▁decomp	-13194
▁detect	-13195
▁digged	-13196
▁eleven	-13197
▁facial	-13198
▁flight	-13199
▁folded	-13200
▁harlot	-13201
▁heroes	-13202
▁hinder	-13203
▁hollow	-13204
▁ignore	-13205
▁income	-13206
▁isomer	-13207
▁knower	-13208
▁lacked	-13209
▁lastly	-13210
▁lights	-13211
▁loaded	-13212
▁locked	-13213
▁lowest	-13214
▁lustre	-13215
▁makest	-13216
▁martyr	-13217
▁meters	-13218
▁myriad	-13219
▁nicely	-13220
▁oldest	-13221
▁paying	-13222
▁perils	-13223
▁picker	-13224
▁plague	-13225
▁pollen	-13226
▁poshan	-13227
▁prover	-13228
▁pushed	-13229
▁reader	-13230
▁repair	-13231
▁reveal	-13232
▁roared	-13233
▁sattva	-13234
▁scales	-13235
▁scheme	-13236
▁shades	-13237
▁sickle	-13238
▁sinful	-13239
▁sorted	-13240
▁starch	-13241
▁struck	-13242
▁suktam	-13243
▁supers	-13244
▁surely	-13245
▁theirs	-13246
▁tithes	-13247
▁tokens	-13248
▁unlock	-13249
▁unruly	-13250
▁wastes	-13251
▁whilst	-13252
▁wrists	-13253
Greeting	-13254
Learning	-13255
Slightly	-13256
Teaching	-13257
function	-13258
getables	-13259
iseconds	-13260
izations	-13261
missions	-13262
position	-13263
question	-13264
rophenol	-13265
▁5.6.30,	-13266
▁Aniline	-13267
▁Bandhas	-13268
▁Boolean	-13269
▁Charles	-13270
▁Context	-13271
▁Devotee	-13272
▁Digital	-13273
▁ENVIRON	-13274
▁Eternal	-13275
▁Everest	-13276
▁Fingers	-13277
▁Iconium	-13278
▁Invoice	-13279
▁KTurtle	-13280
▁Keeping	-13281
▁Magenta	-13282
▁Maricha	-13283
▁Markers	-13284
▁Mineral	-13285
▁Objects	-13286
▁Pharaoh	-13287
▁Pontius	-13288
▁Pralaya	-13289
▁Puranas	-13290
▁Quality	-13291
▁Ravidas	-13292
▁Satyaki	-13293
▁Spacing	-13294
▁Subhash	-13295
▁Toolbox	-13296
▁Urethra	-13297
▁Vasisht	-13298
▁Whither	-13299
▁acquire	-13300
▁adorned	-13301
▁antagon	-13302
▁begging	-13303
▁benzene	-13304
▁blinded	-13305
▁buffalo	-13306
▁calming	-13307
▁carries	-13308
▁cdMusic	-13309
▁ceiling	-13310
▁clarity	-13311
▁cleaned	-13312
▁conches	-13313
▁conflic	-13314
▁cyclohe	-13315
▁dealing	-13316
▁debtors	-13317
▁deliber	-13318
▁devised	-13319
▁dialogs	-13320
▁divyang	-13321
▁doubted	-13322
▁enjoyer	-13323
▁evident	-13324
▁existed	-13325
▁factors	-13326
▁falsely	-13327
▁forbear	-13328
▁habitat	-13329
▁handled	-13330
▁humming	-13331
▁incense	-13332
▁incline	-13333
▁inspire	-13334
▁justice	-13335
▁kinsmen	-13336
▁kneeled	-13337
▁lengths	-13338
▁leprosy	-13339
▁magenta	-13340
▁manners	-13341
▁mapping	-13342
▁mastery	-13343
▁matches	-13344
▁mingled	-13345
▁mutable	-13346
▁needeth	-13347
▁obesity	-13348
▁ourbody	-13349
▁outputs	-13350
▁railing	-13351
▁refused	-13352
▁relieve	-13353
▁reveals	-13354
▁saffron	-13355
▁saluted	-13356
▁selling	-13357
▁seventy	-13358
▁shineth	-13359
▁sinneth	-13360
▁skilled	-13361
▁station	-13362
▁stature	-13363
▁strawed	-13364
▁thicker	-13365
▁thrones	-13366
▁totally	-13367
▁tourist	-13368
▁travail	-13369
▁trodden	-13370
▁whereon	-13371
ActionPer	-13372
Attribute	-13373
Whereunto	-13374
amination	-13375
imination	-13376
▁3.7.0"""	-13377
▁4.3.1"""	-13378
▁5,00,000	-13379
▁Activity	-13380
▁Adisesha	-13381
▁Augustus	-13382
▁Bheeshma	-13383
▁Borrowed	-13384
▁Branches	-13385
▁Citation	-13386
▁Cleaning	-13387
▁Clinical	-13388
▁Controls	-13389
▁Daughter	-13390
▁Everyone	-13391
▁Halasana	-13392
▁Himalaya	-13393
▁Iceytina	-13394
▁Internal	-13395
▁Ministry	-13396
▁November	-13397
▁Portland	-13398
▁Silvanus	-13399
▁Synchron	-13400
▁Thursday	-13401
▁Tychicus	-13402
▁Vasistha	-13403
▁Vertical	-13404
▁Workload	-13405
▁absolute	-13406
▁accident	-13407
▁accursed	-13408
▁accusers	-13409
▁adoption	-13410
▁appealed	-13411
▁approxim	-13412
▁articles	-13413
▁assuming	-13414
▁balances	-13415
▁beheaded	-13416
▁birthday	-13417
▁boldness	-13418
▁captains	-13419
▁captured	-13420
▁ceremony	-13421
▁complain	-13422
▁consumed	-13423
▁creepers	-13424
▁deletion	-13425
▁demanded	-13426
▁doubting	-13427
▁dropping	-13428
▁dwellers	-13429
▁embedded	-13430
▁encourag	-13431
▁endureth	-13432
▁enhanced	-13433
▁evermore	-13434
▁evolutes	-13435
▁gladness	-13436
▁glorying	-13437
▁graphite	-13438
▁hardened	-13439
▁hardware	-13440
▁headings	-13441
▁honoured	-13442
▁hygienic	-13443
▁impotent	-13444
▁infinite	-13445
▁intended	-13446
▁laboured	-13447
▁lighting	-13448
▁listener	-13449
▁mourning	-13450
▁mushroom	-13451
▁parseInt	-13452
▁phenomen	-13453
▁restrict	-13454
▁sessions	-13455
▁shopping	-13456
▁silently	-13457
▁sleepeth	-13458
▁slippery	-13459
▁smoothly	-13460
▁symptoms	-13461
▁teacheth	-13462
▁thankful	-13463
▁threader	-13464
▁thunders	-13465
▁unnecess	-13466
▁vehement	-13467
▁waterand	-13468
▁withdrew	-13469
Pratyahara	-13470
Salutation	-13471
Thereafter	-13472
anyakumari	-13473
myimageapp	-13474
rikonasana	-13475
▁Alexander	-13476
▁Animation	-13477
▁Comforter	-13478
▁Customize	-13479
▁Dashboard	-13480
▁Gradients	-13481
▁Hamsasana	-13482
▁Increases	-13483
▁Padmasana	-13484
▁Pamphylia	-13485
▁President	-13486
▁Programme	-13487
▁Setubandh	-13488
▁Statement	-13489
▁Variation	-13490
▁Wednesday	-13491
▁Yesterday	-13492
▁accession	-13493
▁accounted	-13494
▁achieving	-13495
▁activated	-13496
▁afternoon	-13497
▁answereth	-13498
▁assigning	-13499
▁belonging	-13500
▁benefited	-13501
▁blindness	-13502
▁brilliant	-13503
▁broadcast	-13504
▁collapsed	-13505
▁colourful	-13506
▁commended	-13507
▁concerned	-13508
▁despiseth	-13509
▁disasters	-13510
▁dissolved	-13511
▁disturbed	-13512
▁divisions	-13513
▁effectual	-13514
▁equations	-13515
▁expansion	-13516
▁faithless	-13517
▁followeth	-13518
▁gardening	-13519
▁gathereth	-13520
▁gathering	-13521
▁hydrogens	-13522
▁hypocrisy	-13523
▁incorrect	-13524
▁instructs	-13525
▁literally	-13526
▁lowercase	-13527
▁mushrooms	-13528
▁nanotubes	-13529
▁ornaments	-13530
▁perdition	-13531
▁polythene	-13532
▁prevailed	-13533
▁promoting	-13534
▁recipient	-13535
▁recommend	-13536
▁referring	-13537
▁regulates	-13538
▁relatives	-13539
▁religions	-13540
▁residence	-13541
▁resisteth	-13542
▁resonance	-13543
▁sackcloth	-13544
▁similarly	-13545
▁substance	-13546
▁temporary	-13547
▁thickness	-13548
▁vegetable	-13549
application	-13550
directories	-13551
estructible	-13552
explanatory	-13553
nitrophenol	-13554
▁Angulimala	-13555
▁Calculator	-13556
▁Fahrenheit	-13557
▁Foreground	-13558
▁Galilaeans	-13559
▁Industrial	-13560
▁Installing	-13561
▁Meditation	-13562
▁Nandigrama	-13563
▁adulterers	-13564
▁buttermilk	-13565
▁commendeth	-13566
▁commentary	-13567
▁commercial	-13568
▁conformers	-13569
▁constructs	-13570
▁containers	-13571
▁delivering	-13572
▁depression	-13573
▁displeased	-13574
▁distressed	-13575
▁duplicated	-13576
▁employment	-13577
▁experiment	-13578
▁explaining	-13579
▁fertilizer	-13580
▁glorifying	-13581
▁identifier	-13582
▁industrial	-13583
▁manipulate	-13584
▁mathematic	-13585
▁messengers	-13586
▁motivation	-13587
▁overloaded	-13588
▁playground	-13589
▁possessing	-13590
▁practising	-13591
▁proceedeth	-13592
▁reflection	-13593
▁repetitive	-13594
▁samskritam	-13595
▁stimulates	-13596
▁systematic	-13597
▁travelling	-13598
▁unfruitful	-13599
▁variations	-13600
▁visibility	-13601
JFileChooser	-13602
▁Grandfather	-13603
▁Incremental	-13604
▁Lakshadweep	-13605
▁TestStudent	-13606
▁apostleship	-13607
▁breadcrumbs	-13608
▁candlestick	-13609
▁constrained	-13610
▁contentment	-13611
▁differently	-13612
▁diversities	-13613
▁downloading	-13614
▁effectively	-13615
▁foundations	-13616
▁illustrious	-13617
▁initiatives	-13618
▁instantiate	-13619
▁interlocked	-13620
▁logarithmic	-13621
▁resolutions	-13622
▁responsible	-13623
▁spreadsheet	-13624
▁ungodliness	-13625
▁Antialiasing	-13626
▁achievements	-13627
▁arrangements	-13628
▁combinations	-13629
▁disturbances	-13630
▁incorruption	-13631
▁milliseconds	-13632
▁modification	-13633
▁notification	-13634
▁prerequisite	-13635
▁satisfaction	-13636
▁whoremongers	-13637
Simultaneously	-13638
▁International	-13639
▁concatenation	-13640
▁notifications	-13641
▁uncircumcised	-13642
ActionPerformed	-13643
▁authentication	-13644
▁manifestations	-13645
▁representation	-13646
▁superscription	-13647
▁transportation	-13648
▁successGreeting	-13649
)'	-13650
-8	-13651
3'	-13652
3,	-13653
3-	-13654
9,	-13655
:)	-13656
Jy	-13657
Li	-13658
MA	-13659
Mb	-13660
Os	-13661
Rs	-13662
Sc	-13663
TH	-13664
ae	-13665
bp	-13666
eg	-13667
pg	-13668
rc	-13669
tp	-13670
ym	-13671
▁’	-13672
),"	-13673
);"	-13674
,)"	-13675
.19	-13676
00.	-13677
22)	-13678
3."	-13679
600	-13680
:)"	-13681
ALI	-13682
ATE	-13683
Arr	-13684
Del	-13685
Fur	-13686
HER	-13687
Han	-13688
IFT	-13689
INE	-13690
ITH	-13691
Its	-13692
Kap	-13693
NAT	-13694
ORY	-13695
Ram	-13696
Ren	-13697
Run	-13698
STR	-13699
Sub	-13700
Sup	-13701
UBL	-13702
UMB	-13703
URL	-13704
ado	-13705
alp	-13706
apa	-13707
avy	-13708
boo	-13709
cml	-13710
dem	-13711
ela	-13712
ema	-13713
gif	-13714
hib	-13715
hit	-13716
igr	-13717
jit	-13718
lam	-13719
nia	-13720
non	-13721
oja	-13722
oya	-13723
reg	-13724
sky	-13725
ukt	-13726
vad	-13727
vat	-13728
via	-13729
vis	-13730
▁23	-13731
▁2:	-13732
▁?.	-13733
▁Af	-13734
▁CM	-13735
▁EX	-13736
▁Jh	-13737
▁MB	-13738
▁Mr	-13739
▁Ur	-13740
▁Ut	-13741
▁cm	-13742
▁ec	-13743
▁va	-13744
▁“-	-13745
/201	-13746
Char	-13747
Dhan	-13748
Fill	-13749
Grad	-13750
Have	-13751
Hold	-13752
OKEN	-13753
Send	-13754
Veda	-13755
abul	-13756
ahid	-13757
aker	-13758
alty	-13759
amad	-13760
anav	-13761
atia	-13762
avad	-13763
aved	-13764
ayed	-13765
cere	-13766
chan	-13767
ckey	-13768
cons	-13769
crop	-13770
dise	-13771
etal	-13772
etam	-13773
fish	-13774
ften	-13775
henu	-13776
http	-13777
iary	-13778
icle	-13779
idya	-13780
iece	-13781
ildo	-13782
ilip	-13783
inet	-13784
into	-13785
ippi	-13786
ista	-13787
itis	-13788
lelu	-13789
mega	-13790
neha	-13791
newd	-13792
okta	-13793
ourd	-13794
phan	-13795
pire	-13796
racy	-13797
rand	-13798
rich	-13799
rown	-13800
shot	-13801
soft	-13802
stot	-13803
thew	-13804
tled	-13805
urna	-13806
usts	-13807
uzzy	-13808
vity	-13809
xter	-13810
”"""	-13811
▁"4.	-13812
▁(./	-13813
▁1.2	-13814
▁1.5	-13815
▁207	-13816
▁240	-13817
▁256	-13818
▁500	-13819
▁6.5	-13820
▁650	-13821
▁777	-13822
▁Chh	-13823
▁Fit	-13824
▁Gaz	-13825
▁Gol	-13826
▁HIV	-13827
▁HRA	-13828
▁Har	-13829
▁JAR	-13830
▁Ksh	-13831
▁LIV	-13832
▁Lad	-13833
▁Lav	-13834
▁Lok	-13835
▁MNC	-13836
▁NAM	-13837
▁Nag	-13838
▁Nep	-13839
▁Ord	-13840
▁Tro	-13841
▁Vik	-13842
▁Yam	-13843
▁___	-13844
▁ail	-13845
▁bam	-13846
▁bru	-13847
▁buz	-13848
▁cub	-13849
▁dhy	-13850
▁ell	-13851
▁gor	-13852
▁hut	-13853
▁jas	-13854
▁lip	-13855
▁mic	-13856
▁oct	-13857
▁ofm	-13858
▁ora	-13859
▁rab	-13860
▁usr	-13861
▁vap	-13862
:)"""	-13863
Basic	-13864
Class	-13865
Gives	-13866
Going	-13867
Label	-13868
Multi	-13869
Shift	-13870
Small	-13871
achal	-13872
actor	-13873
agine	-13874
akara	-13875
akers	-13876
akrut	-13877
aksha	-13878
amana	-13879
anand	-13880
arers	-13881
arsus	-13882
atira	-13883
birth	-13884
blood	-13885
bolic	-13886
cheth	-13887
ckets	-13888
demon	-13889
disha	-13890
ecess	-13891
eline	-13892
ental	-13893
erals	-13894
gener	-13895
gives	-13896
hadra	-13897
herds	-13898
icket	-13899
iketa	-13900
isons	-13901
itary	-13902
iters	-13903
mixed	-13904
oshan	-13905
osits	-13906
otsav	-13907
oucha	-13908
press	-13909
ranam	-13910
rieth	-13911
rines	-13912
selor	-13913
umana	-13914
umbar	-13915
unate	-13916
urday	-13917
verty	-13918
waste	-13919
▁,"""	-13920
▁000,	-13921
▁2000	-13922
▁5000	-13923
▁Arab	-13924
▁Arim	-13925
▁Auth	-13926
▁Away	-13927
▁Butt	-13928
▁Cast	-13929
▁Cell	-13930
▁Coun	-13931
▁Cruc	-13932
▁Dear	-13933
▁Doth	-13934
▁East	-13935
▁Fort	-13936
▁Gana	-13937
▁Gard	-13938
▁Gimp	-13939
▁Haat	-13940
▁Hari	-13941
▁Hymn	-13942
▁Kish	-13943
▁Legs	-13944
▁Mars	-13945
▁Matt	-13946
▁Mess	-13947
▁Mira	-13948
▁Nauk	-13949
▁Ones	-13950
▁PUBL	-13951
▁Pani	-13952
▁Phys	-13953
▁Pict	-13954
▁Plug	-13955
▁Poet	-13956
▁Poly	-13957
▁Pram	-13958
▁Prop	-13959
▁Rail	-13960
▁Samr	-13961
▁Skin	-13962
▁aged	-13963
▁anus	-13964
▁babe	-13965
▁beak	-13966
▁bees	-13967
▁biod	-13968
▁chak	-13969
▁chir	-13970
▁craw	-13971
▁crew	-13972
▁cups	-13973
▁cyan	-13974
▁dSum	-13975
▁dove	-13976
▁duly	-13977
▁eart	-13978
▁flip	-13979
▁garn	-13980
▁glow	-13981
▁gums	-13982
▁horm	-13983
▁inha	-13984
▁inks	-13985
▁irre	-13986
▁jobs	-13987
▁lamp	-13988
▁laws	-13989
▁lobe	-13990
▁luke	-13991
▁mirr	-13992
▁noun	-13993
▁okay	-13994
▁owed	-13995
▁pins	-13996
▁pops	-13997
▁puts	-13998
▁rail	-13999
▁recy	-14000
▁succ	-14001
▁suit	-14002
▁tick	-14003
▁vail	-14004
▁whir	-14005
▁wont	-14006
ACTICE	-14007
Bandha	-14008
Brahma	-14009
Ensure	-14010
Father	-14011
Middle	-14012
abling	-14013
acheth	-14014
ajesty	-14015
andhar	-14016
apters	-14017
arcane	-14018
astron	-14019
athaea	-14020
aturgy	-14021
avatar	-14022
cement	-14023
center	-14024
charge	-14025
create	-14026
cutive	-14027
dharma	-14028
efiled	-14029
entive	-14030
ercise	-14031
erving	-14032
estone	-14033
harata	-14034
ibrium	-14035
iclock	-14036
idding	-14037
kindha	-14038
leluia	-14039
marama	-14040
ograms	-14041
olunte	-14042
piring	-14043
platin	-14044
quired	-14045
ravana	-14046
recite	-14047
return	-14048
shahid	-14049
single	-14050
teenth	-14051
uction	-14052
▁"""4.	-14053
▁2.4.7	-14054
▁Amino	-14055
▁Annam	-14056
▁Bhima	-14057
▁Chief	-14058
▁Death	-14059
▁Deity	-14060
▁Dharm	-14061
▁Gaius	-14062
▁Girls	-14063
▁Goods	-14064
▁Hover	-14065
▁Ident	-14066
▁Inbox	-14067
▁Italy	-14068
▁Jesse	-14069
▁Kabir	-14070
▁Kashi	-14071
▁Omega	-14072
▁Phone	-14073
▁Powai	-14074
▁Raman	-14075
▁Recom	-14076
▁Rudra	-14077
▁SHIFT	-14078
▁Sabha	-14079
▁Sages	-14080
▁SeqIO	-14081
▁Seven	-14082
▁Shape	-14083
▁Skill	-14084
▁Spell	-14085
▁Suite	-14086
▁Syria	-14087
▁Urine	-14088
▁Vaish	-14089
▁Vijay	-14090
▁apple	-14091
▁bands	-14092
▁breat	-14093
▁burst	-14094
▁calam	-14095
▁calms	-14096
▁cares	-14097
▁codon	-14098
▁cooks	-14099
▁dieth	-14100
▁doers	-14101
▁drama	-14102
▁drops	-14103
▁embra	-14104
▁expen	-14105
▁fires	-14106
▁flute	-14107
▁gourd	-14108
▁grate	-14109
▁guess	-14110
▁handk	-14111
▁hoped	-14112
▁imper	-14113
▁inthe	-14114
▁irrit	-14115
▁kusha	-14116
▁lakes	-14117
▁leper	-14118
▁miser	-14119
▁norms	-14120
▁panch	-14121
▁popup	-14122
▁prize	-14123
▁repay	-14124
▁resid	-14125
▁reven	-14126
▁robes	-14127
▁sched	-14128
▁seems	-14129
▁sells	-14130
▁spare	-14131
▁steep	-14132
▁stock	-14133
▁stuck	-14134
▁swift	-14135
▁tenth	-14136
▁waals	-14137
▁wages	-14138
▁yagya	-14139
.......	-14140
Flowers	-14141
Further	-14142
Hanuman	-14143
Manager	-14144
Program	-14145
Rejoice	-14146
adyumna	-14147
aluable	-14148
article	-14149
casting	-14150
ceiving	-14151
ichrist	-14152
ignment	-14153
install	-14154
ipation	-14155
lipping	-14156
nection	-14157
prastha	-14158
rencies	-14159
respect	-14160
rikshay	-14161
rutatma	-14162
shastra	-14163
tending	-14164
through	-14165
ventory	-14166
without	-14167
xterity	-14168
▁3.7.0"	-14169
▁Adding	-14170
▁Alphab	-14171
▁Athens	-14172
▁Bhagat	-14173
▁Bhakta	-14174
▁Charak	-14175
▁Charts	-14176
▁Chatur	-14177
▁Chhatt	-14178
▁Clones	-14179
▁Colors	-14180
▁Credit	-14181
▁Darwin	-14182
▁Eating	-14183
▁Garuda	-14184
▁Gobind	-14185
▁Health	-14186
▁Images	-14187
▁Issues	-14188
▁Ktouch	-14189
▁Launch	-14190
▁Madhav	-14191
▁Medium	-14192
▁Nested	-14193
▁Odisha	-14194
▁Parent	-14195
▁Rename	-14196
▁Review	-14197
▁Rishis	-14198
▁Salute	-14199
▁Sattva	-14200
▁Scient	-14201
▁Surely	-14202
▁Swaras	-14203
▁Tarsus	-14204
▁Tenali	-14205
▁Vidura	-14206
▁amidst	-14207
▁anchor	-14208
▁archit	-14209
▁artist	-14210
▁bamboo	-14211
▁births	-14212
▁browse	-14213
▁builds	-14214
▁bulges	-14215
▁camest	-14216
▁careth	-14217
▁client	-14218
▁courte	-14219
▁danced	-14220
▁dearth	-14221
▁domain	-14222
▁drives	-14223
▁earthy	-14224
▁effulg	-14225
▁emails	-14226
▁emerge	-14227
▁evildo	-14228
▁feasts	-14229
▁floods	-14230
▁grieve	-14231
▁harder	-14232
▁herbal	-14233
▁hiding	-14234
▁hockey	-14235
▁ideals	-14236
▁invert	-14237
▁jasper	-14238
▁lepers	-14239
▁lively	-14240
▁lovers	-14241
▁lovest	-14242
▁machin	-14243
▁mouths	-14244
▁mutual	-14245
▁permit	-14246
▁perple	-14247
▁pingal	-14248
▁police	-14249
▁posted	-14250
▁potter	-14251
▁psalms	-14252
▁qblast	-14253
▁reckon	-14254
▁rescue	-14255
▁riding	-14256
▁rishis	-14257
▁salvia	-14258
▁scarce	-14259
▁shaped	-14260
▁smells	-14261
▁smiles	-14262
▁spared	-14263
▁specif	-14264
▁stolen	-14265
▁strike	-14266
▁styles	-14267
▁sudden	-14268
▁symmet	-14269
▁tailor	-14270
▁themes	-14271
▁thinks	-14272
▁throng	-14273
▁valour	-14274
▁vipers	-14275
▁volume	-14276
▁waking	-14277
▁wanton	-14278
▁wellbe	-14279
▁whiter	-14280
▁worker	-14281
▁wouldn	-14282
?"""""""	-14283
Checkout	-14284
Clicking	-14285
National	-14286
RGANISMS	-14287
Students	-14288
adrasana	-14289
ordinary	-14290
orticult	-14291
response	-14292
▁Abhiyan	-14293
▁Alright	-14294
▁Attempt	-14295
▁Channel	-14296
▁Checked	-14297
▁Crucify	-14298
▁Galatia	-14299
▁Greater	-14300
▁Hearing	-14301
▁Heroine	-14302
▁Holding	-14303
▁Howbeit	-14304
▁Include	-14305
▁Integer	-14306
▁Mathura	-14307
▁Meaning	-14308
▁Parvati	-14309
▁Persons	-14310
▁Private	-14311
▁Rejoice	-14312
▁Respons	-14313
▁Swachch	-14314
▁Univers	-14315
▁Usually	-14316
▁VYAYAMA	-14317
▁Whereas	-14318
▁_______	-14319
▁amazing	-14320
▁ariseth	-14321
▁assured	-14322
▁awarded	-14323
▁bravery	-14324
▁buzzing	-14325
▁careful	-14326
▁ceasing	-14327
▁curious	-14328
▁denieth	-14329
▁deposit	-14330
▁earning	-14331
▁earthly	-14332
▁emerged	-14333
▁encount	-14334
▁failure	-14335
▁festive	-14336
▁firefox	-14337
▁fishers	-14338
▁glucose	-14339
▁gopikas	-14340
▁handout	-14341
▁hanging	-14342
▁hearers	-14343
▁involve	-14344
▁judgest	-14345
▁knewest	-14346
▁largest	-14347
▁listing	-14348
▁locusts	-14349
▁looketh	-14350
▁malaria	-14351
▁mankind	-14352
▁margins	-14353
▁massage	-14354
▁mocking	-14355
▁motions	-14356
▁mourned	-14357
▁murders	-14358
▁openeth	-14359
▁oracles	-14360
▁orbital	-14361
▁overall	-14362
▁parsing	-14363
▁passeth	-14364
▁plainly	-14365
▁postfix	-14366
▁poverty	-14367
▁praises	-14368
▁prevail	-14369
▁prompts	-14370
▁reality	-14371
▁receipt	-14372
▁scatter	-14373
▁seemeth	-14374
▁setName	-14375
▁sinless	-14376
▁soluble	-14377
▁sorcere	-14378
▁stamina	-14379
▁strides	-14380
▁strname	-14381
▁stumble	-14382
▁substit	-14383
▁sunrise	-14384
▁swollen	-14385
▁tankers	-14386
▁theorem	-14387
▁updates	-14388
▁upright	-14389
▁wanders	-14390
▁wanting	-14391
▁weeding	-14392
▁welfare	-14393
▁western	-14394
Bookmarks	-14395
Downloads	-14396
chemistry	-14397
cigarette	-14398
clockwise	-14399
▁16.05"""	-14400
▁Agricult	-14401
▁Alleluia	-14402
▁Alphaeus	-14403
▁Chemical	-14404
▁Concrete	-14405
▁Discount	-14406
▁Expiring	-14407
▁Finished	-14408
▁Molecule	-14409
▁Overview	-14410
▁PRACTICE	-14411
▁Philippi	-14412
▁Printing	-14413
▁Saturday	-14414
▁Shipment	-14415
▁Thousand	-14416
▁Thyatira	-14417
▁Transfer	-14418
▁Universe	-14419
▁Unsorted	-14420
▁acquires	-14421
▁ailments	-14422
▁allotted	-14423
▁beginner	-14424
▁capitals	-14425
▁churning	-14426
▁colleges	-14427
▁comprise	-14428
▁conflict	-14429
▁confused	-14430
▁contempl	-14431
▁converse	-14432
▁cropping	-14433
▁decision	-14434
▁defining	-14435
▁deformed	-14436
▁devoured	-14437
▁dialogue	-14438
▁dihedral	-14439
▁disposed	-14440
▁disputed	-14441
▁draupadi	-14442
▁eighteen	-14443
▁endeavor	-14444
▁enjoying	-14445
▁feelings	-14446
▁firewood	-14447
▁goshalas	-14448
▁graphics	-14449
▁hardness	-14450
▁hormones	-14451
▁housetop	-14452
▁imparted	-14453
▁imprison	-14454
▁inferior	-14455
▁kindreds	-14456
▁lukewarm	-14457
▁magnific	-14458
▁malefact	-14459
▁maternal	-14460
▁meanings	-14461
▁merchant	-14462
▁miseries	-14463
▁mobility	-14464
▁obstruct	-14465
▁pdflatex	-14466
▁planning	-14467
▁potatoes	-14468
▁preserve	-14469
▁programm	-14470
▁protocol	-14471
▁quenched	-14472
▁reaction	-14473
▁realized	-14474
▁reciting	-14475
▁retained	-14476
▁saluteth	-14477
▁scenario	-14478
▁scholars	-14479
▁selfsame	-14480
▁sprouted	-14481
▁stablish	-14482
▁steadily	-14483
▁sweareth	-14484
▁termites	-14485
▁thinkest	-14486
▁unstable	-14487
▁userName	-14488
▁vanishes	-14489
▁wandered	-14490
..........	-14491
Department	-14492
Relaxation	-14493
iclockwise	-14494
percentage	-14495
▁0.48.4"""	-14496
▁According	-14497
▁Amarkosha	-14498
▁Bengaluru	-14499
▁Counselor	-14500
▁Customers	-14501
▁Excretion	-14502
▁Heartiest	-14503
▁Hexammine	-14504
▁Intersect	-14505
▁Nathanael	-14506
▁Nutrition	-14507
▁Performed	-14508
▁Photoshop	-14509
▁Pradipika	-14510
▁Reference	-14511
▁Samruddhi	-14512
▁Santhosha	-14513
▁Structure	-14514
▁Transform	-14515
▁Upanishad	-14516
▁accompany	-14517
▁adventure	-14518
▁adversary	-14519
▁baptizing	-14520
▁certainly	-14521
▁chemistry	-14522
▁convinced	-14523
▁determine	-14524
▁disappear	-14525
▁dissolves	-14526
▁endurance	-14527
▁evaluated	-14528
▁everybody	-14529
▁fertility	-14530
▁finishing	-14531
▁forasmuch	-14532
▁formatted	-14533
▁fortunate	-14534
▁fountains	-14535
▁freshness	-14536
▁groundnut	-14537
▁heaviness	-14538
▁honoureth	-14539
▁identical	-14540
▁immensely	-14541
▁importing	-14542
▁integrate	-14543
▁intending	-14544
▁judgments	-14545
▁kilograms	-14546
▁lightning	-14547
▁millstone	-14548
▁mysteries	-14549
▁numbering	-14550
▁obeisance	-14551
▁offspring	-14552
▁patanjali	-14553
▁patriotic	-14554
▁permitted	-14555
▁pervading	-14556
▁placement	-14557
▁practical	-14558
▁practised	-14559
▁prompting	-14560
▁provision	-14561
▁quickened	-14562
▁reasoning	-14563
▁rejoiceth	-14564
▁remembers	-14565
▁sanctuary	-14566
▁sensation	-14567
▁shewbread	-14568
▁slaughter	-14569
▁standards	-14570
▁summarise	-14571
▁throughly	-14572
▁unchecked	-14573
▁undefiled	-14574
▁undergone	-14575
▁vengeance	-14576
ishtadyumna	-14577
mathematics	-14578
newdatabase	-14579
▁01/01/2017	-14580
▁Arimathaea	-14581
▁Characters	-14582
▁Deficiency	-14583
▁Department	-14584
▁Kishkindha	-14585
▁Principles	-14586
▁Repeatable	-14587
▁Scattering	-14588
▁Sharpening	-14589
▁University	-14590
▁Whatsoever	-14591
▁antichrist	-14592
▁buttonhole	-14593
▁calculator	-14594
▁commission	-14595
▁contextual	-14596
▁craftiness	-14597
▁decomposed	-14598
▁effortless	-14599
▁emphasized	-14600
▁influenced	-14601
▁invaluable	-14602
▁lightnings	-14603
▁magnifying	-14604
▁mentioning	-14605
▁positivity	-14606
▁proportion	-14607
▁recompense	-14608
▁repository	-14609
▁sacrificed	-14610
▁sanitation	-14611
▁sepulchres	-14612
▁specialist	-14613
▁standardin	-14614
▁statistics	-14615
▁summarises	-14616
▁victorious	-14617
▁Aristarchus	-14618
▁Bookkeeping	-14619
▁Declaration	-14620
▁Fertilizers	-14621
▁Geometrical	-14622
▁IOException	-14623
▁Kanyakumari	-14624
▁PUBLICATION	-14625
▁achievement	-14626
▁beautifully	-14627
▁calculation	-14628
▁categorized	-14629
▁charioteers	-14630
▁communicate	-14631
▁consecutive	-14632
▁convenience	-14633
▁disciplines	-14634
▁earthquakes	-14635
▁expectation	-14636
▁explanation	-14637
▁fundamental	-14638
▁identifiers	-14639
▁imagination	-14640
▁limitations	-14641
▁permanently	-14642
▁sanctifieth	-14643
▁subclassing	-14644
▁tabernacles	-14645
▁transmitted	-14646
▁unbelievers	-14647
▁Constitution	-14648
▁ImageDisplay	-14649
▁Sarvangasana	-14650
▁Shalabhasana	-14651
▁Thessalonica	-14652
▁architecture	-14653
▁availability	-14654
▁handkerchief	-14655
▁heedlessness	-14656
▁incarnations	-14657
▁intercession	-14658
▁manufactured	-14659
▁preparations	-14660
▁simultaneous	-14661
▁specifically	-14662
▁strengthened	-14663
▁universities	-14664
..............	-14665
dichloroethane	-14666
▁Interpolation	-14667
▁Padahastasana	-14668
▁anticlockwise	-14669
▁consideration	-14670
▁differentiate	-14671
▁extraordinary	-14672
▁felicitations	-14673
▁neighbourhood	-14674
▁organizations	-14675
▁supplications	-14676
▁Photosynthesis	-14677
▁Responsibility	-14678
▁notwithstanding	-14679
'?	-14680
,.	-14681
-5	-14682
.5	-14683
02	-14684
3/	-14685
AY	-14686
GC	-14687
Gu	-14688
Hy	-14689
LY	-14690
NH	-14691
Na	-14692
OS	-14693
Om	-14694
YK	-14695
fa	-14696
gb	-14697
mt	-14698
ox	-14699
oz	-14700
py	-14701
”"	-14702
-18	-14703
-31	-14704
001	-14705
2',	-14706
4--	-14707
AKA	-14708
ALS	-14709
ANJ	-14710
Bal	-14711
Cor	-14712
Cur	-14713
Das	-14714
ECT	-14715
EWS	-14716
Fil	-14717
Gov	-14718
Hel	-14719
ILI	-14720
Ins	-14721
Jan	-14722
KTI	-14723
NOW	-14724
Nay	-14725
Nic	-14726
Non	-14727
OME	-14728
PER	-14729
Put	-14730
RET	-14731
RGB	-14732
Raj	-14733
Sur	-14734
aca	-14735
acr	-14736
agn	-14737
aph	-14738
arg	-14739
asy	-14740
cob	-14741
dig	-14742
doc	-14743
due	-14744
gha	-14745
gic	-14746
gov	-14747
heb	-14748
hih	-14749
hin	-14750
iac	-14751
ifl	-14752
iii	-14753
ikk	-14754
itb	-14755
itr	-14756
jab	-14757
jas	-14758
lal	-14759
lap	-14760
lif	-14761
map	-14762
ogi	-14763
opa	-14764
ope	-14765
pix	-14766
pto	-14767
sun	-14768
tex	-14769
tle	-14770
ulo	-14771
usk	-14772
usr	-14773
wad	-14774
zip	-14775
▁"2	-14776
▁'+	-14777
▁++	-14778
▁,"	-14779
▁-1	-14780
▁01	-14781
▁1;	-14782
▁2-	-14783
▁53	-14784
▁55	-14785
▁7,	-14786
▁CE	-14787
▁Em	-14788
▁GC	-14789
▁Kh	-14790
▁Lu	-14791
▁NF	-14792
▁Oh	-14793
▁RS	-14794
▁SL	-14795
▁ly	-14796
▁mm	-14797
▁vy	-14798
8000	-14799
ANDH	-14800
Arch	-14801
Body	-14802
Dand	-14803
Doth	-14804
Drag	-14805
Gita	-14806
Good	-14807
HELL	-14808
Hand	-14809
IKAS	-14810
ISBN	-14811
ITLE	-14812
Into	-14813
Java	-14814
King	-14815
LEME	-14816
Line	-14817
Menu	-14818
Much	-14819
Phot	-14820
Pray	-14821
Sama	-14822
Sarv	-14823
Sidd	-14824
Text	-14825
Till	-14826
UPAC	-14827
UTOR	-14828
View	-14829
Vira	-14830
Yogi	-14831
abho	-14832
adic	-14833
adra	-14834
alts	-14835
amen	-14836
amsh	-14837
apta	-14838
arak	-14839
asel	-14840
atas	-14841
avah	-14842
awan	-14843
ayam	-14844
ball	-14845
bash	-14846
bean	-14847
bhut	-14848
bows	-14849
breo	-14850
chet	-14851
cify	-14852
conf	-14853
ects	-14854
edas	-14855
enes	-14856
esha	-14857
etic	-14858
fulf	-14859
full	-14860
ggar	-14861
give	-14862
happ	-14863
hesy	-14864
holy	-14865
hwar	-14866
iens	-14867
ifes	-14868
igin	-14869
isth	-14870
jour	-14871
katm	-14872
kuta	-14873
ller	-14874
long	-14875
main	-14876
mmet	-14877
noun	-14878
okes	-14879
omew	-14880
onge	-14881
orus	-14882
othe	-14883
phib	-14884
phys	-14885
pite	-14886
priv	-14887
quer	-14888
raim	-14889
rast	-14890
rica	-14891
riti	-14892
root	-14893
saka	-14894
sive	-14895
supp	-14896
uing	-14897
ukha	-14898
ulla	-14899
ulls	-14900
umbh	-14901
umph	-14902
vard	-14903
vate	-14904
ylic	-14905
ymus	-14906
zard	-14907
▁(3)	-14908
▁-10	-14909
▁0.5	-14910
▁020	-14911
▁040	-14912
▁130	-14913
▁198	-14914
▁2.5	-14915
▁3-4	-14916
▁30,	-14917
▁30.	-14918
▁32-	-14919
▁330	-14920
▁365	-14921
▁50.	-14922
▁6."	-14923
▁Arc	-14924
▁BUT	-14925
▁Ban	-14926
▁Beh	-14927
▁Bha	-14928
[...]
