<unk>	0
<s>	0
</s>	0
्य	-0
्त	-1
्र	-2
▁स	-3
▁प	-4
▁क	-5
""	-6
र्	-7
▁अ	-8
ान	-9
▁।	-10
▁त	-11
्व	-12
▁व	-13
ति	-14
न्त	-15
▁इ	-16
म्	-17
स्	-18
स्य	-19
▁य	-20
▁न	-21
ित	-22
▁म	-23
▁प्र	-24
"""	-25
त्	-26
क्	-27
▁भ	-28
ां	-29
न्	-30
ाम	-31
▁च	-32
ार	-33
▁द	-34
त्य	-35
ष्	-36
स्त	-37
▁ए	-38
▁श	-39
ते	-40
मा	-41
▁"	-42
▁भव	-43
▁वि	-44
▁आ	-45
ाय	-46
्च	-47
▁उ	-48
▁ज	-49
▁"""	-50
न्तु	-51
था	-52
पि	-53
रि	-54
्वा	-55
त्र	-56
ान्	-57
क्ष	-58
ना	-59
र्व	-60
▁इत्य	-61
मि	-62
द्	-63
▁ब	-64
िक	-65
▁ग	-66
यं	-67
▁इति	-68
र्त	-69
▁र	-70
ल्	-71
ङ्	-72
ेन	-73
ुं	-74
्या	-75
ानि	-76
ती	-77
▁ह	-78
या	-79
ट्	-80
▁ल	-81
न्ति	-82
ध्य	-83
▁स्	-84
ेष	-85
दं	-86
ता	-87
क्त	-88
ष्ट	-89
▁नि	-90
▁कि	-91
दा	-92
▁।"	-93
▁।"""	-94
यो	-95
कं	-96
ाल	-97
स्ति	-98
▁उप	-99
er	-100
ञ्च	-101
श्य	-102
▁कर	-103
ाप	-104
ेश	-105
तः	-106
श्च	-107
वा	-108
ुद	-109
in	-110
स्मा	-111
र्थ	-112
ध्ये	-113
▁कु	-114
ण्	-115
▁तथा	-116
ाः	-117
नु	-118
▁ट	-119
ृत	-120
नं	-121
वि	-122
▁स्व	-123
्छ	-124
▁इती	-125
दि	-126
ष्य	-127
च्छ	-128
हं	-129
रं	-130
मे	-131
▁सम	-132
का	-133
तु	-134
भि	-135
ीय	-136
प्र	-137
▁सर्व	-138
्यं	-139
▁अपि	-140
स्मि	-141
ड्	-142
▁मध्ये	-143
नि	-144
▁अध	-145
▁वयं	-146
▁इत्यस्य	-147
nt	-148
रण	-149
्ञ	-150
ये	-151
ामि	-152
▁को	-153
or	-154
▁s	-155
यित	-156
▁यु	-157
ाद	-158
ाव	-159
ात	-160
नो	-161
▁पर	-162
भ्य	-163
।"	-164
हि	-165
ाण	-166
▁फ	-167
ानां	-168
ने	-169
▁भवति	-170
ाग	-171
रे	-172
्रि	-173
▁पु	-174
▁नुद	-175
▁इतीदं	-176
ङ्क	-177
श्व	-178
▁सं	-179
यु	-180
र्ण	-181
स्थ	-182
es	-183
..	-184
त्त	-185
at	-186
तो	-187
्ल	-188
▁परि	-189
ास	-190
न्तः	-191
द्य	-192
▁कथ	-193
स्मिन्	-194
मान	-195
on	-196
वान्	-197
द्ध	-198
▁सा	-199
▁(	-200
al	-201
▁के	-202
ामः	-203
▁प्रति	-204
कार	-205
▁अस्ति	-206
।"""	-207
न्य	-208
ात्	-209
ुना	-210
▁करो	-211
यति	-212
ोक	-213
ूप	-214
मः	-215
▁प्राप	-216
▁एत	-217
िष्य	-218
le	-219
▁S	-220
▁,	-221
▁कर्त	-222
▁ड	-223
▁ध	-224
▁एक	-225
ें	-226
▁युष्	-227
▁तस्य	-228
री	-229
▁पा	-230
▁शक्	-231
ar	-232
ेत	-233
ेण	-234
ेषु	-235
▁पश्य	-236
देश	-237
▁अस्मा	-238
ित्र	-239
ाम्	-240
त्वा	-241
▁दृ	-242
▁नुदन्तु	-243
ब्	-244
▁t	-245
▁वा	-246
▁अप	-247
्री	-248
ण्ड	-249
ac	-250
▁एव	-251
ङ्ग	-252
an	-253
▁कृत	-254
▁c	-255
स्म	-256
en	-257
▁वर्त	-258
िन	-259
ोप	-260
ष्ठ	-261
र्थं	-262
▁यो	-263
र्श	-264
▁सह	-265
▁अहं	-266
ानी	-267
रो	-268
जन	-269
▁कृ	-270
▁पू	-271
▁से	-272
भव	-273
▁तद	-274
▁कुर्व	-275
▁-	-276
ितं	-277
▁ज्ञ	-278
▁टङ्क	-279
्यते	-280
▁की	-281
▁तत्	-282
▁C	-283
▁है	-284
ग्र	-285
me	-286
ीश	-287
वर्त	-288
▁'	-289
▁स्थ	-290
र्ग	-291
re	-292
थाप	-293
▁ई	-294
ou	-295
▁ते	-296
ेत्	-297
▁लि	-298
▁यत्	-299
्वं	-300
सं	-301
▁अत्र	-302
it	-303
लि	-304
▁अव	-305
▁मह	-306
णं	-307
▁कार	-308
यन्तु	-309
पु	-310
ीक	-311
मपि	-312
▁सम्	-313
▁वर्तते	-314
सि	-315
ion	-316
योग	-317
रु	-318
▁यू	-319
ज्ञ	-320
▁किन्तु	-321
न्ते	-322
▁अन	-323
रस्य	-324
ल्प	-325
▁सन्ति	-326
के	-327
रा	-328
र्य	-329
ेषां	-330
▁द्व	-331
ro	-332
ान्त	-333
▁|	-334
रूप	-335
तां	-336
भिः	-337
as	-338
्यु	-339
▁1	-340
ूत	-341
▁शक्नु	-342
▁उपरि	-343
लं	-344
ृह	-345
यितुं	-346
▁p	-347
▁सर्व्व	-348
▁करोति	-349
ाया	-350
शि	-351
पा	-352
▁A	-353
▁तदा	-354
ेक्	-355
र्हि	-356
▁इदं	-357
▁युष्मा	-358
ज्य	-359
्यू	-360
न्न	-361
▁औ	-362
▁ईश्व	-363
▁क्ल	-364
यम्	-365
▁निर्	-366
▁d	-367
▁आग	-368
ृश	-369
ैव	-370
को	-371
▁ख	-372
द्व	-373
ुम्	-374
न्द	-375
▁कर्तुं	-376
▁E	-377
▁पाठ	-378
▁यीश	-379
ुः	-380
वन्तः	-381
▁प्राप्त	-382
नः	-383
ing	-384
टर्	-385
व्य	-386
▁M	-387
▁का	-388
▁ना	-389
ीव	-390
▁यथा	-391
से	-392
ूल	-393
▁प्रत्य	-394
▁मा	-395
र्ष	-396
▁परिवर्त	-397
▁T	-398
▁अधुना	-399
▁सू	-400
न्स्	-401
▁तर्हि	-402
▁मम	-403
▁सु	-404
ाणि	-405
भ्यः	-406
....	-407
▁विद्य	-408
चार	-409
ज्	-410
दानी	-411
▁चि	-412
▁अनु	-413
▁बाल	-414
▁व्य	-415
िका	-416
प्	-417
▁उपयु	-418
▁विष	-419
ायां	-420
▁अस्य	-421
नां	-422
ानं	-423
▁‘	-424
▁पृ	-425
▁P	-426
▁कुर्वन्तु	-427
्रे	-428
▁सञ्च	-429
▁शि	-430
▁प्रक	-431
िता	-432
न्तरं	-433
▁f	-434
▁र्	-435
िण	-436
▁विश	-437
ेव	-438
st	-439
त्स	-440
▁रच	-441
ic	-442
्रिय	-443
▁यदि	-444
्रा	-445
मं	-446
▁F	-447
et	-448
▁बह	-449
यित्वा	-450
▁b	-451
▁दृष्ट	-452
▁प्रा	-453
▁अस्माकं	-454
िं	-455
र्म्	-456
टे	-457
▁I	-458
▁a	-459
▁नाम	-460
भाग	-461
ut	-462
तेष	-463
मु	-464
▁आस	-465
लोक	-466
मेव	-467
मित	-468
▁किं	-469
ण्ट्	-470
यामि	-471
ित्	-472
▁और	-473
▁स्थाप	-474
तं	-475
▁आव	-476
ले	-477
धुना	-478
त्व	-479
▁प्रभ	-480
हे	-481
न्ध	-482
ct	-483
▁हे	-484
ीप	-485
▁रा	-486
मस्ति	-487
▁भविष्य	-488
पू	-489
▁मे	-490
कृ	-491
▁पूर्व	-492
माण	-493
ग्	-494
▁यूयं	-495
क्र	-496
ला	-497
िक्	-498
स्मै	-499
▁उद्	-500
▁प्रद	-501
▁चित्र	-502
▁लिख	-503
▁अन्य	-504
▁दर्श	-505
lo	-506
ैः	-507
▁L	-508
▁n	-509
नी	-510
ानु	-511
ायाः	-512
▁में	-513
▁कृत्वा	-514
▁तं	-515
▁ओ	-516
pac	-517
ारं	-518
ितवान्	-519
▁वे	-520
▁किञ्च	-521
स्या	-522
▁प्रो	-523
em	-524
याम	-525
ाना	-526
दृश	-527
यम	-528
▁B	-529
नम्	-530
ol	-531
nter	-532
प्त	-533
▁भू	-534
वरण	-535
,"""	-536
नेन	-537
▁शरी	-538
कि	-539
▁चेत्	-540
ाने	-541
▁भवन्तः	-542
सा	-543
,"	-544
कम्	-545
क्स्	-546
▁अथ	-547
करण	-548
▁या	-549
▁जा	-550
ोऽ	-551
▁भवन्ति	-552
▁“	-553
च्च	-554
:,	-555
▁भो	-556
ों	-557
▁गच्छ	-558
▁छ	-559
स्व	-560
▁तेषां	-561
▁एता	-562
il	-563
टो	-564
ीत	-565
▁m	-566
काश	-567
▁वद	-568
्वास	-569
▁त्व	-570
ाट	-571
नस्य	-572
▁गृह	-573
विध	-574
नोति	-575
ोपरि	-576
मध्ये	-577
ok	-578
▁अधिक	-579
काल	-580
ag	-581
▁कृते	-582
▁2	-583
▁कुर्	-584
is	-585
▁युष्म	-586
▁इत्यत्र	-587
▁श्र	-588
दानीं	-589
ial	-590
▁वृ	-591
ोष	-592
▁विद्यमान	-593
जा	-594
▁एकं	-595
el	-596
▁उद्घ	-597
चन	-598
रिय	-599
▁इत्येत	-600
▁""	-601
भा	-602
कल्प	-603
स्मात्	-604
▁यदा	-605
▁मूल	-606
बल्	-607
रम्	-608
pace	-609
न्त्र	-610
▁D	-611
▁मु	-612
िह	-613
▁अह	-614
▁द्र	-615
्वे	-616
क्षिण	-617
▁एतत्	-618
▁:	-619
भ्या	-620
▁सञ्चिक	-621
▁भार	-622
ed	-623
▁मया	-624
परि	-625
▁तेन	-626
ot	-627
यतु	-628
ार्थं	-629
▁तत्र	-630
▁करण	-631
िर	-632
ीत्	-633
us	-634
लो	-635
ख्य	-636
▁स्त	-637
▁दृश्य	-638
ame	-639
मेण्ट्	-640
ितुं	-641
▁N	-642
सार	-643
ञ्	-644
सु	-645
▁space	-646
दम्	-647
ष्ण	-648
्रीष्ट	-649
पे	-650
▁क्	-651
od	-652
▁युष्माकं	-653
मानि	-654
ुद्र	-655
▁एष	-656
ित्वा	-657
▁वयम्	-658
युक्त	-659
▁पश्च	-660
▁नूत	-661
▁क्ष	-662
▁भवान्	-663
▁शक्नुमः	-664
भू	-665
स्प	-666
क्षण	-667
▁कुर्मः	-668
वे	-669
ारा	-670
▁लो	-671
टि	-672
▁स्म	-673
तया	-674
ate	-675
▁ये	-676
▁ले	-677
म्ब	-678
▁प्राप्	-679
▁अर्	-680
ृत्त	-681
▁e	-682
र्म्म	-683
सम	-684
ृत्य	-685
▁पे	-686
▁प्रथ	-687
योः	-688
▁उत्त	-689
▁गत्वा	-690
▁जन	-691
धिक	-692
▁जीव	-693
▁पुन	-694
▁विकल्प	-695
▁अथवा	-696
▁यत	-697
▁एवं	-698
कस्य	-699
▁यतो	-700
▁करोमि	-701
येत	-702
ुम	-703
क्ष्य	-704
पूर्ण	-705
वाद	-706
ताम्	-707
▁व्यव	-708
▁फल	-709
▁लोक	-710
he	-711
▁उत्	-712
▁फ़	-713
क्षे	-714
▁इत्ये	-715
योक्त	-716
्रिया	-717
क्य	-718
टोरिय	-719
अधुना	-720
ील्	-721
ाणां	-722
▁ततः	-723
▁क्लिक्	-724
▁कथं	-725
रः	-726
ile	-727
धार	-728
▁सि	-729
वर्ण	-730
▁गु	-731
▁दि	-732
ीन	-733
▁समा	-734
▁उद्घाट	-735
▁भ्र	-736
▁यीशु	-737
▁in	-738
▁O	-739
ऽपि	-740
▁3	-741
धि	-742
यामः	-743
▁क्र	-744
वन्ति	-745
tr	-746
णि	-747
स्ते	-748
▁साम	-749
ङ्ग्	-750
योज	-751
्युटोरिय	-752
▁सूच	-753
क्ति	-754
▁h	-755
ास्य	-756
mp	-757
▁अस्मिन्	-758
▁सन्	-759
अत्र	-760
पर	-761
▁उपयुज्य	-762
▁ऐ	-763
▁पश्यामः	-764
ीं	-765
▁याव	-766
▁R	-767
op	-768
ve	-769
▁U	-770
▁आगच्छ	-771
मिति	-772
ation	-773
▁G	-774
▁रक्ष	-775
पाठ	-776
स्तु	-777
तेषां	-778
▁अतः	-779
orial	-780
▁ग्र	-781
यिष्य	-782
se	-783
▁त्वं	-784
ुत्वा	-785
ष्टुं	-786
▁विषये	-787
utorial	-788
्युटोरियल्	-789
नोमि	-790
▁अस्माभिः	-791
▁?	-792
पाद	-793
ील्ड्	-794
ान्य	-795
रूपेण	-796
▁ज्ञात	-797
ोग	-798
▁समीप	-799
▁टङ्कयन्तु	-800
वद	-801
दी	-802
ील	-803
र्प	-804
▁स्वा	-805
ितव	-806
▁बा	-807
▁केव	-808
pok	-809
ाद्	-810
▁देश	-811
▁पित	-812
▁दक्षिण	-813
ab	-814
and	-815
▁आप	-816
▁दू	-817
ेक्ट्	-818
▁व्या	-819
ay	-820
थि	-821
poken	-822
कृत	-823
श्र	-824
▁रे	-825
▁पश्यन्तु	-826
यत	-827
▁घ	-828
▁वर्ण	-829
▁शक्नोति	-830
र्ध	-831
▁l	-832
क्स	-833
▁इत्यस्मै	-834
द्र	-835
▁आर	-836
डि	-837
▁नास्ति	-838
ad	-839
▁Enter	-840
मित्त	-841
▁प्रे	-842
▁g	-843
र्ड्	-844
▁योज	-845
▁बहु	-846
स्त्र	-847
ur	-848
ent	-849
म्प	-850
▁|"	-851
ेश्व	-852
▁आवश्य	-853
▁कार्य	-854
qu	-855
चित	-856
सर्	-857
▁to	-858
▁तु	-859
कर	-860
यः	-861
ह्	-862
▁पाद	-863
▁भवतां	-864
▁स्प	-865
ास्	-866
▁प्रदर्श	-867
यत्	-868
र्या	-869
णां	-870
अतः	-871
▁दु	-872
ख्या	-873
भ्यास	-874
▁ऽ	-875
नन्तरं	-876
▁भविष्यति	-877
शाल	-878
▁पुनः	-879
▁दृश्यते	-880
▁मनु	-881
▁ट्युटोरियल्	-882
िष्ठ	-883
▁मेथ	-884
र्श्व	-885
▁रूप	-886
▁दत्त	-887
▁पुत्र	-888
फ़	-889
ण्ड्	-890
▁उपयोक्त	-891
कः	-892
▁नुदतु	-893
▁जग	-894
▁बहि	-895
▁w	-896
▁कश्च	-897
ch	-898
रिये	-899
ितम्	-900
ोध	-901
las	-902
त्म	-903
जेक्ट्	-904
▁सम्य	-905
▁उपयोग	-906
एव	-907
चि	-908
टा	-909
age	-910
▁युष्मान्	-911
est	-912
र्थम्	-913
........	-914
▁i	-915
▁योग	-916
▁निष्	-917
िन्व	-918
हा	-919
रियेबल्	-920
मो	-921
▁प्रकाश	-922
:।	-923
▁ख्रीष्ट	-924
▁शक्नुवन्ति	-925
▁सत्य	-926
स्था	-927
ंश	-928
um	-929
xt	-930
हरण	-931
कास	-932
▁वृक्ष	-933
▁जान	-934
ers	-935
स्ट्	-936
▁क्रिय	-937
न्तं	-938
वित्र	-939
▁आदेश	-940
तीय	-941
वास	-942
▁मि	-943
▁चिन्व	-944
ment	-945
▁भवेत्	-946
ितः	-947
ैल्	-948
▁यस्य	-949
श्	-950
सू	-951
रिष्य	-952
▁अस्म	-953
वार	-954
▁प्राण	-955
स्र	-956
▁पठ	-957
▁इदानीं	-958
▁शक	-959
गत	-960
▁ईश्वरस्य	-961
▁द्रष्टुं	-962
yp	-963
दे	-964
षु	-965
our	-966
ig	-967
ीति	-968
र्ज	-969
ज्ज	-970
ोच	-971
ul	-972
ib	-973
ञ्ज	-974
ौन्	-975
ेऽ	-976
ोल्	-977
▁st	-978
▁टङ्कयित्वा	-979
▁कदा	-980
▁चिन्वन्तु	-981
▁हि	-982
दाहरण	-983
िहू	-984
कु	-985
▁o	-986
नानि	-987
्याः	-988
कान्	-989
▁वाम	-990
▁""""	-991
की	-992
ट्र	-993
भाष	-994
क्तं	-995
स्माकं	-996
विश	-997
द्धं	-998
र्स्	-999
▁मां	-1000
▁भवद्	-1001
▁मेथड्	-1002
▁अभि	-1003
त्रं	-1004
▁मुद्र	-1005
भाव	-1006
▁शु	-1007
स्थाप	-1008
▁एते	-1009
▁तान्	-1010
▁तथ	-1011
ew	-1012
र्ह	-1013
▁पश्चात्	-1014
▁प्रत्ये	-1015
▁मान	-1016
▁H	-1017
▁क्लास्	-1018
▁वेरियेबल्	-1019
ount	-1020
मित्तं	-1021
ली	-1022
र्म	-1023
▁तव	-1024
▁मू	-1025
▁ने	-1026
▁रि	-1027
▁भवन्त	-1028
नल्	-1029
नाः	-1030
ताः	-1031
▁कार्यं	-1032
▁ज्ञास्य	-1033
▁तस्मिन्	-1034
ow	-1035
ect	-1036
यन्ति	-1037
दीय	-1038
▁जाय	-1039
▁तद्	-1040
▁अभ्यास	-1041
पश्च	-1042
▁कुर्या	-1043
▁हो	-1044
कथ	-1045
▁मेन	-1046
▁तिष्ठ	-1047
ip	-1048
णा	-1049
▁परं	-1050
ce	-1051
िति	-1052
▁श्व	-1053
ीयम्	-1054
▁शक्यते	-1055
id	-1056
फल	-1057
▁तः	-1058
▁पवित्र	-1059
नाय	-1060
int	-1061
▁न्यू	-1062
ess	-1063
रित	-1064
▁जल	-1065
▁विवरण	-1066
▁इतीमानि	-1067
विष	-1068
ोकन्	-1069
▁अधः	-1070
▁सङ्	-1071
▁प्रथम	-1072
▁ईश्वर	-1073
ङ्क्	-1074
नम	-1075
वस	-1076
तस्य	-1077
ात्र	-1078
▁आन	-1079
ङ्क्त	-1080
▁यिहू	-1081
ृष्ट	-1082
▁भाग	-1083
▁संयोज	-1084
कानि	-1085
▁प्रभो	-1086
▁ऊ	-1087
च्छति	-1088
लै	-1089
▁यः	-1090
▁क्री	-1091
ड़	-1092
00	-1093
ांश	-1094
मिदं	-1095
▁प्रकट	-1096
▁4	-1097
काले	-1098
min	-1099
▁बु	-1100
मानं	-1101
▁वयम	-1102
स्मिन	-1103
cc	-1104
याः	-1105
हाय	-1106
▁पि	-1107
शिष्ट	-1108
▁इत्येतत्	-1109
नाम	-1110
▁साध	-1111
▁St	-1112
ेशन्	-1113
▁प्रयोग	-1114
ादृश	-1115
▁केवलं	-1116
कर्त	-1117
▁परी	-1118
▁प्रि	-1119
द्या	-1120
▁अहम्	-1121
शा	-1122
तत्	-1123
ायाम	-1124
▁नुत्वा	-1125
ud	-1126
कृति	-1127
▁हैं	-1128
ौल	-1129
▁स्वर्ग	-1130
▁अग	-1131
स्माद्	-1132
र्च	-1133
िते	-1134
▁अन्त	-1135
pl	-1136
▁करें	-1137
यितुम्	-1138
वान	-1139
▁कील	-1140
▁स्वीक	-1141
त्थ	-1142
▁5	-1143
सर्व	-1144
▁विद्यमानं	-1145
nd	-1146
ack	-1147
▁दे	-1148
▁सो	-1149
दाति	-1150
वृ	-1151
भवत्	-1152
▁शरीर	-1153
▁किमपि	-1154
▁विश्व	-1155
ंग	-1156
स्ट	-1157
न्म	-1158
▁सर्व्वे	-1159
▁भि	-1160
▁जाल	-1161
विवरण	-1162
र्श्वे	-1163
क्षा	-1164
▁पाठे	-1165
▁विचार	-1166
ाह	-1167
▁निज	-1168
ितानि	-1169
▁सन्त	-1170
▁प्रार्थ	-1171
▁आसीत्	-1172
▁करोतु	-1173
▁एतादृश	-1174
ब्जेक्ट्	-1175
तेषु	-1176
▁पञ्च	-1177
तदा	-1178
धान	-1179
प्य	-1180
▁सी	-1181
dd	-1182
▁दृष्टुं	-1183
ण्डं	-1184
द्वा	-1185
▁राज	-1186
▁लोका	-1187
▁हस्त	-1188
ितवन्तः	-1189
▁कर्त्त	-1190
थे	-1191
▁पाप	-1192
्यात्	-1193
▁श्वास	-1194
▁येन	-1195
न्त्व	-1196
गण	-1197
यि	-1198
ब्ध	-1199
योजन	-1200
▁कुरु	-1201
▁तत	-1202
▁नम	-1203
▁साक्ष	-1204
▁अत	-1205
अस्मिन्	-1206
og	-1207
क्सिक	-1208
ानाम्	-1209
om	-1210
वेश	-1211
िरू	-1212
ोर्	-1213
▁डि	-1214
▁जात	-1215
ेभ्यः	-1216
▁प्रोग्र	-1217
▁किञ्चन	-1218
इत्य	-1219
ont	-1220
यस्य	-1221
▁स्टे	-1222
▁प्रदर्शयति	-1223
▁इत्यस्योपरि	-1224
ीज	-1225
हम्	-1226
ग्रे	-1227
▁ब्र	-1228
ण्ट	-1229
ुक्त	-1230
▁भ्रात	-1231
▁re	-1232
▁कथां	-1233
▁1.	-1234
किन्तु	-1235
ir	-1236
सर	-1237
मां	-1238
▁तदर्थं	-1239
▁r	-1240
▁नो	-1241
▁ध्य	-1242
▁रख	-1243
▁प्रकटयति	-1244
दश	-1245
ुप	-1246
माणं	-1247
दिष्ट	-1248
▁चिन्त	-1249
क्सिक्यू	-1250
ail	-1251
▁भोजन	-1252
▁यद्	-1253
▁ड्र	-1254
रेण	-1255
▁द्वित	-1256
▁पश्याम	-1257
▁अनन्तरं	-1258
▁इत्यनेन	-1259
मश	-1260
▁प्रकार	-1261
ap	-1262
▁J	-1263
ेद	-1264
▁–	-1265
▁नाम्	-1266
ीच	-1267
ेस्	-1268
निर्	-1269
▁काल	-1270
▁इत्येतेषां	-1271
inu	-1272
▁पृष्ठ	-1273
▁सूर्य	-1274
▁ज्ञास्यामः	-1275
org	-1276
िनः	-1277
▁तथैव	-1278
ैल	-1279
ग्रह	-1280
▁दोष	-1281
यामास	-1282
्राम	-1283
ज्ञान	-1284
bu	-1285
मुख	-1286
क्यं	-1287
शिक्षण	-1288
ारी	-1289
थात्	-1290
ेभ्य	-1291
▁एका	-1292
.0	-1293
मेकं	-1294
▁विना	-1295
▁प्रेष	-1296
▁सम्पूर्ण	-1297
यन्	-1298
पर्य	-1299
▁कुर्यात	-1300
th	-1301
सी	-1302
रुष	-1303
▁अनेन	-1304
ोक्स्	-1305
▁जानी	-1306
ary	-1307
▁त्य	-1308
▁भोज	-1309
▁मो	-1310
▁लिङ्क्	-1311
▁वै	-1312
▁टङ्कयतु	-1313
am	-1314
र्त्त	-1315
▁कर्ष	-1316
▁इतीदम्	-1317
▁मूल्यं	-1318
गु	-1319
ist	-1320
▁कोड्	-1321
▁यत्र	-1322
▁आद	-1323
▁ला	-1324
वारं	-1325
▁अपर	-1326
ानाम	-1327
▁अने	-1328
धः	-1329
▁नूतनं	-1330
▁प्राप्नु	-1331
वन्त	-1332
▁for	-1333
व्यम्	-1334
▁इच्छ	-1335
▁कृष्ण	-1336
▁र्य	-1337
▁कुर्वन्ति	-1338
वत्	-1339
▁चतु	-1340
▁पर्य	-1341
▁पृष्ट	-1342
▁K	-1343
▁and	-1344
▁यतः	-1345
▁लघ	-1346
देशं	-1347
▁इत्या	-1348
▁प्रकल्प	-1349
काः	-1350
ीयं	-1351
▁शा	-1352
▁चाल	-1353
▁स्थान	-1354
▁3.	-1355
▁हा	-1356
पुट्	-1357
▁सार्	-1358
षि	-1359
▁भी	-1360
▁क्रियते	-1361
णे	-1362
्वि	-1363
भागे	-1364
ङ्क्ष	-1365
▁किञ्चित्	-1366
दृ	-1367
नग	-1368
िताः	-1369
▁भवत	-1370
ck	-1371
▁v	-1372
▁of	-1373
▁भा	-1374
inux	-1375
▁ततो	-1376
▁ताव	-1377
स्तं	-1378
ेक्ष	-1379
▁विशेष	-1380
ेक्स्ट्	-1381
ैर	-1382
इदं	-1383
जीव	-1384
▁द्वारा	-1385
क्सिक्यूट्	-1386
चित्	-1387
नाम्	-1388
न्दि	-1389
व्यं	-1390
▁सहाय	-1391
▁परस्प	-1392
▁परीक्ष	-1393
▁तस्मात्	-1394
ha	-1395
भे	-1396
▁.	-1397
▁मृ	-1398
▁प्रोग्राम्	-1399
▁अपरं	-1400
▁सप्त	-1401
▁पूर्ण	-1402
▁निष्कास	-1403
ire	-1404
त्या	-1405
▁कृप	-1406
्वासं	-1407
▁किन्त्व	-1408
▁विश्वास	-1409
out	-1410
▁सति	-1411
▁करने	-1412
वाच	-1413
बन्ध	-1414
भिन्न	-1415
▁यद्य	-1416
तर	-1417
ave	-1418
▁गण	-1419
▁ता	-1420
▁क्रीड	-1421
▁2.	-1422
▁भग	-1423
tion	-1424
ातुं	-1425
▁तादृश	-1426
▁आवश्यक	-1427
wk	-1428
दु	-1429
▁यह	-1430
▁करिष्य	-1431
ub	-1432
ter	-1433
भवति	-1434
ष्या	-1435
▁प्रश्	-1436
▁यावत्	-1437
▁उदाहरण	-1438
▁वाक्य	-1439
ष्प	-1440
▁बि	-1441
▁उत्स	-1442
ibr	-1443
▁आह	-1444
▁कति	-1445
▁कर्म्म	-1446
ब्द	-1447
▁जाता	-1448
शु	-1449
▁सः	-1450
त्रे	-1451
▁dot	-1452
भ्यां	-1453
टिक	-1454
ीरे	-1455
ात्म	-1456
्यां	-1457
up	-1458
ntu	-1459
ामी	-1460
▁लेख	-1461
buntu	-1462
विष्य	-1463
णो	-1464
िः	-1465
यों	-1466
▁पी	-1467
क्षर	-1468
प्रति	-1469
▁मार्ग	-1470
▁स्थिति	-1471
▁विश्राम	-1472
धा	-1473
▁W	-1474
मुप	-1475
▁राम	-1476
▁इन्स्	-1477
▁स्थाने	-1478
ततः	-1479
""""	-1480
▁नूतन	-1481
स्तस्य	-1482
▁ददाति	-1483
▁सामान्य	-1484
्यम्	-1485
ष्म	-1486
दानीम्	-1487
▁चे	-1488
केट्	-1489
▁विन	-1490
स्थान	-1491
▁तानि	-1492
trl	-1493
ोप्	-1494
व्या	-1495
▁दर्शयति	-1496
▁निमित्तं	-1497
ही	-1498
विक	-1499
▁us	-1500
▁चा	-1501
▁सक	-1502
चित्र	-1503
चर	-1504
▁0	-1505
ैन्	-1506
▁टे	-1507
गम	-1508
सह	-1509
ोल	-1510
ौर	-1511
वयं	-1512
▁जी	-1513
मिनल्	-1514
▁अग्रि	-1515
बा	-1516
ितो	-1517
▁पृथ	-1518
▁इत्याद	-1519
▁स्वच्छ	-1520
▁चेत	-1521
▁श्री	-1522
प्रकार	-1523
av	-1524
▁भवित	-1525
्यो	-1526
▁संस्	-1527
▁जायते	-1528
▁कथितवान्	-1529
क्लि	-1530
ैक	-1531
पुट	-1532
डौन्	-1533
▁विषय	-1534
▁सङ्ग	-1535
▁समर्प	-1536
समये	-1537
▁वर्ध	-1538
ीया	-1539
▁सेट्	-1540
ेऽस्मिन्	-1541
त्वं	-1542
▁एषा	-1543
भी	-1544
गृह	-1545
देव	-1546
▁Linux	-1547
▁एतानि	-1548
▁मुद्राप	-1549
तेन	-1550
दर्श	-1551
▁name	-1552
▁चित्वा	-1553
ies	-1554
भो	-1555
▁सर	-1556
▁सर्वे	-1557
▁चिनोमि	-1558
▁स्यात्	-1559
▁टेक्स्ट्	-1560
हर	-1561
▁आत्	-1562
▁महा	-1563
▁एक्सिक्यूट्	-1564
dit	-1565
▁सेव	-1566
▁ओब्जेक्ट्	-1567
र्घ	-1568
▁परम	-1569
▁समय	-1570
▁सङ्क	-1571
▁फील्ड्	-1572
पृ	-1573
मेन	-1574
न्तुं	-1575
▁ज्ञान	-1576
▁ध्यान	-1577
पश्चात्	-1578
ord	-1579
ort	-1580
▁वार	-1581
▁स्ट	-1582
▁विद्यते	-1583
),	-1584
ear	-1585
▁नव	-1586
▁कारण	-1587
▁भूत्वा	-1588
▁कर्तुम्	-1589
ारे	-1590
▁इद	-1591
▁शी	-1592
lash	-1593
ासन	-1594
ामहे	-1595
▁धार	-1596
▁पूर	-1597
▁अग्रे	-1598
ख्रीष्ट	-1599
ाप्	-1600
तीति	-1601
भ्यं	-1602
ूनां	-1603
▁ऐकान्	-1604
▁शिक्ष	-1605
▁स्टेट्	-1606
एं	-1607
मी	-1608
ele	-1609
टन्	-1610
णस्य	-1611
न्द्र	-1612
▁भारत	-1613
▁मध्य	-1614
▁छात्र	-1615
▁the	-1616
▁अधो	-1617
ुद्रा	-1618
un	-1619
▁दश	-1620
▁उपल	-1621
ory	-1622
दाय	-1623
्लो	-1624
ट्रक्	-1625
ुमर्ह	-1626
▁आत्म	-1627
त्राणि	-1628
नै	-1629
umb	-1630
पति	-1631
ासु	-1632
▁मन	-1633
▁र्व	-1634
▁द्वे	-1635
▁विभाग	-1636
्वेन्स्	-1637
▁कृतवान्	-1638
ऐं	-1639
ोः	-1640
तुं	-1641
▁विध	-1642
▁वदामि	-1643
स्योपरि	-1644
▁विभिन्न	-1645
▁ऋ	-1646
ome	-1647
अहं	-1648
गतम्	-1649
▁यीशुः	-1650
▁गण्डं	-1651
▁सञ्चिका	-1652
▁स्पोकन्	-1653
▁सञ्चिकां	-1654
▁युव	-1655
▁रोग	-1656
ccount	-1657
▁भिन्न	-1658
yst	-1659
करो	-1660
द्धि	-1661
▁कथा	-1662
▁Ubuntu	-1663
मम	-1664
▁त्र	-1665
्रेकेट्	-1666
▁अर्थात्	-1667
ूल्	-1668
▁इन्	-1669
▁भाव	-1670
मिष्य	-1671
▁अर्थ	-1672
▁शक्नोमि	-1673
▁शिष्य	-1674
▁इव	-1675
▁निक	-1676
▁विविध	-1677
▁व्यवस्थ	-1678
महं	-1679
dmin	-1680
सम्ब	-1681
ीक्वेन्स्	-1682
तद	-1683
oha	-1684
म्भ	-1685
lass	-1686
ध्वं	-1687
▁लघु	-1688
स्वरूप	-1689
▁स्वयं	-1690
▁प्राप्य	-1691
वः	-1692
▁In	-1693
▁अति	-1694
▁केन	-1695
बल	-1696
emo	-1697
यदि	-1698
नोतु	-1699
▁देव	-1700
▁मनुष्य	-1701
ायु	-1702
ject	-1703
rint	-1704
सञ्च	-1705
▁पुस्त	-1706
अनन्तरं	-1707
ook	-1708
ser	-1709
िकां	-1710
▁तेष	-1711
▁पुनर	-1712
डी	-1713
act	-1714
ext	-1715
▁अस	-1716
ण्डो	-1717
पूर्व	-1718
▁द्वि	-1719
▁लिखन्तु	-1720
▁शरीरस्य	-1721
▁अनुशिक्षण	-1722
ीयते	-1723
ystem	-1724
ीत्वा	-1725
▁स्टेट्मेण्ट्	-1726
मन	-1727
न्थ	-1728
▁अयं	-1729
ibrary	-1730
▁परस्परं	-1731
वर्ष	-1732
▁इतीद	-1733
▁अधस्त	-1734
.1	-1735
रू	-1736
शं	-1737
hen	-1738
नों	-1739
न्नि	-1740
▁अद्य	-1741
▁slash	-1742
▁प्राय	-1743
ण्य	-1744
भूत	-1745
▁तृ	-1746
त्रा	-1747
युज्य	-1748
▁स्मः	-1749
▁निश्च	-1750
▁फलितं	-1751
शन्	-1752
▁इस	-1753
▁वय	-1754
▁रखें	-1755
ver	-1756
ाग्	-1757
ैट्	-1758
िनां	-1759
क्रिय	-1760
▁अङ्ग	-1761
▁कम्प	-1762
ितौ	-1763
▁गो	-1764
क्षि	-1765
▁awk	-1766
प्राप	-1767
▁साहाय	-1768
▁उपयोगं	-1769
वं	-1770
ase	-1771
ारो	-1772
▁आं	-1773
▁बृह	-1774
अप	-1775
ith	-1776
महे	-1777
▁हु	-1778
द्वयं	-1779
▁कानि	-1780
▁तद्व	-1781
▁दण्ड	-1782
▁रक्त	-1783
नार्थं	-1784
▁enter	-1785
▁आगत्य	-1786
ox	-1787
णम्	-1788
▁पो	-1789
▁हाथ	-1790
ज्यते	-1791
▁तस्माद्	-1792
▁इत्यस्या	-1793
ode	-1794
▁डी	-1795
▁किम	-1796
भ्यते	-1797
▁प्रभु	-1798
▁अधिकविवरण	-1799
ेट्	-1800
▁तौ	-1801
▁निय	-1802
▁मुख	-1803
▁Ctrl	-1804
▁उक्त	-1805
▁समीपे	-1806
▁प्राप्तुं	-1807
▁इत्यस्मात्	-1808
if	-1809
अपि	-1810
▁qu	-1811
▁चल	-1812
ction	-1813
▁किम्	-1814
▁वयमधुना	-1815
CT	-1816
वत	-1817
षा	-1818
मास	-1819
भविष्य	-1820
▁भवद्भिः	-1821
▁सर्वाणि	-1822
▁चय	-1823
ान्तः	-1824
ायाम्	-1825
▁उत्प	-1826
▁धन्य	-1827
▁समये	-1828
क्रिया	-1829
ain	-1830
निक	-1831
सङ्	-1832
▁दृढ	-1833
▁Save	-1834
▁करणीय	-1835
ानन्तरं	-1836
▁वाक्यं	-1837
▁पार्श्वे	-1838
▁ज्ञातवन्तः	-1839
शी	-1840
▁sh	-1841
ध्वे	-1842
▁साथ	-1843
टिङ्ग्	-1844
द्वारा	-1845
▁क्रिया	-1846
▁गच्छन्तु	-1847
डर्	-1848
स्थं	-1849
ान्ति	-1850
▁कस्य	-1851
▁चिनोतु	-1852
▁द्वितीय	-1853
णी	-1854
लिख	-1855
▁नास	-1856
लोक्य	-1857
सारेण	-1858
▁त्रि	-1859
स्यास्य	-1860
▁स्वागतम्	-1861
भार	-1862
ूनि	-1863
▁नग	-1864
ञ्ज्	-1865
▁नहि	-1866
▁वर्ष	-1867
▁श्वस	-1868
▁कृपया	-1869
▁तस्या	-1870
▁रूपेण	-1871
न्स्ट्रक्	-1872
▁दृष्ट्वा	-1873
MP	-1874
तवान्	-1875
▁ट्या	-1876
▁सर्व्वा	-1877
हो	-1878
▁डे	-1879
▁शृ	-1880
पश्य	-1881
बद्ध	-1882
yphen	-1883
▁बटन्	-1884
िरूशाल	-1885
नीय	-1886
ण्टर्	-1887
▁file	-1888
▁तथापि	-1889
▁फ़ील्ड्	-1890
▁Tutorial	-1891
▁स्थापयेत	-1892
जु	-1893
भु	-1894
मान्	-1895
▁कोपि	-1896
▁पृथि	-1897
ार्थम्	-1898
▁स्वीय	-1899
ञ्ज्महे	-1900
षन्	-1901
▁ओर	-1902
▁कू	-1903
umber	-1904
▁चिह्	-1905
ङ्क्षन्	-1906
▁अपेक्ष	-1907
▁यिहूदीय	-1908
▁प्रत्येक	-1909
▁सार्द्धं	-1910
▁इत्यस्मिन्	-1911
न्स्ट्रक्टर्	-1912
ks	-1913
ेः	-1914
▁10	-1915
▁इदम्	-1916
लम्	-1917
त्थं	-1918
▁Add	-1919
▁क्षे	-1920
कर्म्म	-1921
माण्ड्	-1922
▁नुदामि	-1923
ेश्वरस्य	-1924
खा	-1925
▁दी	-1926
▁श्	-1927
गच्छ	-1928
रणं	-1929
्ला	-1930
ष्टं	-1931
▁Pro	-1932
▁पौल	-1933
स्कार	-1934
▁नाना	-1935
▁निर्मा	-1936
▁युष्माभि	-1937
▁सीक्वेन्स्	-1938
न्या	-1939
त्वेन	-1940
▁प्राच	-1941
▁कथ्यते	-1942
▁श्रुत्वा	-1943
gr	-1944
▁6	-1945
िद्	-1946
लोका	-1947
▁सम्प	-1948
▁हेतो	-1949
▁भोजनं	-1950
▁एतेषां	-1951
tutorial	-1952
टी	-1953
तिं	-1954
दिश	-1955
ीनां	-1956
▁जलं	-1957
▁स्क	-1958
▁File	-1959
▁तन्न	-1960
▁भवतः	-1961
▁अधिकं	-1962
▁प्रार	-1963
▁कोर्स्	-1964
शील	-1965
नात्	-1966
ीश्व	-1967
▁रन्	-1968
यिष्यति	-1969
▁मेन्यू	-1970
▁भवद्भ्यः	-1971
.04	-1972
दपि	-1973
▁दा	-1974
मत्र	-1975
ित्य	-1976
ांश्च	-1977
▁Koha	-1978
▁वस्त्र	-1979
▁सम्यक्	-1980
ेल	-1981
ine	-1982
ब्र	-1983
mple	-1984
्त्त	-1985
▁जना	-1986
udent	-1987
कार्य	-1988
▁ड्रोप्	-1989
▁ब्रेकेट्	-1990
▁मिल	-1991
कानां	-1992
▁पुष्प	-1993
▁मुद्रा	-1994
▁श्वासं	-1995
बि	-1996
rol	-1997
गीत	-1998
परी	-1999
अस्य	-2000
▁अभव	-2001
▁जनो	-2002
▁लिए	-2003
▁प्रण	-2004
spoken	-2005
▁कदापि	-2006
▁न्यून	-2007
तन	-2008
all	-2009
?"	-2010
्याप	-2011
▁भवेत	-2012
▁प्रया	-2013
▁यिरूशाल	-2014
▁lo	-2015
▁दाय	-2016
▁user	-2017
▁उच्च	-2018
▁केचन	-2019
▁वस्तु	-2020
()	-2021
ोट्	-2022
▁th	-2023
ront	-2024
वदत्	-2025
वस्य	-2026
▁अतो	-2027
▁मयि	-2028
▁शनै	-2029
वृत्त	-2030
▁भवतु	-2031
▁व्यवस्थाप	-2032
ind	-2033
हार	-2034
िह्	-2035
▁घट	-2036
तुम्	-2037
▁योह	-2038
विष्ट	-2039
▁भक्त	-2040
▁विस्त	-2041
▁अपरञ्च	-2042
▁पङ्क्त	-2043
▁विकल्पं	-2044
ava	-2045
▁Sh	-2046
यन्त	-2047
▁मनो	-2048
विषये	-2049
▁डौन्	-2050
▁मन्य	-2051
▁आवृत्त	-2052
▁पूर्व्व	-2053
▁4.	-2054
▁टर्	-2055
▁पूर्वं	-2056
▁प्रमाण	-2057
▁विण्डो	-2058
ath	-2059
name	-2060
▁एडि	-2061
▁दिन	-2062
▁वक्त	-2063
▁मन्दि	-2064
कम	-2065
ang	-2066
वाम	-2067
ौसर्	-2068
▁इमे	-2069
▁दास	-2070
▁पादप	-2071
▁श्मश	-2072
तन्त्र	-2073
स्यापि	-2074
इति	-2075
तथा	-2076
यर्	-2077
▁ex	-2078
▁यद	-2079
ayer	-2080
▁उद्य	-2081
▁द्वा	-2082
▁hyphen	-2083
ood	-2084
दान	-2085
सम्	-2086
ायै	-2087
सारं	-2088
▁पुट	-2089
▁बीज	-2090
▁is	-2091
ीकृत	-2092
क्ष्म	-2093
त्त्व	-2094
▁कृतवन्तः	-2095
▁उपयुञ्ज्महे	-2096
कू	-2097
दू	-2098
पदा	-2099
ateg	-2100
▁एको	-2101
▁इमानि	-2102
▁निर्माण	-2103
ep	-2104
▁7	-2105
केन	-2106
▁कै	-2107
▁वी	-2108
▁आसन	-2109
▁युग	-2110
च्यते	-2111
प्रदेश	-2112
▁प्राप्नोति	-2113
▁प्राप्तवन्तः	-2114
cr	-2115
iz	-2116
▁X	-2117
राग	-2118
▁कं	-2119
▁छो	-2120
able	-2121
चिह्	-2122
▁सुसं	-2123
ans	-2124
▁pro	-2125
▁भूम	-2126
▁test	-2127
▁उपस्थ	-2128
▁विवरणानि	-2129
▁सर्वेषां	-2130
ari	-2131
लन्	-2132
ीनि	-2133
▁br	-2134
र्व्व	-2135
▁एतस्य	-2136
प्राप्त	-2137
▁कानिचन	-2138
तम	-2139
येन	-2140
वेद	-2141
▁ID	-2142
भ्यो	-2143
यात्	-2144
▁एलि	-2145
▁ध्व	-2146
▁भूत	-2147
क्षेप	-2148
तम्	-2149
्रो	-2150
येत्	-2151
्येन	-2152
▁भवे	-2153
▁जाना	-2154
▁समान	-2155
▁ज्ञाप	-2156
लोकानां	-2157
▁अग्रिम	-2158
▁कमाण्ड्	-2159
ive	-2160
च्य	-2161
?"""	-2162
एतत्	-2163
oodle	-2164
्यानि	-2165
▁टेब्	-2166
▁प्रस	-2167
▁मुख्य	-2168
▁भविष्यद्वा	-2169
▁ष	-2170
ष्क	-2171
▁जि	-2172
▁भु	-2173
वश्य	-2174
▁पुर	-2175
▁टूल्	-2176
▁चित्रं	-2177
ett	-2178
रिक	-2179
▁तक	-2180
▁इतो	-2181
▁खाद	-2182
▁पाल	-2183
▁त्यज	-2184
▁Library	-2185
▁सङ्ख्या	-2186
▁कन्स्ट्रक्टर्	-2187
यान	-2188
वाह	-2189
न्ना	-2190
▁तां	-2191
त्वार	-2192
ोर्ट्	-2193
▁तेषु	-2194
▁सिद्ध	-2195
▁अस्माभि	-2196
गी	-2197
ज़	-2198
▁झ	-2199
भ्र	-2200
लेख	-2201
▁दद	-2202
मिको	-2203
▁आंख	-2204
स्यति	-2205
▁अन्ति	-2206
▁System	-2207
▁पुत्रः	-2208
▁संस्कृत	-2209
▁टर्मिनल्	-2210
txt	-2211
ट्ट	-2212
▁औट्	-2213
ख्यां	-2214
▁अत्य	-2215
इदानीं	-2216
im	-2217
रच	-2218
enc	-2219
▁ओप	-2220
धिकं	-2221
▁जनाः	-2222
art	-2223
ass	-2224
fer	-2225
ity	-2226
▁धन	-2227
ामपि	-2228
▁मृत	-2229
पुरुष	-2230
मिच्छ	-2231
▁पिता	-2232
िष्यते	-2233
्रिङ्ग्	-2234
▁प्रचार	-2235
▁प्रथमं	-2236
सो	-2237
▁तर	-2238
ुत्त	-2239
▁कर्	-2240
पङ्क्त	-2241
स्पोकन्	-2242
▁इत्यस्याधः	-2243
जी	-2244
राम	-2245
▁ch	-2246
▁बल	-2247
▁रु	-2248
तानि	-2249
▁हुए	-2250
▁करता	-2251
▁इत्थं	-2252
▁शक्ति	-2253
▁V	-2254
ग्री	-2255
टाल्	-2256
र्तुं	-2257
स्मान्	-2258
▁परन्तु	-2259
▁कुर्व्व	-2260
णु	-2261
वो	-2262
fox	-2263
ाले	-2264
▁जो	-2265
ज्ञा	-2266
ताया	-2267
▁गुरु	-2268
▁रचना	-2269
▁शब्द	-2270
irefox	-2271
▁तस्मै	-2272
▁tutorial	-2273
▁धेन	-2274
▁आराम	-2275
▁रङ्ग	-2276
▁स्था	-2277
चनं	-2278
र्द	-2279
र्ब	-2280
▁उद	-2281
▁नैव	-2282
क्षणं	-2283
▁प्रेम	-2284
▁मह्यं	-2285
▁वृत्त	-2286
▁प्रक्रिया	-2287
मू	-2288
ard	-2289
ure	-2290
शरी	-2291
िके	-2292
▁आदि	-2293
▁जाग	-2294
▁डोट्	-2295
सम्बद्ध	-2296
▁कश्चित्	-2297
ह्य	-2298
▁अश	-2299
▁ती	-2300
▁फा	-2301
atic	-2302
▁with	-2303
▁चेक्	-2304
श्चर्य	-2305
स्माभिः	-2306
ht	-2307
oc	-2308
वी	-2309
प्ल	-2310
प्रथ	-2311
▁कण्ड	-2312
▁दातुं	-2313
पार्श्वे	-2314
▁साक्षात्	-2315
हु	-2316
▁me	-2317
क्रम	-2318
देशः	-2319
▁गौर	-2320
▁अन्व	-2321
▁सम्यक	-2322
▁प्रधान	-2323
▁तदनन्तरं	-2324
पाल	-2325
मूल	-2326
ित्त	-2327
▁col	-2328
▁एतत	-2329
▁मार्	-2330
▁श्रु	-2331
▁अवलोक	-2332
▁प्रती	-2333
▁जालपुट	-2334
▁इदानीम्	-2335
▁अनुशिक्षणे	-2336
end	-2337
ीशु	-2338
▁सौ	-2339
नापि	-2340
▁भाष	-2341
▁र्न	-2342
तिष्ठ	-2343
पुत्र	-2344
▁मनुज	-2345
▁दीर्घ	-2346
▁राष्ट	-2347
▁प्रकारेण	-2348
ke	-2349
ype	-2350
▁यूय	-2351
ेश्वर	-2352
▁जीवा	-2353
▁कोऽपि	-2354
▁अधस्तन	-2355
▁सेमिको	-2356
धे	-2357
ell	-2358
▁डा	-2359
ीकरण	-2360
▁पति	-2361
विश्य	-2362
▁cont	-2363
न्तरम्	-2364
▁महत्व	-2365
▁यतोहि	-2366
▁ट्याब्	-2367
▁स्थानं	-2368
ME	-2369
▁मद	-2370
ट्स्	-2371
सेस्	-2372
▁महि	-2373
ेक्स्	-2374
▁उपयोक्तुं	-2375
▁ख्रीष्टस्य	-2376
सः	-2377
her	-2378
row	-2379
▁Op	-2380
▁पै	-2381
▁बै	-2382
कृते	-2383
ायते	-2384
▁पेर	-2385
▁अपने	-2386
▁जीवन	-2387
▁शारी	-2388
▁Spoken	-2389
▁भवितुं	-2390
▁यीशुस्त	-2391
ue	-2392
णाम	-2393
यथा	-2394
ल्ल	-2395
टिक्	-2396
ीर्ण	-2397
▁मत्	-2398
ज्ञाप	-2399
्याणि	-2400
▁Edit	-2401
▁डेटा	-2402
▁स्पे	-2403
▁एतेषु	-2404
▁त्वया	-2405
▁त्वां	-2406
ंड	-2407
▁प्ल	-2408
▁शिर	-2409
स्तीति	-2410
र्था	-2411
▁कृतं	-2412
▁अस्मि	-2413
▁यूयम्	-2414
▁शरीरे	-2415
▁नाम्ना	-2416
▁बोक्स्	-2417
▁इन्स्टाल्	-2418
▁सर्व्वेषां	-2419
मिक	-2420
▁अम	-2421
▁int	-2422
▁रैट्	-2423
वासिनः	-2424
▁अस्मिन	-2425
▁तिष्ठति	-2426
▁j	-2427
▁x	-2428
निध	-2429
▁गा	-2430
क्ता	-2431
▁अप्	-2432
▁साकं	-2433
▁स्तर	-2434
कोर्ड्	-2435
▁spoken	-2436
▁चित्रे	-2437
▁एतस्मिन्	-2438
▁गृहीत्वा	-2439
▁सेमिकोलन्	-2440
pp	-2441
▁;	-2442
यदा	-2443
▁ar	-2444
▁बो	-2445
▁वह	-2446
कारण	-2447
लस्य	-2448
बोक्स्	-2449
▁तस्मा	-2450
▁निर्म	-2451
▁प्रसार	-2452
▁विद्या	-2453
▁इत्यादि	-2454
▁कथयामास	-2455
▁भविष्यन्ति	-2456
डे	-2457
सूच	-2458
▁Man	-2459
▁विव	-2460
रेटर्	-2461
▁अङ्क	-2462
▁जावा	-2463
▁वदति	-2464
▁फ़ैल्	-2465
▁प्रभाव	-2466
▁संस्थाप	-2467
गा	-2468
यू	-2469
ततो	-2470
साम	-2471
▁रो	-2472
▁सै	-2473
ार्थ	-2474
▁New	-2475
▁str	-2476
किमपि	-2477
दृश्य	-2478
ासनम्	-2479
िकाया	-2480
▁श्रो	-2481
▁कश्चन	-2482
▁ईश्वरो	-2483
RD	-2484
iv	-2485
ult	-2486
▁गुण	-2487
▁सब्	-2488
▁सिं	-2489
▁युगप	-2490
▁वेब्	-2491
▁उद्घट	-2492
▁समीपं	-2493
▁शिष्या	-2494
▁........	-2495
▁युष्माभिः	-2496
▁प्राप्नुमः	-2497
▁)	-2498
राज	-2499
▁अं	-2500
ेनल्	-2501
▁गति	-2502
▁समं	-2503
▁सरल	-2504
लियों	-2505
सहस्र	-2506
ावर्त	-2507
▁कर्ण	-2508
▁किया	-2509
▁क्रु	-2510
▁सन्ध	-2511
स्थाने	-2512
▁अर्जु	-2513
सर्वकार	-2514
पर्यन्तं	-2515
▁ज्ञातुं	-2516
▁दर्शितं	-2517
पाठेऽस्मिन्	-2518
रों	-2519
iles	-2520
करणं	-2521
रूपं	-2522
▁आदौ	-2523
▁फलं	-2524
▁उत्थ	-2525
▁मज्ज	-2526
िकायां	-2527
▁अवश्य	-2528
Account	-2529
▁पाठस्य	-2530
▁भारतीय	-2531
▁इत्युक्त	-2532
▁पूर्व्वं	-2533
ुर	-2534
HRD	-2535
ग्ध	-2536
्ये	-2537
▁Ex	-2538
अपरं	-2539
▁अरे	-2540
▁न्य	-2541
▁सां	-2542
ample	-2543
ृत्वा	-2544
▁मानव	-2545
▁अक्षर	-2546
▁अन्तः	-2547
▁प्राप्तवान्	-2548
रम	-2549
let	-2550
▁तम	-2551
▁पद	-2552
▁लाभ	-2553
सिद्ध	-2554
▁एवमेव	-2555
▁निर्ग	-2556
▁माध्य	-2557
01	-2558
ore	-2559
यतो	-2560
वयम	-2561
▁दो	-2562
▁यं	-2563
▁शो	-2564
ञ्चन	-2565
▁tool	-2566
▁तदेव	-2567
्यन्ते	-2568
▁print	-2569
▁समर्थ	-2570
▁पश्यति	-2571
मुपयुज्य	-2572
▁करणीयम्	-2573
▁कार्यशाल	-2574
घट	-2575
ash	-2576
गुण	-2577
युः	-2578
ance	-2579
क्रि	-2580
धानं	-2581
यमेव	-2582
▁लूप	-2583
▁सार	-2584
▁सोऽ	-2585
▁MHRD	-2586
▁layer	-2587
▁कर्त्तुं	-2588
▁व्यवस्था	-2589
कौ	-2590
फा	-2591
यन	-2592
rad	-2593
भूय	-2594
ैप्	-2595
▁5.	-2596
▁गम	-2597
रक्ष	-2598
लोड्	-2599
▁एतद	-2600
ितवान	-2601
▁परिच	-2602
्रेष्ठ	-2603
▁गच्छति	-2604
▁शक्नुम	-2605
eX	-2606
बु	-2607
acc	-2608
ill	-2609
tem	-2610
इती	-2611
कीय	-2612
धीरे	-2613
▁IDE	-2614
देशीय	-2615
▁quot	-2616
▁जगाद	-2617
▁राजा	-2618
▁विवृ	-2619
स्थानं	-2620
इत्यस्य	-2621
र्म्माण	-2622
▁मेन्यु	-2623
▁इत्येते	-2624
कत	-2625
▁+	-2626
नेव	-2627
मनु	-2628
ृति	-2629
▁कः	-2630
▁कल	-2631
▁तै	-2632
▁नै	-2633
▁री	-2634
ight	-2635
क्ते	-2636
निशि	-2637
▁नाश	-2638
▁फिरू	-2639
ितवन्त	-2640
▁एकस्य	-2641
ितमस्ति	-2642
ानुसारेण	-2643
▁रेकोर्ड्	-2644
cl	-2645
▁11	-2646
▁पश	-2647
▁फै	-2648
त्सु	-2649
माना	-2650
विषय	-2651
▁out	-2652
▁कतिप	-2653
▁बार्	-2654
ामीटर्	-2655
▁एक्स्	-2656
▁आगच्छन्तु	-2657
▁प्रत्येकं	-2658
मम्	-2659
िन्	-2660
ुःख	-2661
istr	-2662
देशे	-2663
indow	-2664
▁अनुस	-2665
▁मृत्य	-2666
▁पश्यन्ति	-2667
io	-2668
ice	-2669
घ्र	-2670
ायं	-2671
▁Re	-2672
▁बढ	-2673
▁शू	-2674
हस्त	-2675
▁अग्	-2676
▁दीप	-2677
नीयम्	-2678
▁सदृश	-2679
▁पुरुष	-2680
▁द्वादश	-2681
मेण्ट्स्	-2682
▁Student	-2683
▁आवृत्तिः	-2684
Accounting	-2685
rontAccounting	-2686
RL	-2687
बोध	-2688
हास	-2689
▁16	-2690
▁be	-2691
▁हृ	-2692
crip	-2693
ound	-2694
qual	-2695
क्षं	-2696
▁एक्	-2697
वर्त्त	-2698
▁अस्यां	-2699
▁चालयति	-2700
▁स्ट्रिङ्ग्	-2701
पद	-2702
▁9	-2703
पित	-2704
▁add	-2705
▁निर	-2706
दिश्य	-2707
▁आसन्	-2708
▁शक्य	-2709
▁निर्व	-2710
▁भवत्य	-2711
▁संवाद	-2712
▁प्राक्	-2713
ुमर्हन्ति	-2714
ख्रीष्टस्य	-2715
eb	-2716
cul	-2717
िकं	-2718
▁on	-2719
load	-2720
यितु	-2721
▁bar	-2722
▁पितर	-2723
▁यच्छ	-2724
▁सङ्कल	-2725
▁रचयन्तु	-2726
▁निर्दिष्ट	-2727
थं	-2728
माग	-2729
रोध	-2730
▁12	-2731
▁मेष	-2732
ourse	-2733
▁इण्ड	-2734
▁मस्ति	-2735
▁शीर्ष	-2736
▁ज्ञानं	-2737
▁सम्पाद	-2738
▁सूचयति	-2739
▁प्राणायाम	-2740
ee	-2741
हू	-2742
ite	-2743
न्तो	-2744
रूपे	-2745
▁कृष	-2746
▁तान	-2747
▁Book	-2748
▁मानु	-2749
▁समुप	-2750
▁अभवत्	-2751
▁तावत्	-2752
▁चत्वार	-2753
▁जानाति	-2754
▁परिशील	-2755
▁Firefox	-2756
▁प्रमाणप	-2757
▁यस्मिन्	-2758
▁प्राप्यते	-2759
▁युष्माकम्	-2760
लभ	-2761
ूह	-2762
ोर	-2763
ata	-2764
रेख	-2765
ेश्	-2766
▁My	-2767
▁पत	-2768
lock	-2769
word	-2770
▁पास	-2771
पेटिक	-2772
ितुम्	-2773
▁इम्प	-2774
▁दूरी	-2775
▁द्वौ	-2776
▁विनि	-2777
प्रत्य	-2778
फील्ड्	-2779
▁पूर्वतन	-2780
▁वर्तन्ते	-2781
▁भारतसर्वकार	-2782
अथ	-2783
ble	-2784
orm	-2785
ामे	-2786
▁Al	-2787
▁op	-2788
▁एषः	-2789
मार्ग	-2790
स्यते	-2791
ेभ्यो	-2792
▁डबल्	-2793
▁तस्याः	-2794
▁भ्रातृ	-2795
कल	-2796
शे	-2797
str	-2798
डल्	-2799
तुल	-2800
दिन	-2801
▁टु	-2802
▁तो	-2803
पुटे	-2804
रोति	-2805
ष्टा	-2806
▁con	-2807
र्द्ध	-2808
्वास्	-2809
▁आकाश	-2810
▁पत्र	-2811
▁प्रच	-2812
▁दास्य	-2813
▁उपयुक्त	-2814
▁परिवर्तनं	-2815
te	-2816
गे	-2817
AMP	-2818
यते	-2819
वती	-2820
ामह	-2821
▁कौ	-2822
AMPP	-2823
योगं	-2824
elect	-2825
▁परम्	-2826
▁class	-2827
▁इतीमे	-2828
▁विकास	-2829
▁हाथों	-2830
▁देशस्य	-2831
▁प्राचीन	-2832
▁ब्रौसर्	-2833
tt	-2834
षध	-2835
ीः	-2836
ign	-2837
नाया	-2838
वादं	-2839
▁आरभ	-2840
▁तैः	-2841
▁नोद	-2842
राज्य	-2843
स्राय	-2844
▁लब्ध	-2845
▁स्मर	-2846
कर्तुं	-2847
क्लिप्	-2848
युक्तं	-2849
विकल्प	-2850
▁तदानी	-2851
▁Moodle	-2852
▁पश्चाद्	-2853
लय	-2854
ाश	-2855
एवं	-2856
▁Ch	-2857
heck	-2858
नयोः	-2859
▁new	-2860
▁शेष	-2861
▁हथे	-2862
कृतिं	-2863
दिष्य	-2864
क्लिक्	-2865
▁equal	-2866
▁आंखों	-2867
▁स्क्र	-2868
▁समाप्त	-2869
▁नमस्कार	-2870
▁विषयान्	-2871
▁महत्वपूर्ण	-2872
own	-2873
urn	-2874
मिल	-2875
ब्रा	-2876
▁बना	-2877
▁साव	-2878
▁meth	-2879
▁भ्रा	-2880
▁उपयुञ्ज	-2881
▁उत्तीर्ण	-2882
ृहं	-2883
मन्य	-2884
ीशन्	-2885
निशिय	-2886
▁अनेक	-2887
▁यानि	-2888
▁योजन	-2889
ोऽस्ति	-2890
▁कुत्र	-2891
स्तिष्ठ	-2892
▁अध्याप	-2893
▁उत्थाप	-2894
▁आगच्छति	-2895
▁भारतस्य	-2896
▁भ्रातरः	-2897
▁निर्माणं	-2898
अव	-2899
ुक	-2900
▁y	-2901
तीव	-2902
ून्	-2903
ोक्	-2904
▁OS	-2905
demo	-2906
्लोक	-2907
▁एकः	-2908
▁पार	-2909
▁मोच	-2910
▁समु	-2911
minal	-2912
ouble	-2913
करोत्	-2914
द्धम्	-2915
ितस्य	-2916
▁धीरे	-2917
त्सर्ग	-2918
देशस्य	-2919
ान्तरं	-2920
▁जलस्य	-2921
▁भ्राम	-2922
▁method	-2923
▁कृष्णः	-2924
▁उक्तवान्	-2925
▁दत्तवान्	-2926
++	-2927
घ्	-2928
...	-2929
eac	-2930
erv	-2931
तिः	-2932
▁मध	-2933
▁पोष	-2934
etail	-2935
▁आरम्	-2936
▁डाट्	-2937
▁डिक्	-2938
▁भूमि	-2939
भवन्तः	-2940
वस्त्र	-2941
▁चेतुं	-2942
▁यीशुं	-2943
▁हस्तौ	-2944
▁कस्यापि	-2945
चरण	-2946
नाश	-2947
सन्	-2948
साध	-2949
▁हम	-2950
roll	-2951
कालं	-2952
प्रे	-2953
मेन्	-2954
▁अधि	-2955
▁अवद	-2956
earch	-2957
▁बहिः	-2958
ोल्डर्	-2959
▁अन्ते	-2960
▁number	-2961
▁इनिशिय	-2962
▁विश्वा	-2963
▁स्क्रोल्	-2964
छे	-2965
भूव	-2966
षाण	-2967
ऽहं	-2968
प्ट्	-2969
स्टम्	-2970
ब्राही	-2971
▁आत्मा	-2972
▁कुरुत	-2973
▁विषयं	-2974
▁श्वेत	-2975
▁स्वस्थ	-2976
▁रचयितुं	-2977
▁स्वास्थ	-2978
▁नियन्त्र	-2979
▁उपयुज्यते	-2980
टर	-2981
सल	-2982
ुट	-2983
णाय	-2984
दार	-2985
▁पौ	-2986
ुम्ब	-2987
कथयत्	-2988
▁लूप्	-2989
eacher	-2990
▁शरीरं	-2991
assword	-2992
erminal	-2993
▁अस्मान्	-2994
▁यत्किमपि	-2995
TeX	-2996
ध्व	-2997
न्व	-2998
हीं	-2999
ager	-3000
लम्ब	-3001
acket	-3002
प्राण	-3003
म्प्र	-3004
▁अतएव	-3005
▁कल्प	-3006
योजनम्	-3007
▁Admin	-3008
▁categ	-3009
▁पैरों	-3010
▁यतस्त	-3011
▁युवां	-3012
▁ड्राप्	-3013
▁क्षेत्र	-3014
▁गच्छामः	-3015
▁युष्मासु	-3016
▁प्रोजेक्ट्	-3017
ST	-3018
हित	-3019
ूनं	-3020
्रज	-3021
▁धू	-3022
▁मौ	-3023
ello	-3024
चिद्	-3025
▁भवती	-3026
▁इदानी	-3027
▁पृथक्	-3028
▁रचयाम	-3029
पङ्क्तौ	-3030
▁within	-3031
▁इण्टर्	-3032
▁सन्निध	-3033
▁bracket	-3034
▁प्रेरित	-3035
▁सञ्चिकायाः	-3036
ंद	-3037
मह	-3038
जनं	-3039
माः	-3040
▁धा	-3041
वस्त	-3042
▁इयं	-3043
▁पैर	-3044
वर्ड्	-3045
▁"""'	-3046
▁अपनी	-3047
▁ज्ञा	-3048
▁शक्त	-3049
▁ग्रन्	-3050
▁संसार	-3051
▁सत्यं	-3052
क्षेपेण	-3053
▁युष्मान	-3054
▁सर्व्वं	-3055
ex	-3056
ह्म	-3057
ारः	-3058
्यः	-3059
▁To	-3060
▁उभ	-3061
▁गत	-3062
ipse	-3063
स्तर	-3064
▁दूर	-3065
न्दर्	-3066
स्त्व	-3067
▁अध्य	-3068
▁आधार	-3069
▁करना	-3070
ुमर्हति	-3071
▁double	-3072
▁यच्छति	-3073
▁शक्ष्य	-3074
▁श्रद्ध	-3075
▁वेरियेबल्स्	-3076
डा	-3077
शो	-3078
▁"'	-3079
▁वस	-3080
द्वि	-3081
ष्मा	-3082
▁मनः	-3083
क्तिः	-3084
▁इमां	-3085
▁दिने	-3086
▁स्ने	-3087
कार्ड्	-3088
युक्ता	-3089
▁पर्या	-3090
▁संधार	-3091
▁quotes	-3092
▁तदानीं	-3093
▁एकस्मिन्	-3094
एत	-3095
दय	-3096
वर्	-3097
सस्	-3098
ापि	-3099
ायः	-3100
▁मै	-3101
र्जन	-3102
लैन्	-3103
ोऽपि	-3104
▁गवा	-3105
नानां	-3106
▁Name	-3107
▁परित्र	-3108
▁स्पेस्	-3109
▁कश्चिद्	-3110
▁आवश्यकता	-3111
टक	-3112
बो	-3113
मै	-3114
der	-3115
णेन	-3116
▁pl	-3117
hile	-3118
ings	-3119
पृष्ठ	-3120
▁नहीं	-3121
▁नियम	-3122
▁पर्व	-3123
उदाहरण	-3124
प्रच्छ	-3125
▁मानुष	-3126
▁रिक्तं	-3127
▁श्रेष्ठ	-3128
▁चित्रस्य	-3129
▁टङ्कयामि	-3130
be	-3131
gin	-3132
lic	-3133
omm	-3134
ator	-3135
क्षु	-3136
प्रा	-3137
▁इमं	-3138
▁वास	-3139
▁विप	-3140
वाक्य	-3141
▁त्री	-3142
▁शिमो	-3143
▁स्तः	-3144
लोकान्	-3145
▁जानीथ	-3146
▁बिन्द	-3147
▁उत्थाय	-3148
▁त्यक्त	-3149
▁नामानि	-3150
▁श्मशान	-3151
यिष्यामि	-3152
▁औट्पुट्	-3153
▁विलोक्य	-3154
▁स्वयमेव	-3155
▁परिवर्तयितुं	-3156
ICT	-3157
ातं	-3158
ेते	-3159
▁गी	-3160
ispl	-3161
ress	-3162
▁आर्	-3163
▁ऊपर	-3164
करणम्	-3165
▁पादौ	-3166
▁समाप	-3167
▁स्यु	-3168
पदार्थ	-3169
स्माभि	-3170
▁चतुर्	-3171
▁मृत्त	-3172
ानुसारं	-3173
▁चिह्नं	-3174
▁स्वकीय	-3175
▁निर्मित	-3176
▁पप्रच्छ	-3177
▁विशिष्ट	-3178
▁साम्प्र	-3179
दो	-3180
ish	-3181
und	-3182
▁कम	-3183
▁ताः	-3184
▁परा	-3185
▁मौल	-3186
▁रेख	-3187
▁वाय	-3188
त्पाद	-3189
पेक्ष	-3190
▁करते	-3191
▁निरी	-3192
▁बद्ध	-3193
▁वस्त	-3194
▁admin	-3195
▁आस्ते	-3196
▁पेनल्	-3197
▁बहूनि	-3198
▁लिखित	-3199
▁सृष्ट	-3200
▁वर्त्त	-3201
▁सन्तान	-3202
▁अन्तर्ज	-3203
▁देशवासिनः	-3204
▁कार्यशालां	-3205
फ्	-3206
वै	-3207
ert	-3208
ray	-3209
ttp	-3210
इन्	-3211
क्व	-3212
याज	-3213
▁नौ	-3214
ener	-3215
ions	-3216
िकित्	-3217
ेषाम्	-3218
▁केवल	-3219
▁क्षम	-3220
▁चर्च	-3221
▁जाते	-3222
isplay	-3223
▁सर्वा	-3224
▁अन्यत्	-3225
▁वार्त्त	-3226
▁वृक्षस्य	-3227
▁FrontAccounting	-3228
:/	-3229
AR	-3230
▁8	-3231
▁थ	-3232
opy	-3233
ीकु	-3234
▁कठ	-3235
कारं	-3236
ल्ट्	-3237
▁ममा	-3238
▁वंश	-3239
▁गृह्	-3240
▁प्रह	-3241
▁एकत्र	-3242
▁कृतम्	-3243
▁नृत्य	-3244
▁गन्तुं	-3245
▁प्रयास	-3246
▁सर्वदा	-3247
क्लिप्स्	-3248
▁इब्राही	-3249
▁इनिशियलै	-3250
▁दृश्यन्ते	-3251
▁उद्घाटयन्तु	-3252
शः	-3253
▁!	-3254
ift	-3255
ost	-3256
त्प	-3257
वंश	-3258
दीया	-3259
लेर्	-3260
ल्स्	-3261
िकाः	-3262
▁गाढ	-3263
▁नील	-3264
refer	-3265
तादृश	-3266
ैलाग्	-3267
▁अनुम	-3268
▁एतेन	-3269
▁दुःख	-3270
▁देशे	-3271
▁XAMPP	-3272
▁एडिट्	-3273
▁कार्ब	-3274
▁तृतीय	-3275
▁पृथ्व	-3276
▁विवृणो	-3277
टर्मिनल्	-3278
▁इत्येतं	-3279
▁इन्पुट्	-3280
▁डिक्लेर्	-3281
--	-3282
तुः	-3283
दाः	-3284
समा	-3285
mail	-3286
वासि	-3287
▁tab	-3288
▁शां	-3289
irect	-3290
वृक्ष	-3291
मासीत्	-3292
ितव्यं	-3293
▁निरूप	-3294
▁रात्र	-3295
▁श्वसन	-3296
क्षेत्र	-3297
▁इस्राय	-3298
▁Account	-3299
▁आश्चर्य	-3300
▁विकल्पः	-3301
▁सम्भवति	-3302
ितवानस्मि	-3303
ec	-3304
ँस	-3305
दौ	-3306
तरं	-3307
मेष	-3308
वता	-3309
ाली	-3310
ड्रे	-3311
नुमः	-3312
र्ब्	-3313
व्यः	-3314
▁|"""	-3315
▁कथम्	-3316
▁क्लो	-3317
▁बुक्	-3318
▁भवता	-3319
▁यच्च	-3320
▁र्वि	-3321
▁समीच	-3322
▁कुर्म	-3323
▁मुक्त	-3324
▁सहस्र	-3325
▁कस्मिन्	-3326
▁जालपुटे	-3327
निर्दिष्ट	-3328
पाठस्यास्य	-3329
ask	-3330
ide	-3331
iew	-3332
ज़्	-3333
मीन	-3334
िंश	-3335
ृतं	-3336
▁रह	-3337
ales	-3338
edit	-3339
त्तर	-3340
प्रो	-3341
ाद्व	-3342
ैश्च	-3343
▁not	-3344
▁अंश	-3345
▁ताड	-3346
▁पशु	-3347
▁योष	-3348
▁सत्	-3349
ences	-3350
ories	-3351
क्ष्ण	-3352
जातीय	-3353
द्वित	-3354
मात्र	-3355
▁चयनं	-3356
▁16.04	-3357
▁उपरित	-3358
▁यीशुर	-3359
परिवर्त	-3360
▁इतोऽपि	-3361
▁ग्रन्थ	-3362
▁प्रदत्त	-3363
▁प्रियाः	-3364
▁सर्व्वाणि	-3365
NA	-3366
ry	-3367
जो	-3368
फि	-3369
ank	-3370
परा	-3371
में	-3372
वद्	-3373
▁आध	-3374
▁नर	-3375
▁फि	-3376
▁भर	-3377
बेस्	-3378
ूर्ण	-3379
▁उपा	-3380
▁विभ	-3381
कारिण	-3382
▁http	-3383
▁आवां	-3384
▁एकम्	-3385
▁एतद्	-3386
▁तत्त	-3387
िकेशन्	-3388
▁आदेशं	-3389
▁परिष्	-3390
▁पाठनि	-3391
▁राज्य	-3392
श्वरस्य	-3393
▁केनापि	-3394
▁तेभ्यः	-3395
▁र्यीशु	-3396
र्म्माणि	-3397
▁अस्मासु	-3398
▁सुसंवाद	-3399
▁कण्डीशन्	-3400
एक	-3401
टल	-3402
णम	-3403
तल	-3404
पत	-3405
फु	-3406
put	-3407
ितु	-3408
▁कप	-3409
▁छि	-3410
तस्त	-3411
विधि	-3412
सदृश	-3413
▁get	-3414
स्थाय	-3415
न्यङ्क	-3416
मास्ते	-3417
▁रङ्गसे	-3418
▁जानन्ति	-3419
▁इत्यनयोः	-3420
▁कुर्यात्	-3421
▁ओब्जेक्ट्स्	-3422
▁इत्यस्यान्तः	-3423
omp	-3424
ङ्घ	-3425
टम्	-3426
निज	-3427
रोग	-3428
▁if	-3429
न्नं	-3430
ामिन	-3431
▁अनि	-3432
▁इतः	-3433
▁दें	-3434
▁Cont	-3435
▁main	-3436
▁कुतो	-3437
▁तदनु	-3438
▁प्रज	-3439
▁बन्ध	-3440
▁बभाष	-3441
▁विरु	-3442
▁स्वं	-3443
▁अभ्या	-3444
▁गौरवं	-3445
▁ग्राम	-3446
▁जातम्	-3447
▁जानाम	-3448
▁वर्णं	-3449
▁उपलभ्य	-3450
▁लोकानां	-3451
▁सन्देशं	-3452
▁भविष्यद्वादि	-3453
▁प्राप्नुवन्ति	-3454
df	-3455
ly	-3456
जे	-3457
वह	-3458
ूष	-3459
▁’	-3460
://	-3461
log	-3462
यतः	-3463
रोह	-3464
ादृ	-3465
ाहं	-3466
ेषा	-3467
▁दै	-3468
atab	-3469
MEICT	-3470
▁कमपि	-3471
▁जन्म	-3472
▁टैप्	-3473
▁परित	-3474
▁पेज्	-3475
▁सेव्	-3476
▁स्लै	-3477
वदस्ति	-3478
▁उत्तम	-3479
▁यावद्	-3480
▁युक्त	-3481
▁वृद्ध	-3482
▁शुद्ध	-3483
ication	-3484
अस्माकं	-3485
▁जानीमः	-3486
क्षेत्रे	-3487
▁डौन्लोड्	-3488
▁सञ्चिकाः	-3489
▁ध्वन्यङ्क	-3490
▁पेरामीटर्	-3491
▁तत्सम्बद्ध	-3492
लु	-3493
ron	-3494
एकं	-3495
कोश	-3496
द्द	-3497
धाय	-3498
पुर	-3499
हिए	-3500
िनी	-3501
▁do	-3502
▁पल	-3503
अन्य	-3504
टेन्	-3505
न्ता	-3506
▁Des	-3507
▁ICT	-3508
▁min	-3509
▁चरण	-3510
▁र्म	-3511
▁सुख	-3512
ument	-3513
कृष्ण	-3514
याञ्च	-3515
र्य्य	-3516
etails	-3517
न्त्रे	-3518
▁तेषाम	-3519
▁प्रेर	-3520
▁विस्म	-3521
▁उत्तमं	-3522
▁लोकान्	-3523
▁विश्वस	-3524
निमित्तं	-3525
▁"""""""	-3526
▁शारीरिक	-3527
▁सम्बद्ध	-3528
▁इण्डेक्स्	-3529
▁इत्युक्ते	-3530
▁स्थापयामि	-3531
▁परिवर्तनानि	-3532
ln	-3533
णः	-3534
तृ	-3535
थः	-3536
अपर	-3537
औट्	-3538
कता	-3539
▁टि	-3540
▁डै	-3541
▁था	-3542
वस्थ	-3543
समीप	-3544
्लाघ	-3545
▁अंग	-3546
▁पदा	-3547
▁विट	-3548
तायाः	-3549
ोल्ट्	-3550
्याम्	-3551
▁Java	-3552
▁date	-3553
▁काले	-3554
▁जमीन	-3555
▁दायू	-3556
▁यज्ञ	-3557
▁याकू	-3558
clipse	-3559
ानाञ्च	-3560
पार्श्व	-3561
▁ईश्वरः	-3562
▁टङ्कनं	-3563
▁डैलाग्	-3564
▁सम्मुख	-3565
▁प्रयोगं	-3566
▁ज्ञात्वा	-3567
▁पर्यन्तं	-3568
▁रेकार्ड्	-3569
▁विद्यार्थ	-3570
ef	-3571
गो	-3572
बं	-3573
cal	-3574
म्य	-3575
वाः	-3576
ातो	-3577
ेति	-3578
▁आय	-3579
त्ति	-3580
ान्व	-3581
ुपरि	-3582
▁देख	-3583
▁नाग	-3584
शक्ति	-3585
सर्पि	-3586
▁जानु	-3587
▁बभूव	-3588
▁भागः	-3589
▁वर्ग	-3590
▁असैन्	-3591
▁चाहिए	-3592
▁शीघ्र	-3593
▁अन्तिम	-3594
▁गमिष्य	-3595
▁नाम्नः	-3596
▁उत्सर्ग	-3597
▁कीवर्ड्	-3598
▁प्रक्रिय	-3599
▁प्रधानयाज	-3600
▁सर्व्वान्	-3601
ैत	-3602
ppl	-3603
ute	-3604
दूत	-3605
्ले	-3606
कम्प	-3607
सङ्क	-3608
ानम्	-3609
▁बोध	-3610
erial	-3611
▁मत्त	-3612
▁माता	-3613
▁शिथि	-3614
नाम्ना	-3615
स्थितौ	-3616
▁आरम्भ	-3617
▁करणम्	-3618
▁मित्र	-3619
▁येषां	-3620
▁धर्म्म	-3621
▁स्वस्य	-3622
▁अस्माकम्	-3623
▁करिष्यति	-3624
▁फ़ङ्क्षन्	-3625
▁इत्येतेभ्यः	-3626
▁प्राप्तवदस्ति	-3627
ix	-3628
वर	-3629
000	-3630
fig	-3631
oog	-3632
uct	-3633
ण्व	-3634
दास	-3635
म्न	-3636
▁ही	-3637
क्री	-3638
▁नित	-3639
▁मात	-3640
oogle	-3641
फ़ेस्	-3642
ान्तं	-3643
▁गृहे	-3644
र्म्मा	-3645
▁नेत्र	-3646
▁पश्यत	-3647
▁अन्वेष	-3648
▁प्रकल्पः	-3649
▁प्रत्याग	-3650
▁अधिकविवरणार्थं	-3651
खि	-3652
जि	-3653
सौ	-3654
▁Y	-3655
ace	-3656
alk	-3657
loy	-3658
सरे	-3659
▁बे	-3660
▁लै	-3661
डियो	-3662
ेतुं	-3663
▁गाय	-3664
कृत्य	-3665
▁पाठं	-3666
▁फैल्	-3667
▁उत्तर	-3668
▁बृहत्	-3669
▁रिक्त	-3670
▁विहाय	-3671
atabase	-3672
यिष्यते	-3673
▁ईश्वरं	-3674
▁त्रीणि	-3675
▁धृत्वा	-3676
▁मन्यते	-3677
▁अवसर्पि	-3678
▁पुस्तकं	-3679
▁मनुष्या	-3680
▁साहाय्यं	-3681
▁सञ्चिकायां	-3682
▁किन्त्वीश्व	-3683
ff	-3684
उप	-3685
पेश	-3686
ल्य	-3687
सिक	-3688
▁it	-3689
लेट्	-3690
ायाज	-3691
ाश्च	-3692
ित्व	-3693
▁भजन	-3694
श्यते	-3695
▁नम्र	-3696
▁भवान	-3697
▁सेना	-3698
तदानीं	-3699
भवन्ति	-3700
भ्याम्	-3701
▁अङ्गु	-3702
इदानीम्	-3703
▁चिनुमः	-3704
▁मन्त्र	-3705
▁वयमत्र	-3706
▁विवरणं	-3707
ge	-3708
दध	-3709
les	-3710
rou	-3711
ङ्ख	-3712
भवं	-3713
यनं	-3714
वाय	-3715
arks	-3716
दण्ड	-3717
ल्यू	-3718
ाप्र	-3719
▁आया	-3720
▁गीत	-3721
▁पर्	-3722
▁लप्	-3723
▁सदा	-3724
▁सभी	-3725
काणां	-3726
टर्न्	-3727
वर्णं	-3728
व्यां	-3729
श्वास	-3730
ष्यते	-3731
▁Item	-3732
▁ग्रह	-3733
▁छोड़	-3734
▁ज्यो	-3735
▁तर्ह	-3736
▁वायु	-3737
▁कूर्च	-3738
▁यीशोः	-3739
▁स्युः	-3740
मित्तम्	-3741
▁एकाग्र	-3742
▁पृष्ठे	-3743
▁कदाचित्	-3744
▁व्यायाम	-3745
▁सिस्टम्	-3746
▁अन्तर्जाल	-3747
▁उद्घाटितं	-3748
▁एक्लिप्स्	-3749
▁अवलोकयन्तु	-3750
oo	-3751
ww	-3752
टं	-3753
ेक	-3754
ेज	-3755
ens	-3756
कूल	-3757
▁ii	-3758
नान्	-3759
माने	-3760
शब्द	-3761
िकार	-3762
▁सिर	-3763
reate	-3764
्लोक्	-3765
▁form	-3766
▁अग्र	-3767
▁लम्ब	-3768
▁अभवन्	-3769
▁त्वयि	-3770
▁ददामि	-3771
▁यूसर्	-3772
च्चित्र	-3773
▁सङ्ख्य	-3774
▁अस्मभ्यं	-3775
▁कार्याणि	-3776
▁केन्वास्	-3777
▁प्रसिद्ध	-3778
▁फङ्क्षन्	-3779
:)	-3780
गर	-3781
यह	-3782
जान	-3783
मिव	-3784
वेष	-3785
▁OK	-3786
▁al	-3787
द्यः	-3788
ीचर्	-3789
ेच्छ	-3790
्य्य	-3791
▁The	-3792
▁उल्	-3793
▁मदद	-3794
▁मेल	-3795
ource	-3796
क्रमे	-3797
भ्रात	-3798
िनश्च	-3799
▁अल्प	-3800
▁सांस	-3801
मन्त्र	-3802
▁अर्था	-3803
▁प्रशं	-3804
account	-3805
विश्वास	-3806
▁निक्षि	-3807
▁परिणाम	-3808
▁प्रमुख	-3809
▁contact	-3810
▁ज्ञायते	-3811
▁प्राप्स्य	-3812
',	-3813
पी	-3814
ण्क	-3815
न्ह	-3816
फ़्	-3817
सां	-3818
ेने	-3819
कारी	-3820
▁नीच	-3821
▁वित	-3822
चार्य	-3823
दृष्ट	-3824
्वेर्	-3825
▁home	-3826
▁अस्थ	-3827
▁टण्क	-3828
▁भ्रम	-3829
क्ष्यं	-3830
र्ग्यु	-3831
▁ततस्त	-3832
▁पाषाण	-3833
▁युद्ध	-3834
▁श्लोक	-3835
न्दर्भे	-3836
▁बाक्स्	-3837
▁इच्छामि	-3838
▁दक्षिणतः	-3839
▁उद्घाट्यते	-3840
▁स्थापयन्तु	-3841
अत	-3842
.10	-3843
IMP	-3844
ush	-3845
मेत	-3846
िको	-3847
ृता	-3848
▁,"	-3849
▁ति	-3850
दिने	-3851
भागं	-3852
▁दूत	-3853
▁मास	-3854
स्थित	-3855
▁,"""	-3856
▁Tool	-3857
▁page	-3858
▁type	-3859
▁भवते	-3860
▁शत्र	-3861
त्वात्	-3862
▁आनन्द	-3863
▁कथयति	-3864
▁दत्वा	-3865
▁स्थित	-3866
▁इच्छति	-3867
▁उत्पाद	-3868
▁कथयामि	-3869
▁गतवान्	-3870
▁Manager	-3871
▁कीलकानि	-3872
▁उपयोक्तृ	-3873
▁प्रारम्भ	-3874
▁यीशुख्रीष्ट	-3875
os	-3876
च्	-3877
प्प	-3878
षिक	-3879
ीना	-3880
▁सत	-3881
ient	-3882
त्वे	-3883
लिया	-3884
▁Con	-3885
▁Cur	-3886
▁cur	-3887
▁नाव	-3888
▁वह्	-3889
▁यश्च	-3890
▁यीशो	-3891
▁कीलकं	-3892
▁नुत्त	-3893
▁static	-3894
▁तस्यां	-3895
▁न्यूनं	-3896
▁भ्राता	-3897
▁व्याहर	-3898
▁स्पष्ट	-3899
cription	-3900
प्रक्रिय	-3901
▁जालपुटं	-3902
▁प्रमाणं	-3903
▁सूक्ष्म	-3904
▁परित्राण	-3905
▁विकल्पाः	-3906
दः	-3907
वय	-3908
ape	-3909
करणे	-3910
केज्	-3911
चारं	-3912
▁org	-3913
▁res	-3914
▁कुछ	-3915
▁जनः	-3916
▁नान	-3917
▁पूप	-3918
इतीदं	-3919
चित्य	-3920
च्छाद	-3921
ाणाम्	-3922
▁एतां	-3923
▁एताः	-3924
▁बहवो	-3925
▁अनन्त	-3926
▁आदेशः	-3927
▁सङ्गण	-3928
निर्माण	-3929
▁पश्यतु	-3930
▁महायाज	-3931
▁तीक्ष्ण	-3932
▁पत्राणि	-3933
▁फोल्डर्	-3934
▁विश्वसि	-3935
प्रक्रिया	-3936
▁सूर्यस्य	-3937
▁/	-3938
rep	-3939
top	-3940
िनो	-3941
▁उस	-3942
दिना	-3943
र्वर	-3944
वर्ध	-3945
▁औषध	-3946
▁गाल	-3947
▁तम्	-3948
▁वेद	-3949
क्षाल	-3950
वस्तु	-3951
विद्य	-3952
▁पराव	-3953
वादीत्	-3954
विद्या	-3955
स्तान्	-3956
▁क्रोध	-3957
▁साधनं	-3958
▁उपरितन	-3959
▁प्रयत्	-3960
▁समुद्र	-3961
▁स्नेहं	-3962
▁ईश्वरीय	-3963
▁ग्रन्था	-3964
▁परमेश्व	-3965
▁सर्वान्	-3966
▁कर्षयामि	-3967
▁नुत्त्वा	-3968
▁प्रविश्य	-3969
▁सङ्ख्यां	-3970
references	-3971
▁राष्ट्रिय	-3972
▁स्वास्थ्य	-3973
AC	-3974
जग	-3975
जब	-3976
nal	-3977
rom	-3978
अरे	-3979
ञ्छ	-3980
तोऽ	-3981
नगर	-3982
mage	-3983
विंश	-3984
▁URL	-3985
▁इदम	-3986
loyee	-3987
▁गण्ड	-3988
▁साँस	-3989
Spoken	-3990
दक्षिण	-3991
प्रथमं	-3992
▁Class	-3993
▁अस्मै	-3994
▁इमान्	-3995
▁उपविश	-3996
▁कतिपय	-3997
▁निवार	-3998
▁पुरात	-3999
▁फिरूश	-4000
▁बुध्य	-4001
▁भोज्य	-4002
ettings	-4003
▁किञ्चि	-4004
▁तन्त्र	-4005
▁वदन्ति	-4006
▁सम्बन्ध	-4007
▁इम्पोर्ट्	-4008
▁पृष्टवान्	-4009
▁यिरूशालम्	-4010
:-	-4011
सिं	-4012
▁En	-4013
खायः	-4014
सेना	-4015
▁नार	-4016
▁लें	-4017
atron	-4018
संधार	-4019
▁Code	-4020
▁चक्र	-4021
▁तच्च	-4022
▁पीछे	-4023
▁महान	-4024
ground	-4025
अपरञ्च	-4026
िकायाः	-4027
▁करवाम	-4028
▁कीलफल	-4029
▁निम्न	-4030
▁निवेद	-4031
▁निवेश	-4032
▁प्रीय	-4033
वर्णस्य	-4034
स्माकम्	-4035
▁Window	-4036
▁कथमिति	-4037
▁जानामि	-4038
▁स्कन्ध	-4039
▁Project	-4040
▁आत्मानं	-4041
▁गच्छामि	-4042
▁धन्यवाद	-4043
▁विटामिन	-4044
▁category	-4045
▁इत्याख्य	-4046
▁द्वितीयं	-4047
▁इत्यादीनि	-4048
▁उद्घट्यते	-4049
▁पाठेऽस्मिन्	-4050
बे	-4051
शत	-4052
ARC	-4053
▁अर	-4054
बार्	-4055
ांशं	-4056
▁आहू	-4057
▁पेट	-4058
▁वाद	-4059
▁शीत	-4060
चारिण	-4061
ोपयोग	-4062
▁एवम्	-4063
▁मौस्	-4064
तेषाम्	-4065
र्थात्	-4066
्वर्ड्	-4067
▁अग्नि	-4068
▁अपरम्	-4069
▁आरब्ध	-4070
▁टीचर्	-4071
▁विनयं	-4072
▁इत्यतः	-4073
▁कर्तुम	-4074
▁पुनरपि	-4075
▁यथार्थ	-4076
▁प्रायेण	-4077
▁मस्तिष्	-4078
▁प्रतिज्ञ	-4079
▁मूल्यानि	-4080
▁विभागस्य	-4081
▁पृथिव्यां	-4082
▁विद्यन्ते	-4083
▁अधोनिर्दिष्ट	-4084
50	-4085
AST	-4086
com	-4087
ror	-4088
कां	-4089
दोष	-4090
▁वन	-4091
aTeX	-4092
जेट्	-4093
ज्जन	-4094
भिरे	-4095
▁आप्	-4096
▁roll	-4097
▁गुरो	-4098
▁शस्य	-4099
▁सर्प	-4100
चिह्नं	-4101
यन्त्र	-4102
▁गृह्ण	-4103
▁दुष्ट	-4104
▁दोनों	-4105
▁लोकाः	-4106
▁श्लाघ	-4107
▁सन्तु	-4108
▁परित्य	-4109
▁यद्यपि	-4110
▁सम्पर्	-4111
▁अवशिष्ट	-4112
▁प्रश्ना	-4113
▁यन्त्रे	-4114
▁username	-4115
▁अक्षराणि	-4116
▁साम्प्रतं	-4117
▁इनिशियलैस्	-4118
▁इण्टर्फ़ेस्	-4119
sp	-4120
ओं	-4121
नौ	-4122
भग	-4123
ier	-4124
जन्	-4125
मार	-4126
▁लौ	-4127
दिनं	-4128
शक्त	-4129
िकया	-4130
▁Sub	-4131
▁कीट	-4132
▁तार	-4133
▁दात	-4134
alcul	-4135
धिकार	-4136
पुस्त	-4137
मिदम्	-4138
ानस्य	-4139
▁this	-4140
▁अर्ह	-4141
▁आयोज	-4142
▁कर्म	-4143
▁निवस	-4144
▁सूची	-4145
▁block	-4146
▁आनयेत	-4147
▁द्वार	-4148
Details	-4149
mployee	-4150
न्मध्ये	-4151
▁प्रविश	-4152
▁Eclipse	-4153
▁अन्यानि	-4154
▁एक्सेस्	-4155
▁क्षुद्र	-4156
▁मेथड्स्	-4157
▁माध्यमेन	-4158
▁विश्वासं	-4159
ax	-4160
जं	-4161
शल	-4162
ोद	-4163
enu	-4164
स्क	-4165
ाता	-4166
▁Un	-4167
▁en	-4168
ream	-4169
भागः	-4170
भोजन	-4171
ुदेव	-4172
▁जिस	-4173
▁राग	-4174
दर्थं	-4175
▁ग्रा	-4176
▁हेरो	-4177
ervlet	-4178
▁Hello	-4179
▁क्रमश	-4180
▁दुग्ध	-4181
▁निकटे	-4182
▁लेयर्	-4183
ownload	-4184
▁उच्यते	-4185
▁गच्छतु	-4186
▁फाक्स्	-4187
▁लभ्यते	-4188
▁सामर्थ	-4189
▁योजयितुं	-4190
▁वाक्यानि	-4191
▁सार्द्धम्	-4192
▁प्रत्येकमपि	-4193
▁परिवर्तयन्तु	-4194
."	-4195
In	-4196
ूढ	-4197
PAC	-4198
गोच	-4199
द्घ	-4200
ीन्	-4201
▁Dr	-4202
▁जै	-4203
▁पह	-4204
etbe	-4205
कश्च	-4206
द्रा	-4207
यमपि	-4208
राद्	-4209
वर्य	-4210
सन्ध	-4211
ाङ्क	-4212
▁उंग	-4213
▁धाव	-4214
कृतिक	-4215
वर्णः	-4216
ुमारे	-4217
ोर्मे	-4218
▁item	-4219
▁ग्रे	-4220
▁जातं	-4221
▁यद्व	-4222
▁रेखा	-4223
▁कीदृश	-4224
▁क्रमे	-4225
▁जागरू	-4226
▁फलानि	-4227
▁बभाषे	-4228
▁योहन्	-4229
नन्तरम्	-4230
▁अस्याः	-4231
▁गच्छाम	-4232
▁दर्शनं	-4233
▁निर्म्	-4234
▁भवत्सु	-4235
▁साहाय्य	-4236
▁विश्वस्य	-4237
▁पास्वर्ड्	-4238
णीय	-4239
्ति	-4240
cord	-4241
itle	-4242
ध्यं	-4243
नाति	-4244
मात्	-4245
सम्प	-4246
सिस्	-4247
tring	-4248
ास्ति	-4249
▁GIMP	-4250
▁plus	-4251
▁क्वि	-4252
▁मनां	-4253
▁वाले	-4254
▁सज्ज	-4255
तदर्थं	-4256
प्रकाश	-4257
स्प्ले	-4258
िकित्स	-4259
▁11.10	-4260
▁आवर्त	-4261
▁एतासु	-4262
▁मूडल्	-4263
▁मूल्य	-4264
क्ष्यति	-4265
सङ्ख्या	-4266
▁direct	-4267
▁ततस्ते	-4268
▁वदिष्य	-4269
▁सन्देश	-4270
▁धेनवस्य	-4271
▁प्राणान्	-4272
▁स्वच्छता	-4273
भविष्यद्वा	-4274
▁आब्जेक्ट्	-4275
▁एलिमेण्ट्	-4276
▁ख्रीष्टेन	-4277
get	-4278
यात	-4279
▁Tr	-4280
▁हर	-4281
cape	-4282
ical	-4283
olon	-4284
rame	-4285
uper	-4286
युतं	-4287
रिया	-4288
ष्टि	-4289
▁आचर	-4290
▁कण्	-4291
▁किय	-4292
▁ट्र	-4293
▁शिश	-4294
ज्ञाय	-4295
▁आज्ञ	-4296
▁आवलि	-4297
▁आश्र	-4298
▁एकां	-4299
▁त्या	-4300
▁पर्च	-4301
▁कर्लि	-4302
▁जीवनं	-4303
▁तदर्थ	-4304
etbeans	-4305
▁आसनानि	-4306
▁ज्योति	-4307
▁तेषाम्	-4308
▁नीत्वा	-4309
▁बहिराग	-4310
▁कम्पैल्	-4311
▁प्रस्तु	-4312
▁password	-4313
▁पर्यावरण	-4314
▁उदाहरणार्थं	-4315
ंच	-4316
ध्	-4317
मय	-4318
मल	-4319
षे	-4320
ून	-4321
ust	-4322
▁लग	-4323
▁शप	-4324
क्षम	-4325
खण्ड	-4326
त्मक	-4327
दत्त	-4328
विधे	-4329
ष्णु	-4330
ामहै	-4331
▁Ind	-4332
▁काम	-4333
▁छोड	-4334
▁बहव	-4335
mport	-4336
tions	-4337
ध्याय	-4338
निश्च	-4339
संगीत	-4340
▁grad	-4341
▁उचित	-4342
▁नोड्	-4343
▁वात्	-4344
▁Gener	-4345
▁minus	-4346
▁कुर्य	-4347
▁तेभ्य	-4348
शिक्षणं	-4349
▁द्रष्ट	-4350
▁समीपम्	-4351
▁स्वीकु	-4352
▁एतादृशं	-4353
▁प्रत्यु	-4354
▁यस्मात्	-4355
▁विस्तार	-4356
▁डेटाबेस्	-4357
▁हथेलियों	-4358
▁चलच्चित्र	-4359
▁निर्मातुं	-4360
ट्युटोरियल्	-4361
इड	-4362
इस	-4363
मौ	-4364
सै	-4365
oll	-4366
गणः	-4367
ेड्	-4368
▁tr	-4369
roup	-4370
त्यः	-4371
पाठे	-4372
पेशि	-4373
भिला	-4374
▁Col	-4375
▁Mar	-4376
▁sem	-4377
▁कोश	-4378
▁बैठ	-4379
▁सीव	-4380
देश्य	-4381
माध्य	-4382
▁User	-4383
▁अष्ट	-4384
▁गृहं	-4385
▁नूनं	-4386
▁स्रो	-4387
कारस्य	-4388
ग्रन्थ	-4389
मानानि	-4390
स्थिति	-4391
▁Sales	-4392
▁files	-4393
▁कर्तु	-4394
▁नुदाम	-4395
▁समस्त	-4396
▁सुन्द	-4397
▁पुटस्य	-4398
▁यूयमपि	-4399
▁स्थितौ	-4400
election	-4401
तदनन्तरं	-4402
प्रकारेण	-4403
▁println	-4404
▁त्यजामि	-4405
▁यथार्थं	-4406
लोक्यताम्	-4407
▁इत्यस्ति	-4408
▁उद्घाट्य	-4409
.4	-4410
are	-4411
one	-4412
ड़ी	-4413
▁An	-4414
▁अच	-4415
▁अल	-4416
▁कव	-4417
ब्दं	-4418
स्ती	-4419
ामेव	-4420
▁sub	-4421
▁दिव	-4422
▁मरि	-4423
erver	-4424
ublic	-4425
एवमेव	-4426
च्छत्	-4427
त्थाप	-4428
▁अतीव	-4429
▁धर्म	-4430
▁मांस	-4431
ackage	-4432
ज्ञानं	-4433
त्रस्य	-4434
फाल्ट्	-4435
▁Inter	-4436
▁अधिका	-4437
▁गृह्ल	-4438
▁परञ्च	-4439
▁विक्र	-4440
▁संगीत	-4441
▁एकवारं	-4442
▁चन्द्र	-4443
▁तादृशं	-4444
▁प्रभोः	-4445
▁मार्क्	-4446
▁यन्त्र	-4447
▁यस्मिन	-4448
▁शिमोन्	-4449
▁भवत्यां	-4450
▁रङ्गसेचनं	-4451
▁यिहूदीयानां	-4452
▁इतीदमुपयुज्य	-4453
अह	-4454
mpt	-4455
चाल	-4456
ेदं	-4457
▁ls	-4458
▁उठ	-4459
▁हठ	-4460
Name	-4461
ypes	-4462
केप्	-4463
ड्मि	-4464
त्सम	-4465
र्ति	-4466
वदन्	-4467
वादि	-4468
श्वस	-4469
ीजर्	-4470
ेषन्	-4471
▁100	-4472
▁तमा	-4473
▁र्ग	-4474
▁विक	-4475
ating	-4476
तीनां	-4477
द्घाट	-4478
भवतां	-4479
स्तत्	-4480
ानन्द	-4481
ासीत्	-4482
▁Appl	-4483
▁इण्ट	-4484
▁कापि	-4485
▁जातः	-4486
▁नवीन	-4487
▁यावत	-4488
▁समूह	-4489
ात्मना	-4490
▁आरभ्य	-4491
▁गुप्त	-4492
▁विपरी	-4493
▁स्तरं	-4494
ज्ञानिक	-4495
ानुग्रह	-4496
▁NMEICT	-4497
▁उपलब्ध	-4498
▁कृतवान	-4499
▁केवलम्	-4500
▁छात्रः	-4501
▁प्रभुः	-4502
▁वात्सल	-4503
▁सन्धार	-4504
▁सिंहास	-4505
पश्यन्तु	-4506
▁अस्मदीय	-4507
▁नम्रतां	-4508
▁स्वीकृत	-4509
▁इच्छन्ति	-4510
▁रक्षितुं	-4511
▁सुसंवादं	-4512
▁युष्मानहं	-4513
▁विकल्पान्	-4514
▁प्रकल्पस्य	-4515
▁विश्रामवार	-4516
▁सेट्टिङ्ग्	-4517
▁विद्यमानानि	-4518
ree	-4519
rop	-4520
कथा	-4521
तेः	-4522
दनं	-4523
ब्ल	-4524
रेक	-4525
सूस	-4526
ह्व	-4527
▁गद	-4528
▁नी	-4529
▁पट	-4530
ages	-4531
ence	-4532
ktop	-4533
ntry	-4534
ण्डौ	-4535
त्स्	-4536
नगरं	-4537
माचर	-4538
मानः	-4539
रचना	-4540
ष्णं	-4541
▁घुट	-4542
▁जां	-4543
▁प्य	-4544
▁बंद	-4545
▁comm	-4546
▁तावत	-4547
▁नक्ष	-4548
▁नीचे	-4549
▁व्रज	-4550
ournal	-4551
पर्य्य	-4552
ामिमां	-4553
ितानां	-4554
▁कृपां	-4555
▁पिञ्ज	-4556
▁महसूस	-4557
▁यस्या	-4558
▁स्थिर	-4559
▁क्रुशे	-4560
▁नासिका	-4561
▁नुदामः	-4562
▁अभ्यासं	-4563
ङ्क्षन्स्	-4564
▁उपलभ्यते	-4565
▁प्रददाति	-4566
न्निमित्तं	-4567
▁प्रशिक्षण	-4568
▁परिवर्तयामि	-4569
ss	-4570
ंस	-4571
षं	-4572
ाज	-4573
eld	-4574
काम	-4575
चतु	-4576
पेट	-4577
रुप	-4578
वां	-4579
िरे	-4580
ुप्	-4581
▁20	-4582
▁Ar	-4583
idth	-4584
ield	-4585
lose	-4586
अनेन	-4587
कर्ष	-4588
दात्	-4589
नीया	-4590
स्टे	-4591
▁Aut	-4592
▁set	-4593
▁अवग	-4594
▁आयु	-4595
▁गोप	-4596
▁तरह	-4597
▁पीड	-4598
▁बार	-4599
▁हरि	-4600
bject	-4601
तायां	-4602
▁text	-4603
▁क्या	-4604
▁क्रम	-4605
▁पुटे	-4606
▁फैर्	-4607
▁लिखत	-4608
▁शङ्क	-4609
व्यानि	-4610
ान्त्व	-4611
▁इमेज्	-4612
▁चेष्ट	-4613
▁टेबल्	-4614
▁परितः	-4615
▁पुण्य	-4616
▁प्रिय	-4617
▁भारते	-4618
▁शिथिल	-4619
रिष्यति	-4620
स्तर्हि	-4621
ानार्थं	-4622
▁निर्वह	-4623
▁प्रवेश	-4624
▁ब्रह्म	-4625
▁मौल्यं	-4626
▁रामस्य	-4627
▁वृक्षा	-4628
▁संयोजन	-4629
▁कृतवन्त	-4630
▁एकाग्रता	-4631
▁परिपूर्ण	-4632
▁प्रविष्ट	-4633
▁इत्येतानि	-4634
▁करणीयमिति	-4635
▁वात्सल्यं	-4636
▁वृक्षाणां	-4637
▁पाठस्यास्य	-4638
▁प्रमाणपत्र	-4639
▁प्रत्यावर्त	-4640
Re	-4641
St	-4642
sh	-4643
ger	-4644
दैव	-4645
महो	-4646
य्य	-4647
▁ab	-4648
."""	-4649
aint	-4650
else	-4651
ंश्च	-4652
जस्य	-4653
प्रि	-4654
भूत्	-4655
▁बाद	-4656
▁शुभ	-4657
▁सोप	-4658
ingle	-4659
inish	-4660
कर्ता	-4661
जन्यं	-4662
नकाले	-4663
नृत्य	-4664
ान्तर	-4665
▁MARC	-4666
▁दिना	-4667
▁सेवा	-4668
▁स्वर	-4669
ड्रेस्	-4670
ापेक्ष	-4671
▁क्लेश	-4672
▁सैनिक	-4673
ocument	-4674
▁वक्तुं	-4675
▁ईश्वरेण	-4676
▁शास्त्र	-4677
▁स्वर्गे	-4678
▁फील्ड्स्	-4679
▁साक्ष्यं	-4680
▁दर्शयितुं	-4681
▁प्राप्नोमि	-4682
जात	-4683
राः	-4684
शाव	-4685
ासि	-4686
▁em	-4687
▁su	-4688
irst	-4689
ntro	-4690
turn	-4691
ग्रि	-4692
णाम्	-4693
पर्व	-4694
र्थः	-4695
ेष्य	-4696
▁जले	-4697
error	-4698
द्ध्य	-4699
भावेन	-4700
स्तेन	-4701
▁vari	-4702
▁तेना	-4703
▁भद्र	-4704
▁वक्ष	-4705
▁सुलभ	-4706
णार्थं	-4707
तवन्तः	-4708
बाक्स्	-4709
ान्तरे	-4710
्रियते	-4711
▁अनयोः	-4712
▁अन्वि	-4713
▁यादृश	-4714
▁संतुल	-4715
विशिष्ट	-4716
▁इन्स्ट	-4717
▁कृत्स्	-4718
▁तद्वद्	-4719
▁पर्याय	-4720
▁प्रीति	-4721
▁मनांसि	-4722
▁समक्षे	-4723
▁सम्भाष	-4724
▁Teacher	-4725
▁अर्जुनः	-4726
▁वस्त्रं	-4727
▁वैशिष्ट	-4728
▁सन्निधौ	-4729
यिष्यन्ति	-4730
▁द्रक्ष्य	-4731
▁शक्यन्ते	-4732
▁स्वर्गीय	-4733
▁directory	-4734
▁परिवर्त्य	-4735
▁परिवर्तताम्	-4736
▁पूर्व्वपुरुष	-4737
SS	-4738
ia	-4739
vel	-4740
ज्र	-4741
पोष	-4742
बहु	-4743
लित	-4744
▁as	-4745
▁अण	-4746
ंद्र	-4747
गत्य	-4748
टोर्	-4749
पक्ष	-4750
रिका	-4751
ल्या	-4752
ाणाम	-4753
▁MyS	-4754
▁par	-4755
▁अना	-4756
▁करे	-4757
▁तेज	-4758
ollar	-4759
pache	-4760
मुक्त	-4761
व्याः	-4762
षिक्त	-4763
ष्ट्र	-4764
▁अभ्य	-4765
▁आसीत	-4766
▁ओपरे	-4767
▁काल्	-4768
▁कोरो	-4769
▁पक्ष	-4770
▁मदीय	-4771
▁वक्र	-4772
▁सहैव	-4773
icolon	-4774
ग्रस्त	-4775
न्तुम्	-4776
भागस्य	-4777
▁अन्यं	-4778
▁अवदत्	-4779
▁त्वम्	-4780
▁निन्द	-4781
▁पितरं	-4782
▁बुद्ध	-4783
▁वृद्धि	-4784
▁सम्मिल	-4785
▁तत्क्षण	-4786
▁इस्रायेल	-4787
▁तस्योपरि	-4788
▁प्रिण्ट्	-4789
जल	-4790
मत	-4791
वण	-4792
ink	-4793
ize	-4794
uil	-4795
धिप	-4796
बीज	-4797
▁30	-4798
gram	-4799
line	-4800
logy	-4801
क्सी	-4802
चितं	-4803
नियम	-4804
श्चन	-4805
श्वर	-4806
▁एतं	-4807
▁कन्	-4808
▁गया	-4809
▁धनं	-4810
▁नदी	-4811
▁बढ़	-4812
▁मृग	-4813
▁याच	-4814
▁हनु	-4815
क्षन्	-4816
च्छन्	-4817
द्यते	-4818
वादाः	-4819
सखायः	-4820
ितवती	-4821
्रियं	-4822
▁from	-4823
▁अप्ल	-4824
▁आपके	-4825
▁उवाच	-4826
▁क्रि	-4827
▁खनिज	-4828
▁तासु	-4829
▁दिवस	-4830
▁पर्ण	-4831
▁बहवः	-4832
▁सकते	-4833
▁स्थग	-4834
▁स्थि	-4835
वयमत्र	-4836
ानुसार	-4837
▁दुर्ग	-4838
मिष्यति	-4839
शास्त्र	-4840
▁ईश्वरे	-4841
▁एडिटर्	-4842
▁एतावता	-4843
▁प्रेमं	-4844
▁यीशुना	-4845
▁account	-4846
▁अस्तीति	-4847
▁इत्यादय	-4848
▁क्विज़्	-4849
▁भवितुम्	-4850
▁अभ्यासाय	-4851
▁विश्वासेन	-4852
▁सम्पूर्णं	-4853
▁दक्षिणपार्श्वे	-4854
efa	-4855
कर्	-4856
काय	-4857
कुरु	-4858
ड्रो	-4859
दस्य	-4860
नामा	-4861
नीयं	-4862
फ़्ट	-4863
मानु	-4864
रेक्	-4865
▁तयो	-4866
▁निः	-4867
▁पील	-4868
काश्च	-4869
द्यथा	-4870
▁आदरं	-4871
▁करणं	-4872
▁केषा	-4873
▁चितं	-4874
▁जांघ	-4875
▁तन्म	-4876
efault	-4877
योगस्य	-4878
ीकरोति	-4879
ीकृत्य	-4880
▁Files	-4881
▁अनुभव	-4882
▁कोष्ठ	-4883
▁तेनैव	-4884
▁त्वक्	-4885
▁भोक्त	-4886
▁वाञ्छ	-4887
क्ष्यते	-4888
वयमधुना	-4889
सञ्चिका	-4890
▁तद्वत्	-4891
▁ध्यानं	-4892
▁भक्तिं	-4893
▁मत्स्य	-4894
▁संख्या	-4895
स्थानस्य	-4896
▁प्रयासं	-4897
▁सौजन्यं	-4898
वेरियेबल्	-4899
▁स्टेटिक्	-4900
▁तिष्ठन्ति	-4901
▁युष्मभ्यं	-4902
▁संवादपेटिक	-4903
▁परिवर्तितुं	-4904
▁ध्वन्यङ्कनाया	-4905
▁भारतसर्वकारस्य	-4906
ak	-4907
201	-4908
dir	-4909
नोऽ	-4910
बाल	-4911
माय	-4912
माल	-4913
सरं	-4914
ाला	-4915
ीयः	-4916
्लि	-4917
▁मी	-4918
▁लभ	-4919
▁शत	-4920
abel	-4921
atch	-4922
क्ला	-4923
धिका	-4924
ागता	-4925
ीयाः	-4926
ोत्स	-4927
ोऽयं	-4928
▁आगे	-4929
▁एकै	-4930
▁तरफ	-4931
▁पीठ	-4932
▁विद	-4933
erson	-4934
धिपति	-4935
न्यां	-4936
पात्र	-4937
पुण्य	-4938
मानम्	-4939
मुत्त	-4940
विचार	-4941
ेतानि	-4942
▁OPAC	-4943
▁loop	-4944
▁show	-4945
▁गन्त	-4946
▁माम्	-4947
▁र्यु	-4948
▁होता	-4949
करणस्य	-4950
चित्रं	-4951
स्यामि	-4952
ेशन्स्	-4953
▁धन्यं	-4954
▁पितुः	-4955
▁भुक्त	-4956
▁सद्यः	-4957
उत्सर्ग	-4958
▁Select	-4959
▁अवश्यं	-4960
▁परिमाण	-4961
▁प्रदूष	-4962
▁भवतीति	-4963
▁मेथेड्	-4964
▁लक्ष्म	-4965
िष्यन्ते	-4966
▁Windows	-4967
▁अत्रत्य	-4968
▁आवश्यकं	-4969
▁तत्पश्च	-4970
▁राष्ट्र	-4971
▁सन्देशः	-4972
▁इण्टीजर्	-4973
▁पूर्वमेव	-4974
▁semicolon	-4975
▁वार्त्तां	-4976
▁संयोजयन्तु	-4977
▁कुर्व्वन्ति	-4978
'-	-4979
ian	-4980
ick	-4981
wor	-4982
यसि	-4983
ामा	-4984
▁by	-4985
▁गह	-4986
▁यौ	-4987
▁रस	-4988
file	-4989
ouch	-4990
हिनी	-4991
ासनं	-4992
▁असौ	-4993
▁केश	-4994
▁पात	-4995
▁मिथ	-4996
▁याप	-4997
ccess	-4998
ज्ञात	-4999
मुद्र	-5000
यादेश	-5001
ात्मा	-5002
▁किसी	-5003
▁कृता	-5004
▁प्रय	-5005
▁मनसि	-5006
▁लैन्	-5007
kscape	-5008
▁अनेके	-5009
▁जानीय	-5010
▁पाण्ड	-5011
▁भावना	-5012
▁महान्	-5013
▁वामतः	-5014
▁व्यभि	-5015
व्यमिति	-5016
स्यन्ति	-5017
▁Calcul	-5018
▁Create	-5019
▁Search	-5020
▁अर्थात	-5021
▁पेकेज्	-5022
▁भवताम्	-5023
▁सङ्गृह	-5024
▁व्यक्ति	-5025
▁सर्वविध	-5026
▁terminal	-5027
▁डिस्प्ले	-5028
उत्सर्गतया	-5029
▁भवितुमर्हति	-5030
दल	-5031
शय	-5032
any	-5033
cep	-5034
old	-5035
अप्	-5036
नान	-5037
नीक	-5038
म्र	-5039
लोम	-5040
वोच	-5041
ृतौ	-5042
▁id	-5043
▁un	-5044
▁यि	-5045
form	-5046
क्रे	-5047
ज्जा	-5048
णाति	-5049
ण्टु	-5050
दायक	-5051
भट्ट	-5052
मागत	-5053
▁आशि	-5054
▁ददा	-5055
▁भवथ	-5056
▁मेघ	-5057
▁याज	-5058
angle	-5059
चिन्त	-5060
ित्वं	-5061
▁ऊर्ज	-5062
▁एकैक	-5063
▁कुतः	-5064
▁त्रा	-5065
▁दोषः	-5066
▁पापि	-5067
▁सिंह	-5068
कृत्वा	-5069
क्सीजन	-5070
डिङ्ग्	-5071
परीक्ष	-5072
▁जाताः	-5073
▁निस्त	-5074
▁पुटम्	-5075
▁प्रचल	-5076
▁हेतोः	-5077
पेशियों	-5078
▁colour	-5079
▁क्रीडा	-5080
▁तस्मिन	-5081
▁बुद्धि	-5082
▁बोण्ड्	-5083
▁कारणात्	-5084
▁पार्श्व	-5085
▁प्रसन्न	-5086
▁वर्तमान	-5087
▁सान्त्व	-5088
फ़्ट्वेर्	-5089
▁रचयित्वा	-5090
▁श्रद्धां	-5091
▁इत्येतान्	-5092
▁कर्म्माणि	-5093
▁दृष्टवान्	-5094
▁श्रीकृष्ण	-5095
▁स्वीकरोति	-5096
उदाहरणार्थं	-5097
▁चलच्चित्रं	-5098
▁परिवर्तयामः	-5099
.3	-5100
कण	-5101
धू	-5102
Pro	-5103
ann	-5104
imp	-5105
मत्	-5106
यद्	-5107
inal	-5108
गन्ध	-5109
गामि	-5110
ण्डल	-5111
पादप	-5112
भाषा	-5113
स्वा	-5114
ेष्व	-5115
ैर्य	-5116
▁Alt	-5117
▁Log	-5118
▁एनं	-5119
▁जिह	-5120
▁तुल	-5121
▁मजब	-5122
▁लेट	-5123
▁संर	-5124
ustom	-5125
भिलाष	-5126
र्द्द	-5127
▁mask	-5128
▁अभवत	-5129
▁एकेन	-5130
▁एप्ल	-5131
▁दोषं	-5132
▁पूरण	-5133
▁मूसा	-5134
क्लास्	-5135
ङ्गानि	-5136
ञ्चित्	-5137
त्समीप	-5138
थिसिस्	-5139
▁Shift	-5140
▁error	-5141
▁while	-5142
▁आगामि	-5143
▁इत्यु	-5144
▁कतिचन	-5145
▁करणाय	-5146
▁दीयते	-5147
▁भवेयु	-5148
ोर्मेट्	-5149
▁अकरोत्	-5150
▁नोदनेन	-5151
▁प्रणाल	-5152
▁शान्ति	-5153
▁आदेशस्य	-5154
मिच्छन्ति	-5155
▁यच्छन्तु	-5156
▁विवृणोमि	-5157
ld	-5158
नप	-5159
व्	-5160
नोप	-5161
फलं	-5162
रुद	-5163
▁50	-5164
▁or	-5165
:"""	-5166
roke	-5167
utes	-5168
टूल्	-5169
भूता	-5170
श्रु	-5171
संस्	-5172
हेतो	-5173
ारोप	-5174
▁txt	-5175
▁खेल	-5176
▁जैव	-5177
▁नाय	-5178
▁लिन	-5179
▁सएव	-5180
ables	-5181
quest	-5182
ग्राम	-5183
वानां	-5184
वारम्	-5185
्लाति	-5186
▁अनुद	-5187
▁आपकी	-5188
▁कृषि	-5189
▁क्लि	-5190
▁द्रा	-5191
▁फिलि	-5192
▁र्नि	-5193
▁लभ्य	-5194
▁विकस	-5195
र्ब्बल	-5196
व्याणि	-5197
▁Check	-5198
▁कुरुथ	-5199
▁भवामः	-5200
▁मानवा	-5201
▁लैब्र	-5202
▁वर्षे	-5203
▁शान्त	-5204
अर्थात्	-5205
तस्मात्	-5206
ीकर्तुं	-5207
▁अहमत्र	-5208
▁उपयोगः	-5209
▁गवाक्ष	-5210
▁ब्लोक्	-5211
मिच्छामि	-5212
▁कुर्वन्	-5213
▁पाठागता	-5214
▁Employee	-5215
▁प्रतिष्ठ	-5216
▁मिलित्वा	-5217
▁व्याख्या	-5218
▁आवश्यकानि	-5219
▁एक्स्टेन्	-5220
▁प्रत्युवाच	-5221
ML	-5222
ics	-5223
pen	-5224
क्ल	-5225
भोग	-5226
मनो	-5227
राध	-5228
संश	-5229
हनि	-5230
ोकन	-5231
▁25	-5232
▁at	-5233
;"""	-5234
oard	-5235
pert	-5236
ङ्कं	-5237
त्ते	-5238
पुनः	-5239
बलेन	-5240
यश्च	-5241
यिता	-5242
र्षि	-5243
वर्ग	-5244
सप्त	-5245
ांशः	-5246
ाम्य	-5247
्लेष	-5248
▁अहम	-5249
▁विज	-5250
▁साह	-5251
अग्रि	-5252
फलानि	-5253
र्वेद	-5254
लिखित	-5255
्यापि	-5256
्लोड्	-5257
▁Grad	-5258
▁stud	-5259
▁अक्ष	-5260
▁अच्छ	-5261
▁तयोः	-5262
▁पापं	-5263
▁फलित	-5264
▁बिना	-5265
pacity	-5266
मागत्य	-5267
साक्षर	-5268
▁कश्चि	-5269
▁गात्र	-5270
▁पत्रं	-5271
▁प्रयत	-5272
▁रक्षण	-5273
▁संत्य	-5274
▁सन्तः	-5275
▁सहायक	-5276
▁सूच्य	-5277
atement	-5278
कुर्व्व	-5279
यामासुः	-5280
▁dollar	-5281
▁public	-5282
▁record	-5283
▁जनानां	-5284
▁आपरेटर्	-5285
▁आवश्यकत	-5286
▁पर्यन्त	-5287
▁महत्त्व	-5288
▁यिहूदीया	-5289
▁selection	-5290
▁चित्रमिदं	-5291
▁दृष्टान्त	-5292
▁प्राकृतिक	-5293
▁अधिकविवरणं	-5294
▁ओपरेटिङ्ग्	-5295
र्ग्युमेण्ट्	-5296
▁पाठनियोजनम्	-5297
▁प्रमाणपत्रमपि	-5298
दर	-5299
सृ	-5300
’-	-5301
▁k	-5302
res	-5303
एडि	-5304
णीं	-5305
ायि	-5306
ुका	-5307
▁गौ	-5308
▁जब	-5309
atur	-5310
avig	-5311
ital	-5312
sert	-5313
अधिक	-5314
तत्र	-5315
त्रि	-5316
नगरे	-5317
फेस्	-5318
स्थे	-5319
▁cap	-5320
▁अकौ	-5321
▁कुत	-5322
▁यात	-5323
करोति	-5324
प्राच	-5325
भवान्	-5326
योजनं	-5327
रेखां	-5328
शिष्य	-5329
▁Type	-5330
▁copy	-5331
▁java	-5332
▁इन्व	-5333
▁बाहर	-5334
▁वारं	-5335
▁साधन	-5336
▁उर्वर	-5337
▁एतान्	-5338
▁छिद्र	-5339
▁जनान्	-5340
▁जीवने	-5341
▁टिप्प	-5342
▁दत्तं	-5343
▁प्राथ	-5344
ब्रौसर्	-5345
▁Course	-5346
▁course	-5347
▁पिधानं	-5348
▁प्रारभ	-5349
▁समक्षं	-5350
▁सर्वर्	-5351
▁आगच्छाम	-5352
▁चत्वारि	-5353
▁भूम्यां	-5354
▁भोजनस्य	-5355
▁स्वहस्त	-5356
▁मार्क्स्	-5357
▁प्रश्नान्	-5358
▁प्रार्थना	-5359
▁संयोजितुं	-5360
▁स्थापयितुं	-5361
▁परमेश्वरस्य	-5362
.2	-5363
ull	-5364
आदौ	-5365
जाय	-5366
तार	-5367
महा	-5368
रणे	-5369
िंग	-5370
▁Up	-5371
▁फो	-5372
ader	-5373
ञ्चा	-5374
देकं	-5375
द्भु	-5376
धाना	-5377
पञ्च	-5378
वदद्	-5379
शनल्	-5380
ान्ध	-5381
िकम्	-5382
ोत्त	-5383
▁und	-5384
▁आवल	-5385
▁आवा	-5386
▁तया	-5387
▁धनु	-5388
▁नगर	-5389
▁निच	-5390
▁पेश	-5391
▁वान	-5392
stall	-5393
रक्षा	-5394
स्तां	-5395
्यस्य	-5396
▁Open	-5397
▁आनीय	-5398
▁उन्म	-5399
▁दन्त	-5400
▁नेम्	-5401
▁ब्रा	-5402
▁सकता	-5403
▁हरित	-5404
▁हानि	-5405
त्रापि	-5406
मावश्य	-5407
ाद्वयं	-5408
▁गृहीत	-5409
▁मैत्र	-5410
▁शून्य	-5411
▁सर्वं	-5412
कारणात्	-5413
नार्थम्	-5414
मिदानीं	-5415
युज्यते	-5416
र्श्यते	-5417
▁Serial	-5418
▁single	-5419
▁आज्ञाप	-5420
▁स्वीयं	-5421
▁Journal	-5422
▁दत्त्वा	-5423
▁निर्देश	-5424
▁परियोजन	-5425
▁सर्वत्र	-5426
▁द्विवारं	-5427
▁सन्दर्भे	-5428
▁सम्प्रति	-5429
▁स्थापयति	-5430
▁कर्त्तुम्	-5431
▁उत्सर्गतया	-5432
............	-5433
:"	-5434
yn	-5435
कट	-5436
पट	-5437
पै	-5438
पो	-5439
फै	-5440
iss	-5441
गोल	-5442
तलौ	-5443
दभी	-5444
पाप	-5445
मन्	-5446
राह	-5447
र्क	-5448
ासा	-5449
ीम्	-5450
ैड्	-5451
्रह	-5452
▁KT	-5453
▁Pl	-5454
▁यम	-5455
Edit	-5456
ड्यू	-5457
तायै	-5458
तीयं	-5459
दिति	-5460
द्मः	-5461
लीट्	-5462
वायु	-5463
ाजिक	-5464
ासां	-5465
▁per	-5466
▁उठा	-5467
▁धात	-5468
▁माप	-5469
▁सफल	-5470
ग्रन्	-5471
चित्त	-5472
ञ्चर्	-5473
विकास	-5474
ानाद्	-5475
ानानि	-5476
ावश्य	-5477
▁Home	-5478
▁अन्ध	-5479
▁अर्ध	-5480
▁ऐटम्	-5481
▁कथाम	-5482
▁जगतो	-5483
▁नारी	-5484
▁पाने	-5485
▁पास्	-5486
▁भागं	-5487
iology	-5488
▁जानीम	-5489
▁पठामः	-5490
▁मिश्र	-5491
▁वार्त	-5492
▁स्वकी	-5493
वासिनां	-5494
▁अनुवाद	-5495
▁अवगच्छ	-5496
▁डिलीट्	-5497
▁लप्स्य	-5498
▁छात्राः	-5499
▁प्रकृति	-5500
▁सर्वेषु	-5501
▁उत्तिष्ठ	-5502
▁उपयुञ्जे	-5503
▁ग्रन्थाल	-5504
▁प्रयत्नं	-5505
▁धन्यवादाः	-5506
▁सर्वेभ्यः	-5507
▁इत्येतेषाम्	-5508
▁गण्डस्योपरि	-5509
▁लिखितमास्ते	-5510
ूठ	-5511
TML	-5512
ant	-5513
ast	-5514
ves	-5515
अतो	-5516
ड्र	-5517
नाव	-5518
▁Bl	-5519
▁ro	-5520
▁कह	-5521
▁चर	-5522
view	-5523
अद्य	-5524
कारे	-5525
कोणे	-5526
दानं	-5527
नन्त	-5528
पादं	-5529
यान्	-5530
वत्स	-5531
संगी	-5532
्यात	-5533
▁Set	-5534
▁अवि	-5535
▁विह	-5536
▁शोध	-5537
board	-5538
चिदपि	-5539
ध्वम्	-5540
बण्टु	-5541
विशेष	-5542
स्तद्	-5543
▁अश्व	-5544
▁आह्व	-5545
▁उन्ह	-5546
▁शृणो	-5547
कोट्स्	-5548
टेन्स्	-5549
रीत्या	-5550
स्याधः	-5551
ालेशन्	-5552
▁ग्राह	-5553
▁परमाण	-5554
▁भित्त	-5555
▁समीची	-5556
जानन्तु	-5557
नमस्कार	-5558
▁Finish	-5559
▁पाठान्	-5560
▁यिहूदा	-5561
▁समस्या	-5562
▁सरलतया	-5563
▁स्लैड्	-5564
▁स्वान्	-5565
▁Desktop	-5566
▁awkdemo	-5567
▁अग्रिमं	-5568
▁जायन्ते	-5569
▁टङ्कयाम	-5570
▁तदर्थम्	-5571
▁नामाङ्क	-5572
▁स्वच्छं	-5573
istration	-5574
दिष्टवान्	-5575
▁कथयित्वा	-5576
▁कथ्यन्ते	-5577
▁दर्शयामि	-5578
▁पादपानां	-5579
▁प्राप्तं	-5580
▁रक्षित्वा	-5581
▁सञ्चिकाम्	-5582
▁मांसपेशियों	-5583
▁उत्तीर्णेभ्यः	-5584
DB	-5585
धौ	-5586
यौ	-5587
रस	-5588
awk	-5589
ern	-5590
hor	-5591
ond	-5592
vol	-5593
घ्न	-5594
तमं	-5595
तिथ	-5596
थड्	-5597
नया	-5598
नूत	-5599
पात	-5600
भवत	-5601
मिद	-5602
हरा	-5603
ेल्	-5604
▁Cl	-5605
▁Mo	-5606
▁Or	-5607
▁गे	-5608
orld	-5609
क्सा	-5610
ट्रि	-5611
▁201	-5612
▁DNA	-5613
▁man	-5614
▁run	-5615
▁अपे	-5616
▁क्व	-5617
▁चेद	-5618
▁पूज	-5619
▁मिन	-5620
▁लोग	-5621
▁विल	-5622
▁हार	-5623
कृष्ट	-5624
मेकम्	-5625
मेथड्	-5626
▁book	-5627
▁grep	-5628
▁than	-5629
▁अनयो	-5630
▁अभिन	-5631
▁द्यो	-5632
▁नगरे	-5633
▁पानी	-5634
▁प्रग	-5635
▁महाप	-5636
▁मूलं	-5637
▁युवा	-5638
▁वज्र	-5639
▁वत्स	-5640
ection	-5641
essage	-5642
कार्यं	-5643
फोल्ट्	-5644
▁Image	-5645
▁अन्या	-5646
▁काष्ठ	-5647
▁भवामि	-5648
▁सहभाग	-5649
मानानां	-5650
▁कार्या	-5651
▁घुटनों	-5652
▁धार्म्	-5653
▁मरियम्	-5654
मेन्शनल्	-5655
▁चिकित्स	-5656
▁जानीयुः	-5657
▁निरीक्ष	-5658
▁वासुदेव	-5659
▁Calculus	-5660
▁Inkscape	-5661
▁योजयन्तु	-5662
▁प्राप्तम्	-5663
▁प्रकल्पगणः	-5664
▁प्रार्थनां	-5665
▁प्राप्यन्ते	-5666
▁साहाय्यमाचर	-5667
▁स्थापयित्वा	-5668
ft	-5669
anc	-5670
low	-5671
udo	-5672
कील	-5673
तिम	-5674
नात	-5675
फर्	-5676
रन्	-5677
▁Av	-5678
▁Be	-5679
▁अद	-5680
▁खि	-5681
alue	-5682
aths	-5683
तरां	-5684
न्दा	-5685
न्दु	-5686
मिमं	-5687
सन्त	-5688
स्तव	-5689
ेतां	-5690
▁1.6	-5691
▁gcc	-5692
▁आयत	-5693
▁ओन्	-5694
▁कैस	-5695
▁झुक	-5696
▁हित	-5697
atter	-5698
elete	-5699
क्तया	-5700
निष्ठ	-5701
भ्यम्	-5702
मूडल्	-5703
यन्तो	-5704
विश्व	-5705
ान्या	-5706
▁char	-5707
▁edit	-5708
▁कपाल	-5709
▁पलाय	-5710
▁यन्न	-5711
▁यीशौ	-5712
estion	-5713
न्ताम्	-5714
सर्व्व	-5715
स्मासु	-5716
▁12.04	-5717
▁LaTeX	-5718
▁color	-5719
▁अपितु	-5720
▁पृच्छ	-5721
▁प्रका	-5722
▁बहिर्	-5723
▁सुधार	-5724
▁object	-5725
▁आप्षन्	-5726
▁कृतानि	-5727
▁परिश्र	-5728
▁प्रवाच	-5729
▁लिखामः	-5730
▁विभागे	-5731
▁शङ्कां	-5732
▁सुरक्ष	-5733
माध्यमेन	-5734
▁अड्रेस्	-5735
▁इन्वोक्	-5736
▁ऐकान्स्	-5737
▁प्रभुना	-5738
▁प्रीतिं	-5739
▁योजयामि	-5740
▁उद्देश्य	-5741
▁निष्क्रि	-5742
▁पवित्रेण	-5743
▁अवसर्पिणी	-5744
▁निमित्तम्	-5745
▁स्वतन्त्र	-5746
▁कर्त्तव्यं	-5747
▁कर्षयित्वा	-5748
▁दक्षिणभागे	-5749
▁पाठस्यान्त	-5750
▁एलिमेण्ट्स्	-5751
▁वामपार्श्वे	-5752
▁सेट्टिङ्ग्स्	-5753
▁अधिकविवरणार्थम्	-5754
तत	-5755
नल	-5756
फो	-5757
वन	-5758
:।"	-5759
करं	-5760
पुन	-5761
रेव	-5762
सेव	-5763
ृते	-5764
▁रज	-5765
ange	-5766
test	-5767
अतएव	-5768
कथां	-5769
कर्म	-5770
चक्र	-5771
नाप्	-5772
प्या	-5773
र्दन	-5774
वात्	-5775
सङ्ग	-5776
स्यो	-5777
ितां	-5778
▁दरि	-5779
▁मधु	-5780
▁मूस	-5781
▁यूष	-5782
▁स्य	-5783
▁हान	-5784
▁हों	-5785
print	-5786
तानां	-5787
भिश्च	-5788
यध्वं	-5789
स्मात	-5790
ेस्क्	-5791
्यतां	-5792
▁Next	-5793
▁open	-5794
▁चतुर	-5795
▁निकट	-5796
▁बारे	-5797
▁बाहु	-5798
▁यतोऽ	-5799
▁विवे	-5800
▁हिस्	-5801
ersion	-5802
परन्तु	-5803
वाक्यं	-5804
▁त्याज	-5805
▁प्रदा	-5806
▁संगृह	-5807
▁सन्तो	-5808
तिष्ठत्	-5809
द्दिश्य	-5810
▁क्रमशः	-5811
▁प्रेरण	-5812
▁लिखितं	-5813
▁सम्यग्	-5814
▁उदाहरणं	-5815
▁उपस्थाय	-5816
▁नियुक्त	-5817
▁निर्धार	-5818
▁योजयामः	-5819
▁विनियोग	-5820
▁सामाजिक	-5821
▁अत्यन्तं	-5822
▁टङ्कयामः	-5823
▁निर्मिता	-5824
▁प्रकल्पं	-5825
▁संयोजयाम	-5826
▁त्यक्त्वा	-5827
▁परावर्त्त	-5828
▁निष्क्रियं	-5829
▁सोफ़्ट्वेर्	-5830
▁तत्सम्बद्धपाठ	-5831
DK	-5832
cre	-5833
oid	-5834
pdf	-5835
चुः	-5836
भाज	-5837
मया	-5838
शोध	-5839
ाती	-5840
ादि	-5841
ीयो	-5842
▁an	-5843
▁गि	-5844
▁वश	-5845
alog	-5846
core	-5847
icro	-5848
oint	-5849
उपरि	-5850
ट्रो	-5851
ासने	-5852
▁ऊर्	-5853
▁कहा	-5854
▁डोक	-5855
▁ताम	-5856
▁नोप	-5857
▁यां	-5858
▁वदत	-5859
▁हृद	-5860
cript	-5861
ibute	-5862
ition	-5863
नसमये	-5864
प्रथम	-5865
म्बर्	-5866
यन्तः	-5867
स्तथा	-5868
स्थाः	-5869
ात्मक	-5870
्यान्	-5871
▁नयति	-5872
▁पहले	-5873
▁पौलः	-5874
▁भारं	-5875
▁सञ्ज	-5876
▁स्ति	-5877
atalog	-5878
करणानि	-5879
केभ्यः	-5880
पेटिका	-5881
स्त्रे	-5882
ीकुर्व	-5883
▁अपश्य	-5884
▁अर्रे	-5885
▁आयाति	-5886
▁एकमेव	-5887
▁कन्या	-5888
▁किन्त	-5889
▁चक्षु	-5890
▁दद्मः	-5891
▁द्योत	-5892
▁निद्र	-5893
▁भगवान	-5894
▁भारतं	-5895
▁मेनेज	-5896
▁शांति	-5897
किन्त्व	-5898
ङ्क्तिः	-5899
शरीरस्य	-5900
स्तेषां	-5901
स्थानां	-5902
▁इत्यपि	-5903
▁उच्चार	-5904
▁कोरोना	-5905
▁ट्याग्	-5906
▁भवन्तौ	-5907
▁मह्यम्	-5908
▁यदस्ति	-5909
▁राज्यं	-5910
▁लिस्ट्	-5911
▁वर्णनं	-5912
▁वर्द्ध	-5913
▁विख्या	-5914
▁स्टोर्	-5915
▁example	-5916
▁यस्माद्	-5917
▁वामभागे	-5918
▁संत्यजन	-5919
▁सन्ताना	-5920
ackground	-5921
▁गच्छन्ति	-5922
▁निर्मितं	-5923
▁मस्तिष्क	-5924
▁प्रमाणपत्रं	-5925
▁पवित्रेणात्मना	-5926
80	-5927
fo	-5928
na	-5929
कै	-5930
ची	-5931
धी	-5932
▁ढ	-5933
ark	-5934
eed	-5935
tic	-5936
तमे	-5937
थन्	-5938
नास	-5939
यीश	-5940
विग	-5941
ेना	-5942
▁उन	-5943
▁मं	-5944
▁वर	-5945
ASTA	-5946
Data	-5947
uppl	-5948
user	-5949
कञ्च	-5950
च्छि	-5951
डेट्	-5952
न्यं	-5953
भक्त	-5954
र्णं	-5955
िन्य	-5956
ीभूय	-5957
ोक्त	-5958
▁तन्	-5959
▁पद्	-5960
▁बात	-5961
▁वाच	-5962
▁वाह	-5963
▁साग	-5964
:।"""	-5965
while	-5966
करणाय	-5967
क्वल्	-5968
मेतत्	-5969
ारभ्य	-5970
ारम्भ	-5971
ेशस्य	-5972
▁Oper	-5973
▁आपको	-5974
▁कालं	-5975
▁ग्री	-5976
▁जाने	-5977
▁नासर	-5978
▁पितु	-5979
▁श्वे	-5980
क्साइड	-5981
ाभ्यां	-5982
▁shell	-5983
▁अस्या	-5984
▁गोशाल	-5985
▁ध्वनि	-5986
▁पित्र	-5987
▁पोषकत	-5988
▁फलिते	-5989
▁रक्तं	-5990
▁वह्नि	-5991
व्यवस्थ	-5992
संश्लेष	-5993
सम्बन्ध	-5994
▁Manage	-5995
▁prompt	-5996
▁उत्तरं	-5997
▁ट्रान्	-5998
▁पदार्थ	-5999
▁पर्य्य	-6000
▁फिरूशि	-6001
▁भूयात्	-6002
▁मृत्यु	-6003
▁विन्या	-6004
▁शक्नुथ	-6005
भविष्यति	-6006
▁General	-6007
▁ओपरेटर्	-6008
▁जीवनस्य	-6009
▁मैत्रीं	-6010
▁साक्ष्य	-6011
▁अन्यदेकं	-6012
▁डीफोल्ट्	-6013
▁पृथ्व्या	-6014
▁मध्यस्थं	-6015
▁परिवर्तितम्	-6016
▁प्रत्येकस्य	-6017
▁मुद्रापयितुं	-6018
Ex	-6019
du	-6020
गल	-6021
चे	-6022
धर	-6023
पथ	-6024
रह	-6025
लव	-6026
aDB	-6027
aph	-6028
con	-6029
भूष	-6030
वम्	-6031
िनं	-6032
▁"“	-6033
▁6.	-6034
▁एन	-6035
▁चै	-6036
▁यथ	-6037
▁यै	-6038
File	-6039
adro	-6040
ency	-6041
pect	-6042
केषु	-6043
टङ्क	-6044
दिवस	-6045
दृक्	-6046
दृशं	-6047
द्धे	-6048
निधि	-6049
नेम्	-6050
न्दं	-6051
पतिः	-6052
भवद्	-6053
मासे	-6054
मितं	-6055
ादेव	-6056
▁JDK	-6057
▁all	-6058
▁mod	-6059
▁जगद	-6060
▁तीव	-6061
▁दया	-6062
▁भीम	-6063
▁षट्	-6064
▁सरण	-6065
older	-6066
pplet	-6067
udget	-6068
क्रमं	-6069
ग्रहं	-6070
दीयाः	-6071
र्सस्	-6072
ृष्टं	-6073
▁HTML	-6074
▁Talk	-6075
▁जगति	-6076
▁तदहं	-6077
▁शृणु	-6078
▁सारं	-6079
andard	-6080
ariaDB	-6081
ogadro	-6082
struct	-6083
कर्त्त	-6084
मेन्यु	-6085
र्म्या	-6086
▁Entry	-6087
▁final	-6088
▁अंगूठ	-6089
▁अन्वे	-6090
▁एड्मि	-6091
▁रामाय	-6092
▁विनाश	-6093
▁विवाह	-6094
दभीष्टं	-6095
भारतस्य	-6096
▁क्षमता	-6097
▁तत्रैव	-6098
▁पुत्रो	-6099
▁पूर्वत	-6100
▁यान्ति	-6101
▁विभागं	-6102
▁सक्रिय	-6103
▁स्पर्श	-6104
स्मिंश्च	-6105
▁Package	-6106
▁अवचित्य	-6107
▁औत्सर्ग	-6108
▁दिनाङ्क	-6109
▁पृच्छति	-6110
▁व्याप्त	-6111
▁सक्रियं	-6112
प्रदेशस्य	-6113
मागतवन्तः	-6114
्यूमेण्ट्	-6115
▁आवर्तयेत	-6116
▁रक्षन्तु	-6117
▁विश्रामं	-6118
▁शिष्यान्	-6119
▁सामान्यत	-6120
▁स्मरन्तु	-6121
सङ्क्षेपेण	-6122
▁प्रतिदिनं	-6123
▁स्थापयामः	-6124
▁ट्युटोरियल्स्	-6125
▁यीशुख्रीष्टस्य	-6126
1,	-6127
;"	-6128
SP	-6129
aw	-6130
gg	-6131
ml	-6132
ीर	-6133
चने	-6134
निव	-6135
नीं	-6136
▁15	-6137
▁Br	-6138
▁Me	-6139
▁pr	-6140
▁थे	-6141
▁भज	-6142
▁शै	-6143
ters	-6144
महोद	-6145
माया	-6146
वादी	-6147
▁des	-6148
▁अणु	-6149
▁इसे	-6150
▁इस्	-6151
▁घोष	-6152
▁नाप	-6153
▁रोच	-6154
▁वरं	-6155
▁समू	-6156
▁हेत	-6157
arian	-6158
mount	-6159
अन्ते	-6160
ङ्गल्	-6161
टुम्ब	-6162
तर्हि	-6163
त्रयं	-6164
द्धुं	-6165
ध्याप	-6166
न्तां	-6167
शिक्ष	-6168
ष्याः	-6169
हस्तं	-6170
▁कोहा	-6171
▁सजीव	-6172
जनानां	-6173
द्वयम्	-6174
सिङ्ग्	-6175
▁Order	-6176
▁अद्या	-6177
▁अनेका	-6178
▁क्रुश	-6179
▁तत्तु	-6180
▁तीव्र	-6181
▁निष्ठ	-6182
▁बहून्	-6183
▁बालकः	-6184
▁लिखाम	-6185
▁सत्यम	-6186
▁समग्र	-6187
▁हस्ते	-6188
volutes	-6189
व्यायाम	-6190
ऽस्मिन्	-6191
▁अनिवार	-6192
▁केंद्र	-6193
▁तस्यैव	-6194
▁दृष्टं	-6195
▁पूर्णं	-6196
▁विचारं	-6197
ibrarian	-6198
अनन्तरम्	-6199
▁Display	-6200
▁इम्प्लि	-6201
▁उद्घटते	-6202
▁किञ्चित	-6203
▁निर्मात	-6204
▁प्रकृतौ	-6205
▁प्रत्या	-6206
▁स्तरस्य	-6207
▁स्वेषां	-6208
▁Download	-6209
▁Netbeans	-6210
▁gradient	-6211
▁अनुवादकः	-6212
▁आवश्यकम्	-6213
▁ख्रीष्टो	-6214
▁पृथिव्या	-6215
▁भवितव्यं	-6216
▁साक्षाद्	-6217
▁पुनरावर्त	-6218
▁फ़ील्ड्स्	-6219
▁रचितवन्तः	-6220
▁अभिजानन्तु	-6221
▁मनुष्याणां	-6222
▁Application	-6223
▁विश्रामवारे	-6224
12	-6225
ID	-6226
टु	-6227
आम्	-6228
उंड	-6229
कोऽ	-6230
जस्	-6231
पर्	-6232
पिट	-6233
रर्	-6234
लिए	-6235
शतं	-6236
▁PH	-6237
▁Pr	-6238
▁le	-6239
▁पक	-6240
▁फी	-6241
▁यश	-6242
ours	-6243
कोड्	-6244
ङ्गं	-6245
जाता	-6246
तीया	-6247
द्वय	-6248
रोमि	-6249
स्कि	-6250
ांसि	-6251
ानेन	-6252
ारूप	-6253
ेषाम	-6254
▁अकथ	-6255
▁तेऽ	-6256
▁फिर	-6257
▁बाय	-6258
▁लाग	-6259
▁शयत	-6260
क्रीड	-6261
त्थाय	-6262
र्शन्	-6263
वस्था	-6264
स्तरं	-6265
▁Test	-6266
▁hand	-6267
▁आहूय	-6268
▁कोणे	-6269
▁जाती	-6270
▁तात्	-6271
▁सीधा	-6272
▁सैट्	-6273
ार्त्त	-6274
िष्यति	-6275
ुदन्तु	-6276
▁email	-6277
▁ददातु	-6278
▁फिलिप	-6279
▁भगिनी	-6280
▁मजबूत	-6281
▁राउंड	-6282
▁सामने	-6283
द्वितीय	-6284
पर्यन्त	-6285
पेक्षया	-6286
▁String	-6287
▁return	-6288
▁ईक्वल्	-6289
▁कुर्वन	-6290
▁पक्षिण	-6291
▁प्राति	-6292
▁प्रियत	-6293
▁प्रेम्	-6294
▁वस्तुत	-6295
▁संकल्प	-6296
▁स्तम्भ	-6297
ज्ञानस्य	-6298
▁जीवानां	-6299
▁दत्तांश	-6300
▁पेटर्न्	-6301
▁मन्दिरं	-6302
▁वस्तूनि	-6303
▁संयुक्त	-6304
▁सुनिश्च	-6305
स्तस्मिन्	-6306
▁गृह्लाति	-6307
▁प्रकाशते	-6308
▁प्रक्षाल	-6309
▁रचयितुम्	-6310
▁विषयकस्य	-6311
▁व्याल्यू	-6312
▁इत्यस्यार्थं	-6313
EG	-6314
Sh	-6315
ls	-6316
ंक	-6317
चय	-6318
तौ	-6319
धो	-6320
यथ	-6321
रत	-6322
ons	-6323
अयं	-6324
गरि	-6325
डाइ	-6326
तलं	-6327
दिक	-6328
रता	-6329
सेन	-6330
हूय	-6331
्यत	-6332
्वल	-6333
▁अब	-6334
illa	-6335
rent	-6336
urch	-6337
अहम्	-6338
कृतं	-6339
कृतौ	-6340
ख्यं	-6341
गृहं	-6342
ग्रा	-6343
ङ्खल	-6344
ङ्गु	-6345
र्यं	-6346
वयम्	-6347
व्यम	-6348
ेक्ट	-6349
▁3.7	-6350
▁असम	-6351
▁दंड	-6352
▁नाट	-6353
▁निध	-6354
▁शिव	-6355
▁सीख	-6356
▁सीत	-6357
▁हिं	-6358
icrob	-6359
zilla	-6360
इण्ट्	-6361
च्छेद	-6362
दानम्	-6363
ध्यम्	-6364
प्रश्	-6365
रिक्त	-6366
र्णब्	-6367
स्ताव	-6368
ाग्रा	-6369
ान्ते	-6370
▁"""“	-6371
▁Path	-6372
▁आकार	-6373
▁कुड्	-6374
▁गोला	-6375
▁चकार	-6376
▁दिशा	-6377
▁निरं	-6378
▁पिदध	-6379
त्त्वं	-6380
बोर्ड्	-6381
ोऽभवत्	-6382
▁Types	-6383
▁array	-6384
▁check	-6385
▁table	-6386
▁कारणं	-6387
▁चर्चा	-6388
▁छोडते	-6389
▁प्रवे	-6390
▁प्लस्	-6391
▁रचनां	-6392
▁वर्णः	-6393
▁सम्भव	-6394
▁स्नाय	-6395
▁स्वप्	-6396
ception	-6397
र्त्तुं	-6398
स्त्वां	-6399
ान्तिके	-6400
्यार्थं	-6401
▁KTouch	-6402
▁Patron	-6403
▁केचित्	-6404
▁तुभ्यं	-6405
▁पुत्रं	-6406
▁पेस्ट्	-6407
▁प्रशंस	-6408
▁भ्रातर	-6409
▁युक्तं	-6410
▁शिक्षा	-6411
▁शीघ्रं	-6412
▁संस्था	-6413
▁सावधान	-6414
▁स्क्री	-6415
▁स्वस्व	-6416
▁अप्लोड्	-6417
▁उत्पन्न	-6418
▁किमर्थं	-6419
▁प्रयोजन	-6420
▁मन्दिरे	-6421
▁Settings	-6422
▁किञ्चिद्	-6423
▁केषाञ्चन	-6424
▁डीफाल्ट्	-6425
▁पाठार्थं	-6426
▁प्राप्ता	-6427
▁यिरूशालम	-6428
▁स्थापयतु	-6429
▁इत्याख्ये	-6430
▁कथयामासुः	-6431
▁पप्रच्छुः	-6432
▁परित्राणं	-6433
▁वैज्ञानिक	-6434
▁सम्यक्तया	-6435
▁साहाय्येन	-6436
icrobiology	-6437
▁प्रतिकृतिं	-6438
▁मुद्रापयति	-6439
▁शक्ष्यन्ति	-6440
9.	-6441
IT	-6442
एँ	-6443
तव	-6444
ैष	-6445
hoo	-6446
key	-6447
ogr	-6448
क्क	-6449
ड़े	-6450
पया	-6451
फुस	-6452
रति	-6453
रपि	-6454
ांग	-6455
िणः	-6456
ोगु	-6457
▁"‘	-6458
▁Se	-6459
▁Th	-6460
▁cd	-6461
▁तप	-6462
▁रू	-6463
▁लव	-6464
ines	-6465
port	-6466
uild	-6467
क्कु	-6468
ङ्गल	-6469
येट्	-6470
रणाय	-6471
स्ता	-6472
हस्य	-6473
ीतुं	-6474
▁PHP	-6475
▁num	-6476
▁एतौ	-6477
▁गतः	-6478
▁गोच	-6479
▁फ़ो	-6480
▁बाण	-6481
▁यया	-6482
▁याः	-6483
▁विग	-6484
▁वीर	-6485
▁होग	-6486
eight	-6487
gmail	-6488
tract	-6489
ज्ञां	-6490
द्योग	-6491
द्वीप	-6492
नाञ्च	-6493
नायाः	-6494
यंत्र	-6495
र्ष्ण	-6496
ष्यति	-6497
ीकरणं	-6498
▁Fill	-6499
▁Page	-6500
▁case	-6501
▁else	-6502
▁अवगम	-6503
▁उष्ण	-6504
▁कन्य	-6505
▁कृतः	-6506
▁जङ्घ	-6507
▁तादृ	-6508
▁दुर्	-6509
▁दुष्	-6510
▁देता	-6511
▁नमस्	-6512
▁पितृ	-6513
▁भवाम	-6514
▁शांत	-6515
alance	-6516
attern	-6517
dition	-6518
number	-6519
धर्म्म	-6520
पूर्वं	-6521
प्रसार	-6522
ष्माकं	-6523
▁Group	-6524
▁अन्ये	-6525
▁आकृति	-6526
▁इदमेव	-6527
▁कञ्चन	-6528
▁खाद्य	-6529
▁तथ्यं	-6530
▁तस्यै	-6531
▁व्याप	-6532
▁सुस्थ	-6533
▁सूचना	-6534
Project	-6535
perties	-6536
▁Apache	-6537
▁उद्योग	-6538
▁कृष्णं	-6539
▁तन्नहि	-6540
▁प्रोम्	-6541
▁यद्यत्	-6542
▁सङ्केत	-6543
इत्यस्मै	-6544
ण्टेक्स्	-6545
▁MariaDB	-6546
▁अनुमतिं	-6547
▁आगच्छेत	-6548
▁तिष्ठन्	-6549
▁पश्यामि	-6550
▁प्रवर्त	-6551
▁विज्ञाय	-6552
▁सारांशं	-6553
देशीयानां	-6554
▁अद्यत्वे	-6555
▁अपेक्षया	-6556
▁आगच्छामः	-6557
▁उंगलियों	-6558
▁चित्राणि	-6559
▁पृष्ठस्य	-6560
▁लिखित्वा	-6561
▁प्राप्तुम्	-6562
▁सङ्क्षेपेण	-6563
▁विद्यमानस्य	-6564
▁युष्मन्मध्ये	-6565
1.	-6566
डै	-6567
बर	-6568
य्	-6569
गरे	-6570
गिक	-6571
गें	-6572
परं	-6573
बाव	-6574
ावा	-6575
▁If	-6576
▁Ph	-6577
▁तू	-6578
▁शौ	-6579
gimp	-6580
reak	-6581
न्ती	-6582
परम्	-6583
मध्य	-6584
मिका	-6585
यूयं	-6586
शरीर	-6587
ारोह	-6588
ुमहं	-6589
▁अवश	-6590
▁तदु	-6591
▁नवी	-6592
▁पीत	-6593
▁माम	-6594
भिप्र	-6595
मित्य	-6596
र्ध्व	-6597
लोकाः	-6598
वन्तो	-6599
्याद्	-6600
▁कठिन	-6601
▁क्षण	-6602
▁गवेष	-6603
▁दूरं	-6604
▁देशः	-6605
▁नगरं	-6606
▁मेन्	-6607
▁याति	-6608
▁लाभा	-6609
▁शुरू	-6610
▁षष्ठ	-6611
▁सततं	-6612
▁समाग	-6613
▁स्वम	-6614
Ubuntu	-6615
स्ट्रे	-6616
स्तात्	-6617
▁marks	-6618
▁उपदेश	-6619
▁कियत्	-6620
▁तन्नि	-6621
▁निर्भ	-6622
▁पीलात	-6623
▁लिखति	-6624
▁सूत्र	-6625
▁हथेली	-6626
कारणाद्	-6627
पदार्था	-6628
▁Person	-6629
▁stream	-6630
▁अहमिदं	-6631
▁आच्छाद	-6632
▁उच्चैः	-6633
▁कर्सर्	-6634
▁कांश्च	-6635
▁चिनोति	-6636
▁तदुपरि	-6637
▁धारयति	-6638
▁नम्बर्	-6639
▁नित्यं	-6640
▁निश्चि	-6641
▁भूम्या	-6642
▁योजयाम	-6643
▁सर्वाः	-6644
▁स्थितं	-6645
ापेक्षया	-6646
▁अधोभागे	-6647
▁उद्याने	-6648
▁उपविश्य	-6649
▁कारणाद्	-6650
▁दक्षिणे	-6651
▁राजत्वं	-6652
▁विषयस्य	-6653
▁सम्मुखे	-6654
▁सावधाना	-6655
▁database	-6656
▁अपेक्षते	-6657
▁भ्रातृगण	-6658
▁करिष्यामि	-6659
▁व्यवस्थां	-6660
▁श्वासग्रह	-6661
▁करिष्यन्ति	-6662
▁परीक्षितुं	-6663
▁अग्रिमपङ्क्तौ	-6664
My	-6665
YY	-6666
धन	-6667
बह	-6668
है	-6669
New	-6670
eth	-6671
wit	-6672
दाव	-6673
धों	-6674
फ़ै	-6675
रोऽ	-6676
ादु	-6677
ुमा	-6678
ोद्	-6679
▁Le	-6680
▁दौ	-6681
cent	-6682
sers	-6683
thon	-6684
अथवा	-6685
कात्	-6686
टिमै	-6687
टीन्	-6688
ड़ें	-6689
तामि	-6690
दन्त	-6691
माम्	-6692
ल्टि	-6693
ारम्	-6694
ोच्च	-6695
▁Per	-6696
▁Rep	-6697
▁Run	-6698
▁log	-6699
▁उदर	-6700
▁गते	-6701
▁ताल	-6702
▁धृत	-6703
▁निश	-6704
▁सहज	-6705
marks	-6706
कृपया	-6707
त्वम्	-6708
सूचके	-6709
ागत्य	-6710
ितान्	-6711
ृत्या	-6712
▁save	-6713
▁उन्न	-6714
▁क्षु	-6715
▁गीता	-6716
▁जगतः	-6717
▁जननी	-6718
▁तदपि	-6719
▁तदैव	-6720
▁देवी	-6721
▁पौलं	-6722
▁भूरि	-6723
▁मस्त	-6724
▁मिनट	-6725
▁र्वा	-6726
▁विंश	-6727
▁विधि	-6728
▁श्वः	-6729
▁सरलं	-6730
कामनाः	-6731
ण्ट्रि	-6732
नेभ्यः	-6733
प्टिमै	-6734
भ्यश्च	-6735
मात्रं	-6736
मूल्यं	-6737
सिनाप्	-6738
ितमिति	-6739
▁Drive	-6740
▁उच्चै	-6741
▁पर्चन	-6742
▁पादपा	-6743
▁बजेट्	-6744
▁भोजने	-6745
▁महिला	-6746
▁युवान	-6747
▁योग्य	-6748
▁लिखतु	-6749
▁लेबल्	-6750
▁व्यति	-6751
▁शुष्क	-6752
▁स्मरण	-6753
unction	-6754
द्वयस्य	-6755
भिषिक्त	-6756
स्तीत्य	-6757
▁string	-6758
▁उन्मील	-6759
▁कम्पैल	-6760
▁परिचार	-6761
▁पृष्टे	-6762
▁प्रभुं	-6763
▁भवतीषु	-6764
▁भवेयुः	-6765
▁मेषशाव	-6766
▁यूयञ्च	-6767
▁विपक्ष	-6768
▁सहायता	-6769
▁स्त्री	-6770
ब्रेकेट्	-6771
राज्यस्य	-6772
सङ्ख्यां	-6773
▁चतुर्दश	-6774
▁पङ्क्तौ	-6775
▁यावन्तो	-6776
▁युष्माक	-6777
▁सदृशानि	-6778
रीश्वरस्य	-6779
▁अनन्तरम्	-6780
▁निरन्तरं	-6781
▁पूरयन्तु	-6782
▁विवृणोति	-6783
▁सङ्ख्याः	-6784
▁ट्युटोरिय	-6785
एक्सिक्यूट्	-6786
▁सिण्टेक्स्	-6787
2.	-6788
AT	-6789
IN	-6790
IO	-6791
ik	-6792
गि	-6793
थु	-6794
The	-6795
for	-6796
pir	-6797
rog	-6798
गति	-6799
चर्	-6800
छेद	-6801
जना	-6802
थैव	-6803
दूष	-6804
पदं	-6805
शता	-6806
ापू	-6807
ायी	-6808
िणो	-6809
ैवा	-6810
्यक	-6811
▁bl	-6812
▁wh	-6813
▁छू	-6814
▁भं	-6815
▁भौ	-6816
▁सभ	-6817
कारः	-6818
जनाः	-6819
प्यु	-6820
भवन्	-6821
भाति	-6822
भ्रा	-6823
मस्य	-6824
स्थः	-6825
▁Ass	-6826
▁iii	-6827
▁ind	-6828
▁चार	-6829
▁फेन	-6830
▁भेद	-6831
▁यिश	-6832
▁शोभ	-6833
▁संल	-6834
▁समझ	-6835
ircul	-6836
ivity	-6837
कोशिक	-6838
चूर्ण	-6839
मान्त	-6840
स्माद	-6841
▁Show	-6842
▁उद्ध	-6843
▁कोन्	-6844
▁दबाव	-6845
▁दूरे	-6846
▁पुरा	-6847
▁बाएं	-6848
▁भूमे	-6849
▁महती	-6850
▁मृदु	-6851
▁लेने	-6852
▁होने	-6853
lement	-6854
ड्यूल्	-6855
परेटर्	-6856
स्थानि	-6857
स्वच्छ	-6858
ारोत्स	-6859
▁Start	-6860
▁comma	-6861
▁उपयुन	-6862
▁कण्डी	-6863
▁कोलम्	-6864
▁गर्दन	-6865
▁गालील	-6866
▁दैर्घ	-6867
▁मिलति	-6868
▁यशस्व	-6869
▁यात्र	-6870
▁व्यवह	-6871
▁शृण्व	-6872
▁समानं	-6873
▁सम्यग	-6874
वस्त्रं	-6875
ष्यन्ति	-6876
▁Curves	-6877
▁format	-6878
▁struct	-6879
▁window	-6880
▁करणीया	-6881
▁कारणेन	-6882
▁जीवाणु	-6883
▁डेस्क्	-6884
▁तर्ह्य	-6885
▁तेभ्यो	-6886
▁त्राटक	-6887
▁परिवार	-6888
▁पृष्टं	-6889
▁प्राणि	-6890
▁बहिर्ग	-6891
▁भिन्ना	-6892
▁याकूब्	-6893
▁विडियो	-6894
▁सम्भूय	-6895
▁हेरोद्	-6896
न्थिसिस्	-6897
▁teacher	-6898
▁केन्द्र	-6899
▁चित्रम्	-6900
▁प्रथमम्	-6901
▁मेनेजर्	-6902
▁स्वस्थं	-6903
▁हानिकार	-6904
aturation	-6905
मावश्यकम्	-6906
ुमारेभिरे	-6907
▁कुत्रापि	-6908
▁ज्ञातुम्	-6909
▁प्रयुक्त	-6910
▁सर्वेऽपि	-6911
▁कुर्वन्तः	-6912
▁निरीक्ष्य	-6913
▁प्रत्यक्ष	-6914
▁स्थास्यति	-6915
▁अनुशिक्षणं	-6916
▁ट्युटोरियल	-6917
▁प्रतिष्ठाप	-6918
▁इन्स्टेन्स्	-6919
▁उद्घाटयितुं	-6920
▁परियोजनायाः	-6921
▁युष्मत्समीप	-6922
▁निष्कासयन्तु	-6923
खल	-6924
its	-6925
net	-6926
vir	-6927
कदा	-6928
गरं	-6929
नीत	-6930
बाह	-6931
मथि	-6932
लाः	-6933
शां	-6934
▁sl	-6935
▁आँ	-6936
▁रम	-6937
Demo	-6938
plor	-6939
करणम	-6940
जनकं	-6941
ड्डी	-6942
नीयः	-6943
नोत्	-6944
न्दे	-6945
मनुस	-6946
माणा	-6947
स्थल	-6948
ाप्य	-6949
ासनम	-6950
ुह्य	-6951
▁sed	-6952
▁एवा	-6953
▁क्य	-6954
▁दीय	-6955
▁निग	-6956
▁नैक	-6957
▁मार	-6958
▁वाण	-6959
▁शोण	-6960
▁सहि	-6961
▁साफ	-6962
▁सुद	-6963
▁ऽपि	-6964
ialog	-6965
opies	-6966
uperl	-6967
witch	-6968
कूर्च	-6969
जेक्ट	-6970
तथापि	-6971
नोदनं	-6972
भ्राम	-6973
रियल्	-6974
▁Text	-6975
▁code	-6976
▁data	-6977
▁sudo	-6978
▁इष्ट	-6979
▁ऐच्छ	-6980
▁केस्	-6981
▁ट्यू	-6982
▁तदीय	-6983
▁नष्ट	-6984
▁बहुत	-6985
▁बहुम	-6986
▁समुद	-6987
access	-6988
ourses	-6989
भ्रातृ	-6990
श्चेत्	-6991
ितायां	-6992
▁Intro	-6993
▁जनस्य	-6994
▁दोहरा	-6995
▁पेश्य	-6996
▁प्रणम	-6997
▁यातुं	-6998
▁र्यीश	-6999
▁सार्ध	-7000
▁स्पृश	-7001
पूर्वकं	-7002
फ़ोल्ट्	-7003
▁Editor	-7004
▁server	-7005
▁system	-7006
▁अन्विष	-7007
▁कुक्कु	-7008
▁कोट्स्	-7009
▁गृहस्य	-7010
▁दायूदः	-7011
▁पृथिवी	-7012
▁बीजानि	-7013
▁भगवान्	-7014
▁माध्यम	-7015
▁मानसिक	-7016
▁मास्तु	-7017
▁यद्यद्	-7018
▁रात्रौ	-7019
▁लागिन्	-7020
▁लिखामि	-7021
▁विण्डौ	-7022
▁वृत्तं	-7023
▁सम्पुट	-7024
▁सुवर्ण	-7025
अस्माभिः	-7026
न्द्रिया	-7027
विवरणानि	-7028
▁Serials	-7029
▁library	-7030
▁student	-7031
▁एतदर्थं	-7032
▁एतादृशी	-7033
▁चिन्तये	-7034
▁जीविष्य	-7035
▁द्वेऽपि	-7036
▁नियंत्र	-7037
▁नीलवर्ण	-7038
▁पठित्वा	-7039
▁प्रोच्च	-7040
▁लिनक्स्	-7041
▁सूचिकां	-7042
स्तिष्ठति	-7043
▁Terminal	-7044
▁इत्येतैः	-7045
▁किन्त्वि	-7046
▁कुरुध्वं	-7047
▁केंद्रित	-7048
▁ख्रीष्टे	-7049
▁निश्चितं	-7050
▁स्क्रीन्	-7051
▁कर्षयन्तु	-7052
▁परित्यज्य	-7053
▁भवितव्यम्	-7054
▁सञ्चिकाया	-7055
▁getDetails	-7056
उदाहरणार्थम्	-7057
▁प्रत्यागच्छ	-7058
uperlibrarian	-7059
▁Microbiology	-7060
▁अनुशिक्षणस्य	-7061
▁इन्स्टालेशन्	-7062
▁महत्त्वपूर्ण	-7063
▁इत्यस्यानन्तरं	-7064
▁किन्त्वीश्वरस्य	-7065
UI	-7066
घा	-7067
नय	-7068
▁z	-7069
39.	-7070
ebu	-7071
isc	-7072
mod	-7073
अधः	-7074
ट्ठ	-7075
तमा	-7076
दिव	-7077
दीप	-7078
निय	-7079
पुण	-7080
मतं	-7081
मना	-7082
मैल	-7083
ाटा	-7084
▁सब	-7085
ater	-7086
cess	-7087
home	-7088
ular	-7089
इदम्	-7090
कारि	-7091
गुणं	-7092
जीवा	-7093
नमपि	-7094
महम्	-7095
मानो	-7096
मेवा	-7097
श्चा	-7098
समूह	-7099
सहाय	-7100
हिणो	-7101
हिता	-7102
▁उप्	-7103
▁कला	-7104
▁भगव	-7105
▁वचन	-7106
▁शैव	-7107
39.50	-7108
viron	-7109
कोष्ठ	-7110
क्षार	-7111
त्तुं	-7112
पेनल्	-7113
फ़ैल्	-7114
बिन्द	-7115
भियान	-7116
भोजनं	-7117
संख्य	-7118
ारस्य	-7119
ितेषु	-7120
ूल्यं	-7121
▁Marc	-7122
▁अशेष	-7123
▁आवाज	-7124
▁कंधे	-7125
▁तर्ज	-7126
▁दूतो	-7127
▁पाचन	-7128
▁पूरे	-7129
▁युतं	-7130
▁र्भव	-7131
▁वदतु	-7132
▁श्रव	-7133
Reader	-7134
इण्टर्	-7135
एडिटर्	-7136
तिथ्यं	-7137
न्तीति	-7138
राज्ये	-7139
विंशति	-7140
सोर्स्	-7141
स्थिते	-7142
▁Title	-7143
▁inter	-7144
▁उपचार	-7145
▁दूष्य	-7146
▁नाम्न	-7147
▁नूतना	-7148
▁प्यार	-7149
▁प्रजा	-7150
▁यस्मै	-7151
▁यौगिक	-7152
▁रचयतु	-7153
▁शत्रु	-7154
▁सम्पृ	-7155
▁स्थूल	-7156
ड्रोजन्	-7157
नीयमिति	-7158
▁Explor	-7159
▁search	-7160
▁करणीयं	-7161
▁जिह्वा	-7162
▁द्वयोः	-7163
▁पुनश्च	-7164
▁बहूनां	-7165
▁रक्षति	-7166
▁विभक्त	-7167
▁विषयम्	-7168
▁स्क्रि	-7169
▁स्वामी	-7170
निर्माणं	-7171
यिष्यामः	-7172
▁address	-7173
▁कार्यम्	-7174
scription	-7175
vironment	-7176
▁Avogadro	-7177
▁document	-7178
▁उत्पन्ना	-7179
▁कण्डीषन्	-7180
▁करणीयानि	-7181
▁नमस्कारं	-7182
▁निर्माणे	-7183
▁पूर्ववत्	-7184
▁प्रत्याश	-7185
▁प्रविशति	-7186
▁प्रस्थाय	-7187
▁संधारिका	-7188
▁स्थानेषु	-7189
सिनाप्टिक्	-7190
▁प्राप्ताः	-7191
▁स्थापयेत्	-7192
▁अप्लिकेशन्	-7193
▁डैमेन्शनल्	-7194
▁प्राप्तानि	-7195
▁उदाहरणार्थम्	-7196
▁भविष्यद्वादी	-7197
▁प्रकाशसंश्लेष	-7198
To	-7199
इद	-7200
यी	-7201
मनं	-7202
यां	-7203
येम	-7204
रीय	-7205
शिर	-7206
ृतः	-7207
ोधू	-7208
्यै	-7209
▁iv	-7210
▁उत	-7211
▁मल	-7212
atex	-7213
ents	-7214
fter	-7215
orre	-7216
क्लो	-7217
गुरु	-7218
जीवन	-7219
ज्मि	-7220
टगरि	-7221
ण्डे	-7222
त्तो	-7223
नञ्च	-7224
नाद्	-7225
यीशु	-7226
रणम्	-7227
र्थे	-7228
र्मा	-7229
लेखं	-7230
वलोक	-7231
ीनाम	-7232
ुञ्च	-7233
▁JSP	-7234
▁Res	-7235
▁flo	-7236
▁pdf	-7237
▁sum	-7238
▁अन्	-7239
▁अस्	-7240
▁आँख	-7241
▁कूट	-7242
▁कोऽ	-7243
▁ताप	-7244
▁शोक	-7245
andom	-7246
arpen	-7247
etthe	-7248
प्रभो	-7249
मन्दि	-7250
वोचत्	-7251
ोत्तर	-7252
▁Bank	-7253
▁Dash	-7254
▁void	-7255
▁आचार	-7256
▁एरर्	-7257
▁कौशल	-7258
▁जगाम	-7259
▁झुका	-7260
▁तत्व	-7261
▁धूसर	-7262
▁पाणि	-7263
▁बह्व	-7264
▁भूमौ	-7265
▁रूपे	-7266
▁लाग्	-7267
▁सक्ष	-7268
▁सोपि	-7269
▁होती	-7270
क्त्वा	-7271
ङ्क्ति	-7272
स्केप्	-7273
▁Categ	-7274
▁gedit	-7275
▁अद्भु	-7276
▁उक्तं	-7277
▁ऊर्जा	-7278
▁कथाम्	-7279
▁करतलौ	-7280
▁जनयति	-7281
▁दिवसे	-7282
▁नेविग	-7283
▁पितरः	-7284
▁प्लग्	-7285
▁लक्षण	-7286
▁वाष्प	-7287
▁विशाल	-7288
ग्रन्थे	-7289
न्नस्ति	-7290
पत्राणि	-7291
वर्षस्य	-7292
विषयान्	-7293
▁Budget	-7294
▁Stroke	-7295
▁import	-7296
▁moodle	-7297
▁उबण्टु	-7298
▁कारयति	-7299
▁गालील्	-7300
▁दृष्टः	-7301
▁दृष्टि	-7302
▁पर्व्व	-7303
▁पृष्ठं	-7304
▁पोस्ट्	-7305
▁प्राची	-7306
▁मनुजसु	-7307
▁मन्दिर	-7308
▁मिथ्या	-7309
▁वर्शन्	-7310
▁विपरीत	-7311
टेक्स्ट्	-7312
र्म्याट्	-7313
▁कोर्सस्	-7314
▁प्राणिन	-7315
▁प्रोक्त	-7316
▁मूल्यम्	-7317
▁विवरणम्	-7318
▁सर्वदैव	-7319
avigation	-7320
etthegimp	-7321
परिवर्तनं	-7322
▁इदानीमहं	-7323
▁उत्पत्ति	-7324
▁क्षेत्रे	-7325
▁जागरूकता	-7326
▁प्रस्तुत	-7327
▁वासुदेवः	-7328
▁variables	-7329
▁आगच्छन्ति	-7330
▁इत्येतस्य	-7331
▁टण्कयन्तु	-7332
▁प्रत्यर्प	-7333
▁सर्व्वत्र	-7334
▁सर्व्वेषु	-7335
▁तस्मिन्नेव	-7336
▁प्राप्तवान	-7337
▁प्रेषितवान्	-7338
▁रचितवानस्मि	-7339
▁साहाय्यमाचरति	-7340
SB	-7341
mb	-7342
मध	-7343
ीठ	-7344
’,	-7345
cho	-7346
dot	-7347
irb	-7348
mit	-7349
ove	-7350
rid	-7351
www	-7352
अनु	-7353
गणं	-7354
घात	-7355
डें	-7356
निं	-7357
भिक	-7358
योर	-7359
ेशः	-7360
्त्	-7361
▁80	-7362
▁अय	-7363
▁खु	-7364
▁नृ	-7365
▁फे	-7366
/201	-7367
iter	-7368
ning	-7369
दन्य	-7370
दायि	-7371
दीजी	-7372
निया	-7373
मन्त	-7374
ानुप	-7375
ोंने	-7376
▁Web	-7377
▁end	-7378
▁जाए	-7379
▁दान	-7380
▁पठन	-7381
▁पाक	-7382
▁मकर	-7383
▁शैत	-7384
ative	-7385
ayers	-7386
enter	-7387
इमानि	-7388
कार्ष	-7389
कुर्व	-7390
नीयाः	-7391
प्रेर	-7392
मभवत्	-7393
मेंट्	-7394
याणां	-7395
यूसर्	-7396
योज्य	-7397
शब्दं	-7398
▁Brow	-7399
▁path	-7400
▁चेति	-7401
▁दिया	-7402
▁भक्ष	-7403
▁भरते	-7404
▁वसति	-7405
▁शाखा	-7406
▁सत्व	-7407
▁समाज	-7408
▁हेतव	-7409
अग्रिम	-7410
कमस्ति	-7411
क्रमेण	-7412
दर्शनं	-7413
दिनानि	-7414
दृश्यं	-7415
परिवार	-7416
संख्या	-7417
सङ्ख्य	-7418
िकानां	-7419
▁Level	-7420
▁after	-7421
▁count	-7422
▁अंतिम	-7423
▁आसनों	-7424
▁इच्छा	-7425
▁एतत्स	-7426
▁क्लास	-7427
▁तकनीक	-7428
▁दण्डं	-7429
▁नाशक्	-7430
▁निकाल	-7431
▁नित्य	-7432
▁पुनर्	-7433
▁ब्रह्	-7434
▁भक्ति	-7435
▁भजनभव	-7436
▁समस्य	-7437
▁स्ट्र	-7438
Servlet	-7439
टर्न्स्	-7440
त्सविधे	-7441
निर्मित	-7442
विकल्पः	-7443
▁इन्टर्	-7444
▁कार्बन	-7445
▁तन्नाम	-7446
▁द्वारं	-7447
▁पिञ्जं	-7448
▁यतस्ते	-7449
▁युद्धं	-7450
▁लक्ष्य	-7451
▁व्यक्त	-7452
▁सपुण्य	-7453
▁स्थिरी	-7454
▁स्वभाव	-7455
स्थानानि	-7456
▁अकौण्ट्	-7457
▁किञ्चिद	-7458
▁गतिविधि	-7459
▁निश्चित	-7460
▁पतित्वा	-7461
▁परिमाणं	-7462
▁लिखितम्	-7463
▁लेखितुं	-7464
▁शिष्याः	-7465
formation	-7466
▁कम्पैलर्	-7467
▁निमन्त्र	-7468
▁पर्याप्त	-7469
▁पूरयितुं	-7470
▁प्रतीक्ष	-7471
▁स्वहस्तौ	-7472
क्षेत्रेषु	-7473
▁एक्सिक्यू	-7474
▁कस्मिंश्च	-7475
▁डीफ़ोल्ट्	-7476
▁प्रतिकृति	-7477
▁प्रत्याशा	-7478
▁प्रार्थये	-7479
▁प्रोजेक्ट	-7480
▁मन्दिरस्य	-7481
▁इस्रायेलीय	-7482
▁एप्लिकेशन्	-7483
▁दृष्टवन्तः	-7484
▁परिवर्तनम्	-7485
▁प्रोम्प्ट्	-7486
▁स्क्रिप्ट्	-7487
▁Preferences	-7488
▁निस्तारोत्स	-7489
▁व्यवस्थापयितुं	-7490
10	-7491
11	-7492
ER	-7493
cd	-7494
no	-7495
xy	-7496
इन	-7497
एष	-7498
वश	-7499
हन	-7500
िय	-7501
ुन	-7502
aus	-7503
rag	-7504
करा	-7505
किद	-7506
कैः	-7507
गर्	-7508
चिक	-7509
जाल	-7510
ढुं	-7511
नपि	-7512
पूप	-7513
पृथ	-7514
वति	-7515
सरः	-7516
ादय	-7517
्यौ	-7518
▁टै	-7519
▁वप	-7520
asic	-7521
come	-7522
face	-7523
क्सि	-7524
जावा	-7525
थस्य	-7526
दृग्	-7527
प्रभ	-7528
भिरु	-7529
मिरो	-7530
व्रज	-7531
सत्य	-7532
ाञ्च	-7533
िकल्	-7534
ेऽहं	-7535
▁3.3	-7536
▁अमर	-7537
▁जगत	-7538
▁तात	-7539
▁दूष	-7540
▁पशव	-7541
▁यथे	-7542
▁यदी	-7543
▁राव	-7544
▁वदथ	-7545
▁समृ	-7546
▁स्र	-7547
केभ्य	-7548
त्याग	-7549
प्रजा	-7550
बजेट्	-7551
बद्धं	-7552
मेत्य	-7553
ानन्त	-7554
ीकृतं	-7555
▁अस्त	-7556
▁आसम्	-7557
▁एत्य	-7558
▁करती	-7559
▁कीलं	-7560
▁दृढं	-7561
▁परकर	-7562
▁बनाए	-7563
▁बहिर	-7564
▁बहुद	-7565
▁यूयम	-7566
▁येषु	-7567
▁वाग्	-7568
▁समम्	-7569
ण्डस्य	-7570
दाहरणं	-7571
भूत्वा	-7572
सन्धार	-7573
स्क्रि	-7574
स्थान्	-7575
ृतवान्	-7576
▁trans	-7577
▁आकर्ष	-7578
▁आवलिं	-7579
▁इङ्क्	-7580
▁कंधों	-7581
▁न्याय	-7582
▁भद्रं	-7583
▁राज्ञ	-7584
▁वदामः	-7585
▁वीक्ष	-7586
▁सहायं	-7587
urchase	-7588
च्छन्ति	-7589
नातिन्य	-7590
▁Number	-7591
▁अन्तरं	-7592
▁अर्जुन	-7593
▁कनिष्ठ	-7594
▁केचिद्	-7595
▁डीग्री	-7596
▁त्रिंश	-7597
▁न्यूना	-7598
▁पठितुं	-7599
▁पश्चात	-7600
▁प्रवाह	-7601
▁बालिका	-7602
▁यद्वद्	-7603
▁वयमिदं	-7604
▁विद्यु	-7605
▁सम्मान	-7606
▁साधनम्	-7607
▁स्मर्य	-7608
▁अनुग्रह	-7609
▁उपविशेत	-7610
▁कार्बन्	-7611
▁प्रीयते	-7612
▁सामग्री	-7613
▁Accounts	-7614
▁Password	-7615
▁brackets	-7616
▁उत्कृष्ट	-7617
▁क्रियेट्	-7618
▁निम्नलिख	-7619
▁पङ्क्तिं	-7620
▁पश्यन्तः	-7621
▁लोकसंगीत	-7622
▁व्यभिचार	-7623
▁व्याहरन्	-7624
▁स्तरवर्ण	-7625
साक्षरतामि	-7626
सीक्वेन्स्	-7627
स्ट्रिङ्ग्	-7628
▁Operating	-7629
▁इब्राहीम्	-7630
▁उपयुनज्मि	-7631
▁तत्पश्चात	-7632
▁परमेश्वरः	-7633
▁यथार्थतया	-7634
▁categories	-7635
▁दक्षिणपादं	-7636
▁प्रत्यवदत्	-7637
▁फङ्क्षन्स्	-7638
▁preferences	-7639
▁अवलोक्यताम्	-7640
▁उपयुज्यन्ते	-7641
▁न्यूनातिन्य	-7642
▁मुद्रापयामः	-7643
▁संवादपेटिका	-7644
▁आर्ग्युमेण्ट्	-7645
▁भवितुमर्हन्ति	-7646
हृ	-7647
िम	-7648
ूं	-7649
फ़ि	-7650
वन्	-7651
्यम	-7652
▁?"	-7653
▁गए	-7654
▁लु	-7655
,000	-7656
Bank	-7657
amer	-7658
back	-7659
cale	-7660
date	-7661
sing	-7662
कारो	-7663
गृहे	-7664
टेड्	-7665
ड्त्	-7666
नेषु	-7667
पिनप	-7668
फैल्	-7669
भूतं	-7670
भूमि	-7671
मण्ड	-7672
र्थक	-7673
िद्र	-7674
ुनिक	-7675
्याम	-7676
्युप	-7677
▁has	-7678
▁one	-7679
▁अलभ	-7680
▁आकृ	-7681
▁आवि	-7682
▁मूष	-7683
▁सती	-7684
ethod	-7685
कीलफल	-7686
कृत्व	-7687
ण्डल्	-7688
त्साह	-7689
धिष्ठ	-7690
मानाः	-7691
मार्ज	-7692
श्चतु	-7693
सेशन्	-7694
िकाम्	-7695
ीकृता	-7696
▁oper	-7697
▁इत्थ	-7698
▁उच्य	-7699
▁कण्ट	-7700
▁केषु	-7701
▁कोट्	-7702
▁घुमा	-7703
▁दाहि	-7704
▁पादा	-7705
▁मिसर	-7706
▁मुखं	-7707
▁मृता	-7708
▁योगी	-7709
▁वाक्	-7710
▁समयः	-7711
ilters	-7712
क्सेस्	-7713
गच्छति	-7714
प्रचार	-7715
मासस्य	-7716
मेन्यू	-7717
राज्यं	-7718
र्तुम्	-7719
र्भवति	-7720
विश्वा	-7721
स्तत्र	-7722
स्त्वं	-7723
ासनस्य	-7724
▁index	-7725
▁using	-7726
▁इसलिए	-7727
▁जगदुः	-7728
▁तासां	-7729
▁बैठें	-7730
▁महारा	-7731
▁मिशन्	-7732
▁विधाय	-7733
▁विश्र	-7734
▁संविध	-7735
▁सक्षम	-7736
▁समिति	-7737
कम्पैल्	-7738
कर्तुम्	-7739
केन्द्र	-7740
प्रदेशे	-7741
वर्यस्य	-7742
स्वरूपं	-7743
ितवन्तौ	-7744
▁अवधानं	-7745
▁तद्यथा	-7746
▁प्रबोध	-7747
▁फलितम्	-7748
▁भवन्तं	-7749
▁महर्षि	-7750
▁रक्षां	-7751
▁शक्तिं	-7752
▁सप्ताह	-7753
▁सुग्री	-7754
▁स्वामि	-7755
चित्रस्य	-7756
चिह्नस्य	-7757
न्त्रस्य	-7758
▁capital	-7759
▁methods	-7760
▁अनेकानि	-7761
▁अस्थीनि	-7762
▁कश्चिन्	-7763
▁कियन्तो	-7764
▁गवाक्षे	-7765
▁टिप्पणी	-7766
▁दास्यति	-7767
▁ब्राह्म	-7768
▁भोजनपरि	-7769
▁भ्रामरी	-7770
▁संयोजनं	-7771
▁साक्षिण	-7772
कुर्व्वन्	-7773
▁उद्दिश्य	-7774
▁ततस्तस्य	-7775
▁द्योतयति	-7776
▁पङ्क्तीः	-7777
▁परस्परम्	-7778
▁पुष्पाणि	-7779
▁प्रोसेस्	-7780
▁मानवानां	-7781
▁लोकनृत्य	-7782
▁सन्निधिं	-7783
▁सम्पर्कं	-7784
▁स्थित्वा	-7785
▁Downloads	-7786
▁इत्याख्यं	-7787
▁इत्येतेषु	-7788
▁उदाहरणानि	-7789
▁लिखितवान्	-7790
▁स्वीकृत्य	-7791
▁आश्चर्य्यं	-7792
▁उद्घाटयामः	-7793
▁भविष्यतीति	-7794
▁व्यवस्थाया	-7795
▁सञ्चिकानां	-7796
▁सामान्यतया	-7797
▁इत्युक्त्वा	-7798
▁उत्तीर्णतां	-7799
▁उपयुज्यताम्	-7800
▁प्रधानयाजका	-7801
▁इत्यस्योपयोग	-7802
▁भारतसर्वकारेण	-7803
yd	-7804
ंख	-7805
ढ़	-7806
पं	-7807
लर	-7808
शू	-7809
ूर	-7810
Con	-7811
ach	-7812
erm	-7813
red	-7814
दृढ	-7815
यखि	-7816
लाभ	-7817
ायो	-7818
ूम्	-7819
▁EN	-7820
▁No	-7821
▁आच	-7822
▁धी	-7823
▁बन	-7824
mall	-7825
oice	-7826
zier	-7827
क्टो	-7828
क्ष्	-7829
जानु	-7830
तथैव	-7831
द्धा	-7832
पत्र	-7833
पर्ण	-7834
भ्रम	-7835
मयेन	-7836
मेवं	-7837
रान्	-7838
रिति	-7839
सेज्	-7840
ानपि	-7841
ाप्त	-7842
्याय	-7843
▁age	-7844
▁are	-7845
▁इतर	-7846
▁घात	-7847
▁डाय	-7848
▁ददौ	-7849
▁दिश	-7850
▁पदं	-7851
▁योऽ	-7852
▁सिक	-7853
omple	-7854
ydrog	-7855
पेभ्य	-7856
पैथन्	-7857
भारते	-7858
वर्तत	-7859
स्टर्	-7860
स्तम्	-7861
्रेग्	-7862
▁Anim	-7863
▁List	-7864
▁Over	-7865
▁Step	-7866
▁list	-7867
▁आगता	-7868
▁एतेष	-7869
▁नश्य	-7870
▁पटले	-7871
▁पाप्	-7872
▁प्रश	-7873
▁फुप्	-7874
▁बृहद	-7875
▁महत्	-7876
▁मातृ	-7877
▁लङ्क	-7878
▁लोड्	-7879
▁वराह	-7880
▁विभि	-7881
elcome	-7882
review	-7883
कानाम्	-7884
ग्राम्	-7885
चारिणो	-7886
नास्ति	-7887
नुग्रह	-7888
परिणाम	-7889
प्रदूष	-7890
सार्थं	-7891
ायुक्त	-7892
▁Books	-7893
▁FASTA	-7894
▁Users	-7895
▁shift	-7896
▁कबन्ध	-7897
▁करोषि	-7898
▁दूसरे	-7899
▁दैनिक	-7900
▁पितरो	-7901
▁मेरुद	-7902
▁याकूब	-7903
▁ऽभवत्	-7904
कार्यम्	-7905
ज्ञानम्	-7906
न्द्रिय	-7907
पश्यतां	-7908
र्मध्ये	-7909
सामान्य	-7910
ाम्प्ट्	-7911
ुमारेभे	-7912
▁इत्यहं	-7913
▁एतावत्	-7914
▁कस्मिन	-7915
▁काश्चन	-7916
▁तस्मात	-7917
▁दीप्ति	-7918
▁परम्पर	-7919
▁प्रथमा	-7920
▁प्रायः	-7921
▁व्यश्व	-7922
▁सर्पणं	-7923
▁स्पोकन	-7924
▁स्मृति	-7925
▁हरिद्व	-7926
िष्यन्ति	-7927
▁version	-7928
▁आगन्तुं	-7929
▁उप्पिनप	-7930
▁प्राचार	-7931
▁भवितव्य	-7932
▁भ्रातरो	-7933
▁स्वकीयं	-7934
द्विसहस्र	-7935
▁Explorer	-7936
▁Internet	-7937
▁MarcEdit	-7938
▁अधस्तात्	-7939
▁अनुसृत्य	-7940
▁अस्यार्थ	-7941
▁कपालभाति	-7942
▁कस्यचिद्	-7943
▁धन्यवादः	-7944
▁पुष्पस्य	-7945
▁प्राप्ति	-7946
▁लप्स्यते	-7947
ीकुर्वन्तु	-7948
▁statement	-7949
▁परिवर्त्त	-7950
▁पवित्रस्य	-7951
▁प्रदृष्टं	-7952
▁विद्यमाना	-7953
▁Management	-7954
▁कृतवानस्मि	-7955
▁छात्रेभ्यः	-7956
▁विशेषरूपेण	-7957
▁सम्बद्धानि	-7958
▁परिवर्त्यते	-7959
▁पेरन्थिसिस्	-7960
▁सम्पूर्णतया	-7961
कन्स्ट्रक्टर्	-7962
▁एक्स्टेन्षन्	-7963
▁प्रत्यावर्तयेत	-7964
PU	-7965
ईं	-7966
लः	-7967
लष	-7968
amp	-7969
pro	-7970
कीब	-7971
गवा	-7972
नाद	-7973
बंध	-7974
रिव	-7975
रेत	-7976
ैस्	-7977
▁90	-7978
▁ac	-7979
▁ऋण	-7980
▁टा	-7981
▁वच	-7982
▁शे	-7983
work	-7984
कारक	-7985
चयनं	-7986
जायत	-7987
ट्ठी	-7988
तीये	-7989
दाता	-7990
ब्स्	-7991
यानं	-7992
रामं	-7993
रेखा	-7994
र्वि	-7995
वसरे	-7996
श्चै	-7997
सरति	-7998
सिंह	-7999
ूनाम	-8000
ृतम्	-8001
▁GUI	-8002
▁Gre	-8003
▁cat	-8004
▁key	-8005
▁squ	-8006
▁अवय	-8007
▁आने	-8008
▁आशी	-8009
▁उसे	-8010
▁कवक	-8011
▁कोण	-8012
▁गर्	-8013
▁दशा	-8014
▁नौक	-8015
▁वेश	-8016
▁सद्	-8017
First	-8018
irban	-8019
करणेन	-8020
ग्गोच	-8021
डुम्ब	-8022
दिशति	-8023
द्याः	-8024
पुष्प	-8025
प्रेष	-8026
भक्ति	-8027
भट्टः	-8028
मिशन्	-8029
रुह्य	-8030
विक्र	-8031
षन्स्	-8032
संवाद	-8033
▁"""‘	-8034
▁ctrl	-8035
▁menu	-8036
▁mode	-8037
▁read	-8038
▁आम्र	-8039
▁आरभत	-8040
▁एषां	-8041
▁ओवर्	-8042
▁कण्ठ	-8043
▁छाती	-8044
▁तमेव	-8045
▁धातु	-8046
▁परिह	-8047
▁पुरो	-8048
▁बुभु	-8049
▁भगवत	-8050
▁लक्ष	-8051
▁वृक्	-8052
▁व्यू	-8053
▁शिरस	-8054
▁सन्न	-8055
▁सीमा	-8056
▁हृदय	-8057
cation	-8058
istory	-8059
ompany	-8060
ञ्चेत्	-8061
पवित्र	-8062
मुद्रा	-8063
रेन्स्	-8064
लम्ब्य	-8065
ष्टुम्	-8066
स्त्रा	-8067
ितव्या	-8068
ेष्वपि	-8069
ोपयोगं	-8070
्यर्थं	-8071
▁3.7.0	-8072
▁Close	-8073
▁Suppl	-8074
▁front	-8075
▁point	-8076
▁अवदन्	-8077
▁आन्ति	-8078
▁उत्था	-8079
▁उपकरण	-8080
▁कस्या	-8081
▁कियते	-8082
▁कुत्स	-8083
▁दिव्य	-8084
▁धैर्य	-8085
▁निराम	-8086
▁मत्तो	-8087
▁माकिद	-8088
▁मूत्र	-8089
▁रचयति	-8090
▁विष्ण	-8091
▁शब्दं	-8092
▁श्राव	-8093
▁सुप्त	-8094
▁हड्डी	-8095
ization	-8096
इतीमानि	-8097
तस्माद्	-8098
प्रत्ये	-8099
यितुञ्च	-8100
राष्ट्र	-8101
स्मभ्यं	-8102
स्वरूपा	-8103
▁Action	-8104
▁printf	-8105
▁अकथयत्	-8106
▁अभिप्र	-8107
▁अर्हति	-8108
▁इच्छाम	-8109
▁उत्साह	-8110
▁उपस्था	-8111
▁क्लोस्	-8112
▁ग्रामी	-8113
▁ग्रुप्	-8114
▁दुग्धं	-8115
▁नासीत्	-8116
▁परिवेश	-8117
▁पितामह	-8118
▁पुनरेक	-8119
▁प्रदीप	-8120
▁प्राणी	-8121
▁भक्ष्य	-8122
▁भिन्नं	-8123
▁महत्वं	-8124
▁यद्वत्	-8125
▁यिहूदि	-8126
▁यीशुरु	-8127
▁वक्ष्य	-8128
▁विष्णु	-8129
▁समीचीन	-8130
▁समुचित	-8131
▁सूत्रं	-8132
▁हिस्से	-8133
structor	-8134
करणार्थं	-8135
निस्ट्रे	-8136
पुत्रस्य	-8137
लोकानाम्	-8138
▁अस्माकम	-8139
▁आगतवान्	-8140
▁आगमिष्य	-8141
▁कांश्चन	-8142
▁चित्रकण	-8143
▁दृग्गोच	-8144
▁परकरेषु	-8145
▁परिणामं	-8146
▁परीक्षा	-8147
▁प्रयोगो	-8148
▁भविष्यथ	-8149
▁विशेषता	-8150
▁आयुर्वेद	-8151
▁कथामेतां	-8152
▁प्रवृत्त	-8153
▁विरुद्धं	-8154
▁पूर्व्वम्	-8155
▁प्रथमवारं	-8156
▁भवदभीष्टं	-8157
▁विश्वसिति	-8158
▁शुभकामनाः	-8159
▁स्कन्धस्य	-8160
▁स्थाप्यते	-8161
▁स्वर्गाद्	-8162
▁तत्क्षणात्	-8163
▁पश्चाद्वयं	-8164
▁प्रत्यवदन्	-8165
▁प्रयुज्यते	-8166
▁वामपार्श्व	-8167
▁असैन्मेण्ट्	-8168
▁प्राप्स्यति	-8169
▁उपयोक्तृभ्यः	-8170
▁Administration	-8171
▁Superlibrarian	-8172
OK	-8173
my	-8174
pt	-8175
wd	-8176
इए	-8177
चा	-8178
els	-8179
hes	-8180
ime	-8181
किं	-8182
कुम	-8183
जने	-8184
टिन	-8185
ड्ड	-8186
पदे	-8187
रें	-8188
लूप	-8189
षेध	-8190
सोप	-8191
हरे	-8192
ानः	-8193
▁BO	-8194
▁cl	-8195
▁sc	-8196
▁up	-8197
▁गल	-8198
Book	-8199
ated	-8200
cont	-8201
ides	-8202
mary	-8203
एतेन	-8204
काणि	-8205
चेक्	-8206
टोप्	-8207
पाठं	-8208
प्रस	-8209
मेल्	-8210
रक्त	-8211
र्वा	-8212
वदेव	-8213
ाव्य	-8214
ितेन	-8215
▁For	-8216
▁reg	-8217
▁web	-8218
▁अंत	-8219
▁अयो	-8220
▁आंत	-8221
▁आड्	-8222
▁ऋषि	-8223
▁तैल	-8224
▁दिग	-8225
▁शाख	-8226
▁शास	-8227
anges	-8228
ultip	-8229
एतस्य	-8230
कथयद्	-8231
कीर्ण	-8232
जनान्	-8233
ण्डाग	-8234
ध्यते	-8235
मेतद्	-8236
यर्स्	-8237
र्यात	-8238
लक्षण	-8239
वश्यं	-8240
सृष्ट	-8241
स्थले	-8242
▁Demo	-8243
▁link	-8244
▁null	-8245
▁अनुप	-8246
▁आयतं	-8247
▁आरोप	-8248
▁आरोह	-8249
▁उच्छ	-8250
▁करके	-8251
▁कूर्	-8252
▁गुणा	-8253
▁घटना	-8254
▁जैसे	-8255
▁ज्ये	-8256
▁तनाव	-8257
▁पठति	-8258
▁पतति	-8259
▁पद्ध	-8260
▁पन्थ	-8261
▁पूरी	-8262
▁मनसा	-8263
▁लघ्व	-8264
▁लाऐं	-8265
▁लिपि	-8266
▁वञ्च	-8267
figure	-8268
करणात्	-8269
ड्राप्	-8270
न्नत्व	-8271
र्य्या	-8272
वासिनो	-8273
ात्मकं	-8274
ीकरोमि	-8275
ीतवान्	-8276
▁Field	-8277
▁Setup	-8278
▁distr	-8279
▁करेषु	-8280
▁कैश्च	-8281
▁चित्त	-8282
▁जैविक	-8283
▁दीप्त	-8284
▁निधाय	-8285
▁भाषते	-8286
▁मार्ज	-8287
▁वयमपि	-8288
▁विधान	-8289
▁शैवाल	-8290
▁स्रोत	-8291
▁हेडर्	-8292
ज्ञातुं	-8293
पश्चाद्	-8294
मिच्छति	-8295
▁Hydrog	-8296
▁अस्मत्	-8297
▁अस्मान	-8298
▁उल्लेख	-8299
▁काचित्	-8300
▁कोड्स्	-8301
▁गच्छन्	-8302
▁छोड़ते	-8303
▁जानुनी	-8304
▁दातुम्	-8305
▁नाम्नि	-8306
▁पूर्वे	-8307
▁प्रथमः	-8308
▁प्रस्थ	-8309
▁फ़ोरम्	-8310
▁बिन्दु	-8311
▁बेण्ड्	-8312
▁मेसेज्	-8313
▁वर्धाप	-8314
▁सञ्चयं	-8315
▁सत्यां	-8316
▁सुगन्ध	-8317
▁सुन्दर	-8318
istrator	-8319
कार्याणि	-8320
क्षेत्रं	-8321
त्त्वानि	-8322
भविष्यत्	-8323
वस्तूनां	-8324
सन्दर्भे	-8325
▁program	-8326
▁request	-8327
▁अपेक्षा	-8328
▁उपविष्ट	-8329
▁कथयितुं	-8330
▁कीलफलके	-8331
▁कुटुम्ब	-8332
▁तत्समीप	-8333
▁प्रणाली	-8334
▁प्रतिमा	-8335
▁ब्रह्मा	-8336
▁भक्ष्यं	-8337
▁रिटर्न्	-8338
▁लैब्ररि	-8339
▁वर्णान्	-8340
▁विद्याल	-8341
▁शिष्यैः	-8342
▁सर्व्वै	-8343
▁सुरक्षा	-8344
▁स्वर्गं	-8345
अधिकविवरण	-8346
▁उपस्थिते	-8347
▁कथामिमां	-8348
▁कस्यचित्	-8349
▁क्रियतां	-8350
▁प्रयोजनं	-8351
▁मृत्तिका	-8352
▁रक्तवर्ण	-8353
▁शारीरिका	-8354
▁संयोजनम्	-8355
▁समाप्यते	-8356
पर्य्यन्तं	-8357
▁आगमिष्यति	-8358
▁औत्सर्गिक	-8359
▁कमाण्ड्स्	-8360
▁दत्तवन्तः	-8361
▁नेविगेशन्	-8362
▁विकल्पस्य	-8363
▁विद्यमाने	-8364
▁व्यवस्थया	-8365
▁व्याख्यां	-8366
▁श्मशानाद्	-8367
▁फिरूशिनश्च	-8368
▁सङ्ख्यायाः	-8369
▁परिवर्तयितुम्	-8370
▁यीशुख्रीष्टेन	-8371
▁व्यवस्थापयामि	-8372
▁स्टेट्मेण्ट्स्	-8373
20	-8374
aj	-8375
ra	-8376
ंट	-8377
आस	-8378
ोत	-8379
ोभ	-8380
.05	-8381
.30	-8382
Add	-8383
aff	-8384
jsp	-8385
oft	-8386
umn	-8387
आर्	-8388
मयं	-8389
सीव	-8390
हाइ	-8391
ितम	-8392
ीयत	-8393
ौषध	-8394
्रु	-8395
▁40	-8396
▁BL	-8397
▁पं	-8398
aces	-8399
णानि	-8400
णामः	-8401
त्ता	-8402
दीयं	-8403
निष्	-8404
भारत	-8405
मार्	-8406
यिहू	-8407
रेषु	-8408
लब्ध	-8409
वादा	-8410
स्तो	-8411
ाकार	-8412
ाण्य	-8413
ादेश	-8414
ामुप	-8415
ोर्ट	-8416
▁जनं	-8417
▁जनि	-8418
▁नाक	-8419
▁फेफ	-8420
▁बलि	-8421
▁बाह	-8422
▁रुद	-8423
▁हुआ	-8424
aphic	-8425
athem	-8426
ested	-8427
ormat	-8428
rency	-8429
ऐकान्	-8430
क्षम्	-8431
जीवने	-8432
दिशत्	-8433
मिश्र	-8434
रक्षण	-8435
र्थिक	-8436
वासिन	-8437
विस्त	-8438
शीर्ष	-8439
श्राम	-8440
स्तरे	-8441
▁Auto	-8442
▁Meet	-8443
▁आपरे	-8444
▁करणे	-8445
▁गोधू	-8446
▁जाऐं	-8447
▁डिफ़	-8448
▁तेजो	-8449
▁दातु	-8450
▁नाहं	-8451
▁निरा	-8452
▁नौका	-8453
▁परिध	-8454
▁पारं	-8455
▁पुटं	-8456
▁प्या	-8457
▁मृषा	-8458
▁यान्	-8459
▁वाणि	-8460
▁विवि	-8461
▁वेति	-8462
▁शुष्	-8463
▁समित	-8464
▁सस्य	-8465
aining	-8466
orrect	-8467
static	-8468
stract	-8469
ङ्क्स्	-8470
बन्धनं	-8471
ब्लोक्	-8472
वश्यकं	-8473
स्तद्व	-8474
▁break	-8475
▁curly	-8476
▁अहमपि	-8477
▁आवलिः	-8478
▁इस्हा	-8479
▁औषधीय	-8480
▁तद्वि	-8481
▁दन्ता	-8482
▁प्राग	-8483
▁यदाहं	-8484
▁यद्वा	-8485
▁राक्ष	-8486
▁रेखां	-8487
▁संस्थ	-8488
▁स्मार	-8489
ignment	-8490
ustomer	-8491
जीवनस्य	-8492
टिकायां	-8493
माणानां	-8494
सामग्री	-8495
सेनापति	-8496
▁Source	-8497
▁अंगूठे	-8498
▁अन्यथा	-8499
▁अर्थतो	-8500
▁आत्मना	-8501
▁ऊर्ध्व	-8502
▁कीटनाश	-8503
▁कूर्पर	-8504
▁त्रिको	-8505
▁दिनानि	-8506
▁परिक्र	-8507
▁पश्चाद	-8508
▁पुमान्	-8509
▁पुष्पं	-8510
▁प्रिया	-8511
▁बर्णब्	-8512
▁बहुविध	-8513
▁भवन्तु	-8514
▁भारतम्	-8515
▁भूतान्	-8516
▁रचितम्	-8517
▁संग्रह	-8518
▁सञ्चाल	-8519
▁हन्तुं	-8520
त्वारिंश	-8521
ीश्वरस्य	-8522
▁default	-8523
▁success	-8524
▁कर्म्मा	-8525
▁तत्रत्य	-8526
▁नक्षत्र	-8527
▁पादपस्य	-8528
▁युगपदेव	-8529
▁श्रीमन्	-8530
▁श्रोतुं	-8531
athematic	-8532
रिष्यन्ति	-8533
स्तीत्यतः	-8534
▁settings	-8535
▁अनुसरणाय	-8536
▁इतीदमेकं	-8537
▁उत्सर्जन	-8538
▁कर्तुमहं	-8539
▁दृष्टुम्	-8540
▁निवसन्ति	-8541
▁परावृत्य	-8542
▁प्रकाश्य	-8543
▁सर्वाधिक	-8544
▁सर्व्वदा	-8545
▁स्थापयाम	-8546
irculation	-8547
▁अनुसर्तुं	-8548
▁करिष्यामः	-8549
▁कर्तव्यम्	-8550
▁चत्वारिंश	-8551
▁चिन्तयामि	-8552
▁पाठनियोजन	-8553
▁हैड्रोजन्	-8554
meetthegimp	-8555
निस्ट्रेटर्	-8556
▁इत्यादीनां	-8557
▁इत्युच्यते	-8558
▁उप्पिनपट्ट	-8559
▁पर्चन्याम्	-8560
▁प्राप्तवती	-8561
▁विवरणार्थं	-8562
▁संस्कृतस्य	-8563
▁निष्कासितुं	-8564
▁पर्यावरणस्य	-8565
▁सर्व्वेषाम्	-8566
चल	-8567
जः	-8568
जै	-8569
थ्	-8570
पन	-8571
बी	-8572
लन	-8573
शृ	-8574
cpp	-8575
ocs	-8576
ose	-8577
val	-8578
कट्	-8579
कान	-8580
घोष	-8581
जर्	-8582
फला	-8583
योऽ	-8584
हाँ	-8585
ादौ	-8586
ोने	-8587
▁(1	-8588
▁21	-8589
▁GL	-8590
▁आश	-8591
▁लं	-8592
Item	-8593
ames	-8594
ices	-8595
inue	-8596
lick	-8597
lish	-8598
ness	-8599
ynap	-8600
कण्ड	-8601
कोहा	-8602
गमनं	-8603
घर्ष	-8604
त्तु	-8605
द्रे	-8606
प्ता	-8607
माणे	-8608
र्मः	-8609
लक्ष	-8610
लोके	-8611
श्री	-8612
सीत्	-8613
हरति	-8614
ानल्	-8615
िकात	-8616
ूनम्	-8617
ोस्व	-8618
▁Car	-8619
▁box	-8620
▁jsp	-8621
▁अपृ	-8622
▁अवध	-8623
▁आन्	-8624
▁एरो	-8625
▁काग	-8626
▁किए	-8627
▁चित	-8628
▁तोल	-8629
▁देह	-8630
▁धनि	-8631
▁पुण	-8632
▁पुत	-8633
▁ब्ल	-8634
▁मृद	-8635
▁रवि	-8636
▁रहे	-8637
▁रिप	-8638
▁लोभ	-8639
▁वाग	-8640
▁समी	-8641
▁हंस	-8642
ecute	-8643
eturn	-8644
press	-8645
yping	-8646
अपरम्	-8647
अवलोक	-8648
इत्थं	-8649
इदानी	-8650
इन्स्	-8651
ग्राह	-8652
जीवनं	-8653
ञ्जलि	-8654
त्तरं	-8655
त्यास	-8656
पाठनि	-8657
मधुना	-8658
यन्ते	-8659
रणस्य	-8660
राणां	-8661
सूत्र	-8662
ानामु	-8663
ानीति	-8664
िकासु	-8665
्रावि	-8666
▁been	-8667
▁info	-8668
▁year	-8669
▁आस्म	-8670
▁कठोर	-8671
▁क्षि	-8672
▁खगोल	-8673
▁खिला	-8674
▁गौरव	-8675
▁जन्त	-8676
▁डायल	-8677
▁तिमि	-8678
▁त्वक	-8679
▁दाएं	-8680
▁परमा	-8681
▁पराज	-8682
▁प्ले	-8683
▁भागा	-8684
▁भागे	-8685
▁भाषा	-8686
▁यामि	-8687
▁लगभग	-8688
▁लोग्	-8689
▁वचनं	-8690
▁वदाम	-8691
▁संगी	-8692
▁समयं	-8693
String	-8694
ecture	-8695
कालात्	-8696
क्षिणं	-8697
चन्द्र	-8698
ट्रोल्	-8699
ण्ट्स्	-8700
निङ्ग्	-8701
नुत्वा	-8702
परिमित	-8703
र्त्ति	-8704
वर्तते	-8705
सम्पाद	-8706
स्तविक	-8707
ीयानां	-8708
ेश्वरं	-8709
ोत्पाद	-8710
▁Color	-8711
▁Grade	-8712
▁brush	-8713
▁frame	-8714
▁right	-8715
▁small	-8716
▁start	-8717
▁users	-8718
▁अवकाश	-8719
▁एतदपि	-8720
▁कीलके	-8721
▁कृषीव	-8722
▁जिज्ञ	-8723
▁दीपाव	-8724
▁देखें	-8725
▁पात्र	-8726
▁पादयो	-8727
▁विवाद	-8728
▁हृद्य	-8729
eedback	-8730
ynaptic	-8731
आक्साइड	-8732
औट्पुट्	-8733
ण्टेशन्	-8734
दिनाङ्क	-8735
प्यधिकं	-8736
प्राचीन	-8737
युक्तम्	-8738
र्य्यां	-8739
विज्ञान	-8740
विद्याल	-8741
ितास्ति	-8742
▁Indian	-8743
▁Sample	-8744
▁अस्माक	-8745
▁आदेशाः	-8746
▁उन्हें	-8747
▁उपयोगी	-8748
▁कथायां	-8749
▁किमिति	-8750
▁कोशिका	-8751
▁दाहिने	-8752
▁निरंतर	-8753
▁निष्का	-8754
▁पञ्चदश	-8755
▁प्रोटो	-8756
▁मार्गे	-8757
▁युगपन्	-8758
▁शक्यम्	-8759
▁शीर्षक	-8760
▁शोर्ट्	-8761
सर्वेषां	-8762
सहस्राणि	-8763
िकेशन्स्	-8764
▁display	-8765
▁अप्डेट्	-8766
▁आरभामहे	-8767
▁आरभ्यते	-8768
▁आवल्यां	-8769
▁इत्येकं	-8770
▁एण्ट्रि	-8771
▁ज्येष्ठ	-8772
▁डिफ़ैन्	-8773
▁परीक्षण	-8774
▁प्रचलति	-8775
▁महाभागः	-8776
▁लोञ्चर्	-8777
▁श्मशाने	-8778
▁स्थानीय	-8779
▁function	-8780
▁ट्रान्स्	-8781
▁दास्यामि	-8782
▁दुर्ब्बल	-8783
▁निर्माति	-8784
▁माड्यूल्	-8785
▁विश्वासि	-8786
▁शक्नुयात	-8787
▁संसारस्य	-8788
athematics	-8789
▁Bookmarks	-8790
▁इदमस्माकं	-8791
▁उत्थापयेत	-8792
▁भूतग्रस्त	-8793
▁वयमिदानीं	-8794
▁उपलभ्यन्ते	-8795
▁क्षेत्रेषु	-8796
▁निर्दिष्टं	-8797
▁परिवर्तयति	-8798
▁परीक्षामहे	-8799
▁प्रक्रियां	-8800
▁सर्व्वविषये	-8801
▁पवित्रस्यात्म	-8802
Tr	-8803
मव	-8804
रौ	-8805
हत	-8806
ृज	-8807
ेम	-8808
ैप	-8809
▁ठ	-8810
TRL	-8811
eve	-8812
ous	-8813
एते	-8814
केव	-8815
खाद	-8816
ग्न	-8817
ताड	-8818
थाः	-8819
दोल	-8820
धेन	-8821
भिर	-8822
राव	-8823
श्छ	-8824
हीन	-8825
ैकं	-8826
▁he	-8827
▁my	-8828
▁ऊँ	-8829
▁जय	-8830
▁भे	-8831
rays	-8832
vert	-8833
कोणं	-8834
ङ्का	-8835
त्मा	-8836
माता	-8837
म्बर	-8838
ल्ला	-8839
सेवा	-8840
्वंश	-8841
▁Bio	-8842
▁Eng	-8843
▁IIT	-8844
▁Seq	-8845
▁day	-8846
▁इफि	-8847
▁करं	-8848
▁गता	-8849
▁चोर	-8850
▁ज्व	-8851
▁ततौ	-8852
▁पठत	-8853
▁पुं	-8854
▁वनं	-8855
▁सञ्	-8856
block	-8857
क्यम्	-8858
जयन्त	-8859
निवार	-8860
प्रभु	-8861
भाषया	-8862
मानीय	-8863
रिक्ष	-8864
रीश्व	-8865
र्पणं	-8866
विशत्	-8867
स्तुत	-8868
ीयानि	-8869
्विरो	-8870
▁Blur	-8871
▁CTRL	-8872
▁Main	-8873
▁Year	-8874
▁अनुश	-8875
▁अपना	-8876
▁अर्प	-8877
▁उड्ड	-8878
▁एतान	-8879
▁कथाः	-8880
▁क्रो	-8881
▁गताः	-8882
▁चलति	-8883
▁रामः	-8884
▁लेते	-8885
▁वाता	-8886
▁शेषे	-8887
▁संभव	-8888
ainten	-8889
gument	-8890
एतादृश	-8891
प्यधिक	-8892
प्रभाव	-8893
विड्त्	-8894
ांशान्	-8895
ान्यपि	-8896
ाभ्यास	-8897
ूतवान्	-8898
▁16.05	-8899
▁Brush	-8900
▁Layer	-8901
▁float	-8902
▁group	-8903
▁value	-8904
▁अष्टा	-8905
▁उपवेश	-8906
▁कस्मा	-8907
▁किंतु	-8908
▁जिससे	-8909
▁दायीं	-8910
▁द्वयो	-8911
▁नामकं	-8912
▁नेतुं	-8913
▁पुरतः	-8914
▁बाह्य	-8915
▁भूमित	-8916
▁मनःसु	-8917
▁युगपत	-8918
▁यूषफ्	-8919
▁योद्ध	-8920
▁रूप्य	-8921
▁लज्जा	-8922
▁विदेश	-8923
▁विद्व	-8924
▁संयोग	-8925
▁सैन्य	-8926
centage	-8927
ragment	-8928
कमाण्ड्	-8929
तस्मिन्	-8930
योक्तुं	-8931
श्रेष्ठ	-8932
ेश्वरेण	-8933
▁Bezier	-8934
▁Google	-8935
▁HelloW	-8936
▁Insert	-8937
▁Server	-8938
▁आकृतिं	-8939
▁आदेशेन	-8940
▁आरम्भं	-8941
▁इदमत्र	-8942
▁एण्टर्	-8943
▁किमप्य	-8944
▁चिन्ता	-8945
▁ज्ञानम	-8946
▁दिनेषु	-8947
▁दृष्टा	-8948
▁नियमित	-8949
▁निशम्य	-8950
▁पञ्चाश	-8951
▁पृथ्वी	-8952
▁पोर्ट्	-8953
▁वीडियो	-8954
▁व्याकु	-8955
▁शृङ्खल	-8956
▁सक्षमा	-8957
▁सत्यम्	-8958
▁समार्प	-8959
▁स्वरूप	-8960
कारात्मक	-8961
प्रस्तुत	-8962
स्तदर्थं	-8963
स्तिष्ठत	-8964
▁Catalog	-8965
▁opacity	-8966
▁testdir	-8967
▁अक्सेस्	-8968
▁अतितरां	-8969
▁आगच्छतु	-8970
▁आदेशान्	-8971
▁करोतीति	-8972
▁कर्षयतु	-8973
▁ताभ्यां	-8974
▁न्यूनता	-8975
▁प्रकाशं	-8976
▁बुध्यते	-8977
▁वर्तेते	-8978
▁वर्धयति	-8979
▁वृद्धिं	-8980
▁शक्ष्यथ	-8981
▁श्वसनम्	-8982
▁स्थातुं	-8983
▁स्थानम्	-8984
कर्म्माणि	-8985
याञ्चक्रे	-8986
▁variable	-8987
▁अर्हन्ति	-8988
▁कृत्स्नं	-8989
▁ख्रीष्टः	-8990
▁परमेश्वर	-8991
▁पृष्ठदेश	-8992
▁फोर्मेट्	-8993
▁भुक्त्वा	-8994
▁रिसोर्स्	-8995
▁वर्त्तते	-8996
▁शास्त्रे	-8997
aintenance	-8998
▁उत्सर्गेण	-8999
▁उद्घाटयाम	-9000
▁द्रव्याणि	-9001
▁पठितवन्तः	-9002
▁पुस्तकानि	-9003
▁मस्तिष्कं	-9004
▁यिरूशालमं	-9005
▁वर्त्तमान	-9006
▁वस्त्राणि	-9007
▁संस्थाप्य	-9008
▁सत्कर्म्म	-9009
▁सामर्थ्यं	-9010
▁Properties	-9011
▁कार्यशालाः	-9012
▁परिवर्तयतु	-9013
▁परीक्षायां	-9014
▁प्रवाचकश्च	-9015
▁सर्व्वाण्य	-9016
▁अन्तर्जालीय	-9017
▁ध्वन्यङ्कनं	-9018
▁फ़ङ्क्षन्स्	-9019
▁उपयोक्तव्यम्	-9020
▁ग्रन्थालयस्य	-9021
▁विद्यार्थिनः	-9022
▁सूर्यनमस्कार	-9023
र्ग्युमेण्ट्स्	-9024
▁दक्षिणपार्श्व	-9025
▁पवित्रलोकानां	-9026
FrontAccounting	-9027
!"	-9028
2)	-9029
Be	-9030
GB	-9031
जर	-9032
फी	-9033
cat	-9034
ule	-9035
खिल	-9036
गणो	-9037
चेत	-9038
टस्	-9039
तिक	-9040
दली	-9041
नित	-9042
पास	-9043
पूज	-9044
मेक	-9045
िया	-9046
▁rm	-9047
▁अभ	-9048
▁चो	-9049
▁नय	-9050
▁।.	-9051
)"""	-9052
Ctrl	-9053
angu	-9054
rite	-9055
rols	-9056
चनम्	-9057
च्छा	-9058
जानी	-9059
टिव्	-9060
धातु	-9061
नोसर	-9062
न्यः	-9063
पृथि	-9064
ब्यू	-9065
मादौ	-9066
र्थम	-9067
लेश्	-9068
सेप्	-9069
स्तद	-9070
ीयात	-9071
▁Exc	-9072
▁Rol	-9073
▁Tab	-9074
▁Tax	-9075
▁act	-9076
▁gre	-9077
▁rul	-9078
▁आऐं	-9079
▁डाल	-9080
▁दौर	-9081
▁भयं	-9082
▁रोप	-9083
▁सिख	-9084
LaTeX	-9085
omput	-9086
slash	-9087
ython	-9088
छात्र	-9089
ण्डर्	-9090
दिनां	-9091
द्यां	-9092
प्रेम	-9093
फ़र्म	-9094
बुद्ध	-9095
भिमतं	-9096
मल्टि	-9097
रस्ति	-9098
विभाग	-9099
शरीरे	-9100
ान्तु	-9101
िङ्ग्	-9102
ेशनल्	-9103
ोपदेश	-9104
▁Date	-9105
▁Stat	-9106
▁bash	-9107
▁cout	-9108
▁अपरि	-9109
▁अर्च	-9110
▁आदाव	-9111
▁आर्य	-9112
▁कङ्क	-9113
▁काम्	-9114
▁कोटि	-9115
▁खण्ड	-9116
▁गन्ध	-9117
▁टीम्	-9118
▁टोक्	-9119
▁ततोऽ	-9120
▁तारा	-9121
▁देन्	-9122
▁निजा	-9123
▁पूरा	-9124
▁फैला	-9125
▁मीटर	-9126
▁येना	-9127
▁लाएं	-9128
▁श्लो	-9129
▁संयम	-9130
▁सीता	-9131
NMEICT	-9132
enthes	-9133
क्रिरे	-9134
ज्ञाने	-9135
तोस्मि	-9136
प्रदान	-9137
रागत्य	-9138
लभ्यते	-9139
वचित्य	-9140
विण्डौ	-9141
विन्या	-9142
सम्पर्	-9143
ीयन्ते	-9144
ीयमिति	-9145
▁India	-9146
▁Width	-9147
▁angle	-9148
▁begin	-9149
▁field	-9150
▁image	-9151
▁login	-9152
▁अलैन्	-9153
▁अवबोध	-9154
▁अवशोष	-9155
▁एतयोः	-9156
▁गतेषु	-9157
▁पक्षा	-9158
▁परिगण	-9159
▁पोर्ट	-9160
▁प्रभा	-9161
▁प्राव	-9162
▁भार्य	-9163
▁भूमिं	-9164
▁महिमा	-9165
▁योजना	-9166
▁विघ्न	-9167
▁व्याह	-9168
▁सदस्य	-9169
▁स्तरः	-9170
▁हत्वा	-9171
▁हस्तं	-9172
ackages	-9173
क्षराणि	-9174
परिमितं	-9175
रेक्टर्	-9176
ोस्वित्	-9177
▁Import	-9178
▁random	-9179
▁sample	-9180
▁अभिव्य	-9181
▁आधुनिक	-9182
▁तत्त्व	-9183
▁नेत्रे	-9184
▁पराक्र	-9185
▁भूमिका	-9186
▁मार्गं	-9187
▁विंशति	-9188
▁वृक्षे	-9189
▁सिङ्क्	-9190
▁स्वर्ण	-9191
प्रत्येक	-9192
फील्ड्स्	-9193
सूत्राणि	-9194
▁Options	-9195
▁एकस्मिन	-9196
▁दक्षिणत	-9197
▁पार्ष्ण	-9198
▁प्रश्नं	-9199
▁महिमानं	-9200
▁विशेषेण	-9201
▁व्याख्य	-9202
▁सङ्ग्रह	-9203
▁सन्निधि	-9204
▁सैनिकाः	-9205
▁स्कन्धौ	-9206
▁स्लैडर्	-9207
▁स्वेच्छ	-9208
ओब्जेक्ट्	-9209
न्नुदन्तु	-9210
मुद्दिश्य	-9211
यिष्यन्ते	-9212
स्तस्माद्	-9213
▁अन्वेषणं	-9214
▁आन्तियखि	-9215
▁ईश्वरात्	-9216
▁एक्स्प्र	-9217
▁घटिष्यते	-9218
▁तात्पर्य	-9219
▁दर्श्यते	-9220
▁निर्बन्ध	-9221
▁परीक्ष्य	-9222
▁प्रकाशित	-9223
▁बोधयितुं	-9224
▁मत्प्रेर	-9225
▁मध्येऽहं	-9226
▁र्नाम्ना	-9227
▁विविधानि	-9228
पदार्थानां	-9229
▁आहोस्वित्	-9230
▁कुर्व्वन्	-9231
▁क्रियन्ते	-9232
▁निक्षिप्य	-9233
▁निर्माणम्	-9234
▁पठनान्तरं	-9235
▁व्यश्वसन्	-9236
परीक्षायाम्	-9237
▁उद्घाटयामि	-9238
▁निर्गच्छति	-9239
▁रेकोर्ड्स्	-9240
▁विद्यमानम्	-9241
▁समानान्तरं	-9242
▁प्रदर्श्यते	-9243
▁मनुष्यपुत्र	-9244
▁व्यवस्थायाः	-9245
साक्षरतामिषन्	-9246
▁............	-9247
▁समर्पयिष्यति	-9248
................	-9249
WK	-9250
ii	-9251
गः	-9252
णव	-9253
थी	-9254
नव	-9255
मर	-9256
CPU	-9257
Get	-9258
ake	-9259
ein	-9260
ept	-9261
ict	-9262
lop	-9263
ole	-9264
tle	-9265
एता	-9266
कोण	-9267
डों	-9268
तंज	-9269
दशा	-9270
धीन	-9271
नोद	-9272
मेल	-9273
मोच	-9274
लाप	-9275
षये	-9276
साग	-9277
ादा	-9278
ालि	-9279
िणं	-9280
ेषः	-9281
▁14	-9282
▁24	-9283
▁Ac	-9284
▁Sp	-9285
▁चु	-9286
▁छु	-9287
▁थो	-9288
User	-9289
ette	-9290
otal	-9291
ouse	-9292
vent	-9293
कलाप	-9294
कृता	-9295
तिरि	-9296
त्रय	-9297
दुःख	-9298
न्यो	-9299
प्रद	-9300
यद्य	-9301
र्मे	-9302
लार्	-9303
ल्यु	-9304
ष्ठं	-9305
सज्ज	-9306
स्टि	-9307
स्पे	-9308
स्वं	-9309
ामहि	-9310
ामिव	-9311
ायोग	-9312
िंग्	-9313
ृत्व	-9314
ोहाइ	-9315
ोऽहं	-9316
▁ord	-9317
▁अपठ	-9318
▁अहि	-9319
▁कमर	-9320
▁काठ	-9321
▁खोल	-9322
▁जलम	-9323
▁जित	-9324
▁दम्	-9325
▁नृप	-9326
▁बहू	-9327
▁भुज	-9328
▁लची	-9329
Intro	-9330
inear	-9331
place	-9332
works	-9333
क्रुः	-9334
क्षिप	-9335
त्स्य	-9336
पृष्ट	-9337
मित्र	-9338
यात्म	-9339
रचनां	-9340
ल्टर्	-9341
वन्तौ	-9342
स्थलं	-9343
स्मत्	-9344
ान्यं	-9345
ोक्तं	-9346
्वाम्	-9347
▁Line	-9348
▁Menu	-9349
▁inst	-9350
▁note	-9351
▁अनाम	-9352
▁इसके	-9353
▁केचि	-9354
▁गमना	-9355
▁देहि	-9356
▁पीला	-9357
▁प्रत	-9358
▁फलम्	-9359
▁फ्लो	-9360
▁ब्रे	-9361
▁भरें	-9362
▁भाति	-9363
▁भीष्	-9364
▁यदेत	-9365
▁यन्म	-9366
▁रचित	-9367
▁शिरः	-9368
▁सर्च	-9369
▁सेके	-9370
▁होम्	-9371
alette	-9372
enBank	-9373
evelop	-9374
ozilla	-9375
करूपेण	-9376
क्तस्य	-9377
ण्ड्स्	-9378
तद्यथा	-9379
त्त्वा	-9380
नाम्नः	-9381
पर्याय	-9382
प्रयोग	-9383
प्रवेश	-9384
मानस्य	-9385
र्थञ्च	-9386
र्म्मे	-9387
ष्मान्	-9388
िताश्च	-9389
ेषामपि	-9390
▁BLAST	-9391
▁अग्ने	-9392
▁आनयति	-9393
▁आमेन्	-9394
▁इलिया	-9395
▁एकैको	-9396
▁कथमुप	-9397
▁धन्यः	-9398
▁निचले	-9399
▁निमेष	-9400
▁निर्ण	-9401
▁नेच्छ	-9402
▁पुनरु	-9403
▁पृथिव	-9404
▁प्रभव	-9405
▁बढाता	-9406
▁भगवद्	-9407
▁भुञ्ज	-9408
▁मज्जन	-9409
▁मात्र	-9410
▁लोकल्	-9411
▁व्याज	-9412
▁शक्यं	-9413
▁संभवं	-9414
ational	-9415
erscore	-9416
वस्तूनि	-9417
वानस्मि	-9418
ानुरूपं	-9419
िकित्सा	-9420
िष्यामि	-9421
▁Method	-9422
▁online	-9423
▁square	-9424
▁इन्द्र	-9425
▁ईश्वरा	-9426
▁कस्यचन	-9427
▁केटगरि	-9428
▁क्रमेण	-9429
▁क्रीणी	-9430
▁ग्रेड्	-9431
▁जानामः	-9432
▁तादृशी	-9433
▁तेजस्व	-9434
▁दम्मेष	-9435
▁दोषान्	-9436
▁द्यान्	-9437
▁पुरातन	-9438
▁भवद्भि	-9439
▁मोदीजी	-9440
▁युवानः	-9441
▁योषित्	-9442
▁रात्रि	-9443
▁विकसित	-9444
▁विभागः	-9445
▁विषयाः	-9446
▁शरीराय	-9447
▁शोमिरो	-9448
▁संरक्ष	-9449
▁सञ्चये	-9450
प्रक्षाल	-9451
युष्माकं	-9452
्रियन्ते	-9453
▁Filters	-9454
▁MyFirst	-9455
▁command	-9456
▁records	-9457
▁अस्मात्	-9458
▁आक्सीजन	-9459
▁उत्तमम्	-9460
▁एतस्याः	-9461
▁एवमस्ति	-9462
▁कल्पयति	-9463
▁कारायां	-9464
▁गन्तुम्	-9465
▁तदनुसार	-9466
▁प्रेष्य	-9467
▁लैब्ररी	-9468
▁वस्तुतः	-9469
▁वाक्यम्	-9470
▁संरक्षण	-9471
▁स्थास्य	-9472
प्रकारस्य	-9473
▁अवश्यमेव	-9474
▁आर्यभट्ट	-9475
▁उपयोक्ता	-9476
▁क्षेत्रं	-9477
▁पङ्क्तिः	-9478
▁यीशुस्तं	-9479
▁युष्माकम	-9480
▁वक्तव्यं	-9481
▁विश्वासः	-9482
न्द्रियाणि	-9483
▁अपेक्षितं	-9484
▁अस्यान्तः	-9485
▁केरेक्टर्	-9486
▁द्रष्टुम्	-9487
▁प्रातिकूल	-9488
▁प्रियतमाः	-9489
▁मनुष्यस्य	-9490
▁मोचयित्वा	-9491
▁योजयित्वा	-9492
▁विश्वास्य	-9493
▁सङ्कलयामि	-9494
▁साधनपेटिक	-9495
▁underscore	-9496
▁प्रशिक्षणे	-9497
▁भिन्नदेशीय	-9498
▁environment	-9499
▁व्यवस्थायां	-9500
▁डोक्यूमेण्ट्	-9501
▁विद्यमानानां	-9502
▁युगपन्नुदन्तु	-9503
▁विद्यार्थिनां	-9504
▁MyFirstProject	-9505
▁न्यूनातिन्यूनं	-9506
)"	-9507
Al	-9508
ai	-9509
gs	-9510
ph	-9511
to	-9512
ंध	-9513
कप	-9514
डो	-9515
बै	-9516
्स	-9517
”,	-9518
ane	-9519
hat	-9520
ंडो	-9521
गतं	-9522
ड़ा	-9523
तीः	-9524
तोष	-9525
युग	-9526
युत	-9527
र्ड	-9528
शिश	-9529
ारि	-9530
ीवं	-9531
ुस्	-9532
▁Rs	-9533
▁pH	-9534
▁इं	-9535
▁खो	-9536
▁पढ	-9537
▁भय	-9538
Koha	-9539
icle	-9540
एप्ल	-9541
कोपि	-9542
गमने	-9543
गरम्	-9544
ग्वे	-9545
च्चि	-9546
त्तम	-9547
त्यौ	-9548
थुने	-9549
नाहू	-9550
नेट्	-9551
न्तर	-9552
ब्रे	-9553
भावं	-9554
मनुज	-9555
रङ्ग	-9556
रचित	-9557
रज्ज	-9558
र्ट्	-9559
र्वे	-9560
श्मी	-9561
साम्	-9562
स्मर	-9563
ाधार	-9564
ामहं	-9565
ेयुः	-9566
ेष्ट	-9567
▁5.6	-9568
▁Led	-9569
▁Sum	-9570
▁abc	-9571
▁dna	-9572
▁see	-9573
▁अलग	-9574
▁अशु	-9575
▁इंच	-9576
▁उभय	-9577
▁ऐसो	-9578
▁नाद	-9579
▁बध्	-9580
▁मग्	-9581
▁शब्	-9582
▁शौल	-9583
▁सके	-9584
▁सेन	-9585
▁हवा	-9586
▁होक	-9587
▁ऽहं	-9588
epart	-9589
ffice	-9590
right	-9591
अस्तु	-9592
टन्स्	-9593
द्वये	-9594
नगरम्	-9595
निमेष	-9596
यतोहि	-9597
र्यां	-9598
वाद्य	-9599
वासरः	-9600
शून्य	-9601
संसार	-9602
ानिर्	-9603
ावसरे	-9604
िन्या	-9605
्णाति	-9606
▁Mask	-9607
▁View	-9608
▁band	-9609
▁brow	-9610
▁into	-9611
▁talk	-9612
▁अन्न	-9613
▁उपदे	-9614
▁एकदा	-9615
▁एतैः	-9616
▁कारक	-9617
▁गणित	-9618
▁ग्रस	-9619
▁जलम्	-9620
▁डाटा	-9621
▁तन्त	-9622
▁तप्त	-9623
▁द्रो	-9624
▁पराम	-9625
▁पूजा	-9626
▁बेस्	-9627
▁वन्य	-9628
Applet	-9629
ission	-9630
ग्राहि	-9631
त्वस्य	-9632
नाम्नो	-9633
न्दर्भ	-9634
पुत्रं	-9635
पृष्ठं	-9636
ब्ल्यु	-9637
भूतानि	-9638
मित्यु	-9639
येण्ट्	-9640
रूपाणि	-9641
स्थस्य	-9642
ीकरणम्	-9643
ैपण्ड्	-9644
▁input	-9645
▁quote	-9646
▁title	-9647
▁अच्छे	-9648
▁आगतम्	-9649
▁इतस्त	-9650
▁कल्या	-9651
▁ग्रही	-9652
▁जानीत	-9653
▁जिसका	-9654
▁ज्ञाय	-9655
▁झुकें	-9656
▁दण्डा	-9657
▁धारणा	-9658
▁नथुने	-9659
▁नष्टं	-9660
▁निवास	-9661
▁पृथग्	-9662
▁बालाः	-9663
▁मुष्ट	-9664
▁यिशयि	-9665
▁विंडो	-9666
▁विनये	-9667
▁व्याघ	-9668
▁श्रेण	-9669
▁साधार	-9670
▁स्वाद	-9671
▁हठयोग	-9672
Display	-9673
डाइनोसर	-9674
पश्यामः	-9675
फरेन्स्	-9676
ेभ्यश्च	-9677
्विरोन्	-9678
▁Animal	-9679
▁Ledger	-9680
▁editor	-9681
▁select	-9682
▁अनुमति	-9683
▁अन्तर्	-9684
▁आंतरिक	-9685
▁आदावेव	-9686
▁आयतस्य	-9687
▁उपाध्य	-9688
▁उल्लिख	-9689
▁खिलाडी	-9690
▁गमनात्	-9691
▁गृह्णन	-9692
▁जांघों	-9693
▁ज्ञातु	-9694
▁दायूद्	-9695
▁नाभवत्	-9696
▁पठन्तु	-9697
▁परिचयं	-9698
▁पाकशाल	-9699
▁प्रदेश	-9700
▁भगिन्य	-9701
▁महेच्छ	-9702
▁मुक्तं	-9703
▁मुट्ठी	-9704
▁यस्यां	-9705
▁शृणोतु	-9706
▁संरचना	-9707
▁सीताया	-9708
▁सुस्थि	-9709
▁हनुमान	-9710
ट्रक्चर्	-9711
ट्रिक्स्	-9712
नानन्तरं	-9713
मिच्छामः	-9714
मुदाहरणं	-9715
ल्लोकान्	-9716
▁Develop	-9717
▁install	-9718
▁अद्यापि	-9719
▁अनुदानं	-9720
▁अपवित्र	-9721
▁उपयोगेन	-9722
▁ओप्टिमै	-9723
▁कृष्णेन	-9724
▁कैसरस्य	-9725
▁कोन्फ़ि	-9726
▁गन्तव्य	-9727
▁चतुर्दि	-9728
▁जनजातीय	-9729
▁बद्ध्वा	-9730
▁मज्जिता	-9731
▁र्मध्ये	-9732
▁विकासाय	-9733
▁विशेषतो	-9734
▁शस्यानि	-9735
▁सम्मन्य	-9736
▁सहिष्णु	-9737
epartment	-9738
प्राप्तये	-9739
श्चर्य्यं	-9740
▁Database	-9741
▁standard	-9742
▁अन्येषां	-9743
▁तिष्ठामि	-9744
▁त्वक्छेद	-9745
▁धार्म्मि	-9746
▁प्रत्यहं	-9747
▁प्रेम्ना	-9748
▁लिखितानि	-9749
▁विश्वासो	-9750
▁शक्ष्यति	-9751
▁स्थापितं	-9752
ङ्क्स्केप्	-9753
▁condition	-9754
▁उद्घाटयतु	-9755
▁उन्मीलयेत	-9756
▁किञ्चिदपि	-9757
▁किन्त्वहं	-9758
▁ज्ञातवन्त	-9759
▁ज्ञास्याम	-9760
▁नवीनभट्टः	-9761
▁निष्क्रिय	-9762
▁पेटर्न्स्	-9763
▁प्रयतामहे	-9764
▁प्रश्नस्य	-9765
▁फ़ोर्मेट्	-9766
▁शृण्वन्ति	-9767
▁अन्यस्मिन्	-9768
▁दर्शयितुम्	-9769
▁प्राम्प्ट्	-9770
▁प्रेषयितुं	-9771
▁मृत्तिकाया	-9772
▁विश्वासस्य	-9773
▁समर्थितवती	-9774
▁तन्निमित्तं	-9775
▁निष्कासयितुं	-9776
de	-9777
ey	-9778
li	-9779
इव	-9780
कव	-9781
लू	-9782
षय	-9783
ुण	-9784
bit	-9785
ify	-9786
rem	-9787
sub	-9788
ual	-9789
एरो	-9790
किन	-9791
टल्	-9792
तोः	-9793
धिर	-9794
नाग	-9795
नुस	-9796
भुज	-9797
रचन	-9798
ल्फ	-9799
समय	-9800
ाणं	-9801
िम्	-9802
ेनो	-9803
ोदय	-9804
्ते	-9805
्रम	-9806
▁./	-9807
▁As	-9808
▁On	-9809
▁se	-9810
▁आम	-9811
▁ज़	-9812
ahoo	-9813
aste	-9814
efin	-9815
osit	-9816
read	-9817
अन्त	-9818
कोटि	-9819
क्यु	-9820
तेति	-9821
त्यं	-9822
धारं	-9823
नूतन	-9824
नेना	-9825
नोड्	-9826
भावा	-9827
यस्व	-9828
युष्	-9829
रणेन	-9830
विधं	-9831
शुल्	-9832
स्तृ	-9833
ितंब	-9834
िदपि	-9835
्वान	-9836
▁7.0	-9837
▁Mik	-9838
▁pop	-9839
▁आगत	-9840
▁आरे	-9841
▁उन्	-9842
▁एकल	-9843
▁एडी	-9844
▁जगह	-9845
▁दशम	-9846
▁पत्	-9847
▁रिस	-9848
▁लोप	-9849
▁वाप	-9850
▁शता	-9851
▁संस	-9852
▁सोच	-9853
ility	-9854
inger	-9855
iscal	-9856
क्लेश	-9857
ज्ञाः	-9858
त्तिं	-9859
दिदेश	-9860
दिवसे	-9861
दीनां	-9862
न्नाम	-9863
फैयर्	-9864
मानां	-9865
रेखाः	-9866
लियाँ	-9867
विन्द	-9868
श्लोक	-9869
सिंग्	-9870
स्यां	-9871
ायनिक	-9872
ीश्वर	-9873
ेऽहनि	-9874
▁Back	-9875
▁fore	-9876
▁less	-9877
▁अमृत	-9878
▁अश्र	-9879
▁आन्त	-9880
▁आरभे	-9881
▁आहार	-9882
▁इफिष	-9883
▁कृतव	-9884
▁केना	-9885
▁गीतं	-9886
▁चार्	-9887
▁जाएं	-9888
▁जागर	-9889
▁त्रय	-9890
▁दर्प	-9891
▁धारक	-9892
▁फर्श	-9893
▁बाईं	-9894
▁भावि	-9895
▁याहि	-9896
▁रोगा	-9897
▁वाचं	-9898
▁शपथं	-9899
▁होते	-9900
किञ्चन	-9901
चित्रे	-9902
मनकाले	-9903
मारभ्य	-9904
विधानं	-9905
संगीतं	-9906
सामर्थ	-9907
स्तम्भ	-9908
्यताम्	-9909
▁Excel	-9910
▁Print	-9911
▁colon	-9912
▁lines	-9913
▁local	-9914
▁अन्तं	-9915
▁अन्यत	-9916
▁अस्तु	-9917
▁आँखें	-9918
▁आकारं	-9919
▁उचितं	-9920
▁उपर्य	-9921
▁कथितं	-9922
▁कर्ता	-9923
▁कृताः	-9924
▁तृप्त	-9925
▁धन्या	-9926
▁प्रोप	-9927
▁बाहुल	-9928
▁भविता	-9929
▁रचितं	-9930
▁विवेक	-9931
▁सर्च्	-9932
▁सुबहु	-9933
ailable	-9934
उपयोक्त	-9935
तन्त्रं	-9936
दृश्यते	-9937
भोजनस्य	-9938
मुद्घाट	-9939
युष्मान	-9940
लोकाश्च	-9941
लोञ्चर्	-9942
सर्वाणि	-9943
स्वरूपो	-9944
▁5.6.30	-9945
▁Author	-9946
▁MikTeX	-9947
▁अत्रैव	-9948
▁अधोलिख	-9949
▁आत्मनः	-9950
▁आदेशम्	-9951
▁एतर्हि	-9952
▁करणीयः	-9953
▁गुप्तं	-9954
▁ग्रामे	-9955
▁चयनस्य	-9956
▁ज्ञाने	-9957
▁ड्रेग्	-9958
▁तेषामे	-9959
▁निर्ब्	-9960
▁प्रसन्	-9961
▁प्रस्त	-9962
▁बालकाः	-9963
▁मदर्थं	-9964
▁मुख्यत	-9965
▁योगस्य	-9966
▁योजयति	-9967
▁रक्षणं	-9968
▁राजयोग	-9969
▁वाक्ये	-9970
▁सोवदत्	-9971
▁स्लेश्	-9972
▁स्ल्या	-9973
▁स्वयम्	-9974
▁हस्तयो	-9975
ट्रेक्ट्	-9976
प्रवृत्त	-9977
सञ्चिकां	-9978
ानन्तरम्	-9979
ुदितवान्	-9980
▁Balance	-9981
▁Preview	-9982
▁अध्ययनं	-9983
▁अन्तिमं	-9984
▁अपशिष्ट	-9985
▁उपस्थाप	-9986
▁ऊर्जाया	-9987
▁केनचित्	-9988
▁परेऽहनि	-9989
▁प्रस्तर	-9990
▁प्राकाश	-9991
▁भुङ्क्त	-9992
▁युधिष्ठ	-9993
▁लोकाश्च	-9994
▁समक्षम्	-9995
▁सहायतां	-9996
▁स्वस्था	-9997
▁हेण्डल्	-9998
▁ऽस्माकं	-9999
ification	-10000
जातीयानां	-10001
तन्त्रस्य	-10002
युञ्ज्महे	-10003
सञ्चिकाया	-10004
▁Checkout	-10005
▁question	-10006
▁resource	-10007
▁अवगन्तुं	-10008
▁आरामदायक	-10009
▁इत्यादयः	-10010
▁उपयुक्तं	-10011
▁कूर्चस्य	-10012
▁गदितवान्	-10013
▁गृहकार्य	-10014
▁चित्रचाल	-10015
▁जनिष्यते	-10016
▁दातव्यम्	-10017
▁दैर्घ्यं	-10018
▁द्राक्षा	-10019
▁धारयन्ति	-10020
▁निर्मातु	-10021
▁पुतलियों	-10022
▁प्राथमिक	-10023
▁प्रोक्सि	-10024
▁मन्यन्ते	-10025
▁महत्त्वं	-10026
▁र्युष्मा	-10027
▁लब्धवान्	-10028
▁वास्तविक	-10029
प्रक्रियां	-10030
▁interface	-10031
▁structure	-10032
▁अध्यापकाः	-10033
▁आपरेटर्स्	-10034
▁उपयोक्तुः	-10035
▁एन्विरोन्	-10036
▁गृह्णीयात	-10037
▁दर्शितानि	-10038
▁पर्चन्यां	-10039
▁प्रवर्त्त	-10040
▁युष्माभिर	-10041
▁foreground	-10042
▁अवसर्पिणीं	-10043
▁अस्मिन्नेव	-10044
▁परिवर्तितं	-10045
▁परिशीलयामः	-10046
▁फार्म्याट्	-10047
▁यिहूदीयान्	-10048
▁Description	-10049
▁ज्ञास्यन्ति	-10050
▁पेरामीटर्स्	-10051
▁बहिरागन्तुं	-10052
▁यिहूदीयलोका	-10053
▁युगपन्नुत्वा	-10054
▁सर्व्वस्मिन्	-10055
▁ज्ञानमावश्यकम्	-10056
4-	-10057
En	-10058
पश	-10059
लघ	-10060
षी	-10061
ुल	-10062
AME	-10063
aju	-10064
elp	-10065
ets	-10066
led	-10067
ong	-10068
tim	-10069
कें	-10070
नस्	-10071
पीड	-10072
फाई	-10073
मधि	-10074
लिक	-10075
षमः	-10076
षुः	-10077
ायण	-10078
ायन	-10079
िना	-10080
िषु	-10081
ुडे	-10082
ेयं	-10083
▁31	-10084
▁CD	-10085
▁ph	-10086
▁अज	-10087
ampp	-10088
anch	-10089
ella	-10090
gins	-10091
java	-10092
last	-10093
orth	-10094
quis	-10095
tree	-10096
कराग	-10097
क्रु	-10098
च्मि	-10099
ण्टि	-10100
धाति	-10101
निट्	-10102
न्यू	-10103
मुखं	-10104
रहित	-10105
लिट्	-10106
लेक्	-10107
ाग्र	-10108
ानीय	-10109
ायास	-10110
ाहार	-10111
िंट्	-10112
ृतिं	-10113
ेऽपि	-10114
्वपि	-10115
्वाल	-10116
▁AWK	-10117
▁All	-10118
▁Hue	-10119
▁Yes	-10120
▁कौर	-10121
▁कौश	-10122
▁गणः	-10123
▁जाव	-10124
▁तएव	-10125
▁दैव	-10126
▁नरं	-10127
▁नवा	-10128
▁पथि	-10129
▁मुं	-10130
▁लेप	-10131
▁शपथ	-10132
▁संश	-10133
Linux	-10134
Sales	-10135
apter	-10136
endor	-10137
ities	-10138
remen	-10139
width	-10140
xtens	-10141
कृतेः	-10142
छिद्र	-10143
त्वक्	-10144
निर्भ	-10145
निर्व	-10146
प्यहं	-10147
माणां	-10148
म्परा	-10149
युद्ध	-10150
वर्षं	-10151
सहितं	-10152
सूच्य	-10153
ान्धि	-10154
▁Choo	-10155
▁Germ	-10156
▁Xfig	-10157
▁echo	-10158
▁logo	-10159
▁अंदर	-10160
▁ईमैल	-10161
▁गहरी	-10162
▁चापि	-10163
▁जनोऽ	-10164
▁जलेन	-10165
▁देवा	-10166
▁पोप्	-10167
▁फुस्	-10168
▁मह्य	-10169
▁रहने	-10170
▁रहें	-10171
▁रोल्	-10172
▁र्या	-10173
▁र्यू	-10174
▁लेकर	-10175
▁वाणी	-10176
▁विगत	-10177
▁स्खल	-10178
▁होकर	-10179
einort	-10180
ession	-10181
google	-10182
चतुष्ट	-10183
धिकारो	-10184
नामानि	-10185
परम्पर	-10186
प्रदाय	-10187
मानेषु	-10188
मार्गं	-10189
वादीद्	-10190
वाहिनी	-10191
विवरणं	-10192
शक्तिं	-10193
श्रावि	-10194
स्पर्ध	-10195
स्पर्श	-10196
स्पोकन	-10197
ायाश्च	-10198
▁Bella	-10199
▁Items	-10200
▁Maths	-10201
▁North	-10202
▁Trans	-10203
▁grade	-10204
▁types	-10205
▁write	-10206
▁अनुसर	-10207
▁अपराध	-10208
▁अपसार	-10209
▁अमुना	-10210
▁अर्थं	-10211
▁अवरोह	-10212
▁आशिषं	-10213
▁एकादश	-10214
▁कस्मै	-10215
▁काण्ड	-10216
▁केषां	-10217
▁चिह्न	-10218
▁चेत्त	-10219
▁तन्तु	-10220
▁द्वयं	-10221
▁निगूढ	-10222
▁बहुषु	-10223
▁बायीं	-10224
▁ब्रवी	-10225
▁भवताम	-10226
▁भीमसर	-10227
▁मान्य	-10228
▁विगते	-10229
▁विलोम	-10230
▁वैदिक	-10231
▁वैद्य	-10232
▁श्रुत	-10233
▁सिन्ध	-10234
▁सूचीं	-10235
▁स्तरे	-10236
▁हानिं	-10237
▁हेतोर	-10238
Firefox	-10239
anguage	-10240
tribute	-10241
क्रमस्य	-10242
चिह्नेन	-10243
ज्ञायते	-10244
तिष्ठति	-10245
निष्कास	-10246
फर्नाहू	-10247
भिप्राय	-10248
मितवान्	-10249
▁Bremen	-10250
▁Height	-10251
▁Linear	-10252
▁अनुदान	-10253
▁अनुलोम	-10254
▁आत्मनि	-10255
▁आर्द्र	-10256
▁इत्येव	-10257
▁एकस्या	-10258
▁कम्पनी	-10259
▁गात्रे	-10260
▁ज्ञातं	-10261
▁डिलिट्	-10262
▁तिष्ठत	-10263
▁त्वमेव	-10264
▁दर्शित	-10265
▁नगरस्य	-10266
▁परिचित	-10267
▁परिशोध	-10268
▁पापस्य	-10269
▁प्रगल्	-10270
▁प्रविध	-10271
▁प्रातः	-10272
▁प्रारं	-10273
▁भीष्मः	-10274
▁रोगस्य	-10275
▁विभज्य	-10276
▁विलम्ब	-10277
▁विशेषत	-10278
▁वेल्यू	-10279
▁श्लोकं	-10280
▁सूचनां	-10281
▁सूचनाः	-10282
▁स्मरणं	-10283
ographic	-10284
गच्छन्तु	-10285
ज्ञाग्रा	-10286
युक्तानि	-10287
लोक्यतां	-10288
ान्तःकरण	-10289
ीक्रियते	-10290
▁Germany	-10291
▁Lecture	-10292
▁Opacity	-10293
▁package	-10294
▁अत्यन्त	-10295
▁अत्राहं	-10296
▁उदरबलेन	-10297
▁कतिपयदि	-10298
▁कर्तव्य	-10299
▁ग्रामीण	-10300
▁तस्मान्	-10301
▁दृष्टिं	-10302
▁परम्परा	-10303
▁प्यानल्	-10304
▁फ़ैल्स्	-10305
▁युष्मत्	-10306
▁वर्णस्य	-10307
▁वातावरण	-10308
▁विज्ञान	-10309
▁विरुद्ध	-10310
▁संतुलनं	-10311
▁समर्प्य	-10312
▁समाजस्य	-10313
द्रव्याणि	-10314
▁Northern	-10315
▁Synaptic	-10316
▁testtree	-10317
▁अध्यापकः	-10318
▁आगतवन्तः	-10319
▁इत्येतम्	-10320
▁उन्होंने	-10321
▁कर्तव्यं	-10322
▁कार्यक्र	-10323
▁द्वितीये	-10324
▁परिभ्राम	-10325
▁परीक्षते	-10326
▁प्रश्नाः	-10327
▁प्राप्तः	-10328
▁प्रारब्ध	-10329
▁प्रेरिता	-10330
▁फ़ोल्डर्	-10331
▁यस्यार्थ	-10332
▁विदित्वा	-10333
▁विनिमयेन	-10334
▁विनियोगः	-10335
▁व्याजहार	-10336
▁समीचीनम्	-10337
▁स्थानात्	-10338
ज्ञानार्थं	-10339
▁bandwidth	-10340
▁क्लोसिंग्	-10341
▁तदनुसारेण	-10342
▁द्राक्षार	-10343
▁पातयित्वा	-10344
▁प्रकृत्या	-10345
▁प्रदर्शनं	-10346
▁व्याहरामि	-10347
▁अन्वेष्टुं	-10348
▁देशवासिनां	-10349
▁प्रक्रियया	-10350
▁यीशुस्तान्	-10351
▁लप्स्यध्वे	-10352
▁संस्कृतभाष	-10353
▁सिंहासनस्य	-10354
▁स्वच्छताया	-10355
▁स्वास्थ्यं	-10356
▁constructor	-10357
▁अनुशिक्षणम्	-10358
▁प्यारामीटर्	-10359
▁मुद्राप्यते	-10360
▁संधारिकायां	-10361
▁समर्पितवान्	-10362
▁अप्लिकेशन्स्	-10363
▁एवम्प्रकारेण	-10364
▁द्रक्ष्यन्ति	-10365
▁यीशुख्रीष्टे	-10366
▁इत्यस्योपयोगः	-10367
▁दृढीकुर्वन्तु	-10368
▁भविष्यद्वादिनो	-10369
▁विकल्पमुपयुज्य	-10370
4.	-10371
Ms	-10372
ux	-10373
फे	-10374
मद	-10375
शै	-10376
हम	-10377
हस	-10378
6.1	-10379
8.4	-10380
ION	-10381
ias	-10382
ork	-10383
pha	-10384
ues	-10385
utt	-10386
ंक्	-10387
कथं	-10388
केश	-10389
कोष	-10390
गल्	-10391
टीन	-10392
णाद	-10393
ताप	-10394
धात	-10395
निष	-10396
मनि	-10397
महि	-10398
मुः	-10399
मौल	-10400
सरल	-10401
िकी	-10402
ेलो	-10403
ैरा	-10404
▁Er	-10405
▁NR	-10406
▁PD	-10407
▁Sk	-10408
▁अक	-10409
▁इह	-10410
▁ईश	-10411
▁बी	-10412
▁मश	-10413
▁लय	-10414
▁वो	-10415
▁षड	-10416
EGIN	-10417
Msgs	-10418
What	-10419
auss	-10420
ebug	-10421
this	-10422
ओवर्	-10423
कमपि	-10424
कर्ण	-10425
ज्यं	-10426
दिषु	-10427
द्भि	-10428
न्सि	-10429
पराध	-10430
पाद्	-10431
प्लो	-10432
फैन्	-10433
माणि	-10434
र्लि	-10435
हत्य	-10436
िंदु	-10437
ील्ड	-10438
ूपर्	-10439
ेत्य	-10440
ैतत्	-10441
▁App	-10442
▁Bib	-10443
▁TeX	-10444
▁red	-10445
▁ओर्	-10446
▁कान	-10447
▁छेद	-10448
▁दाह	-10449
▁बगल	-10450
▁भृश	-10451
▁मल्	-10452
▁मृष	-10453
▁यान	-10454
▁वशी	-10455
▁सही	-10456
▁सुं	-10457
eting	-10458
gress	-10459
ister	-10460
uthor	-10461
voice	-10462
कथयन्	-10463
कारेण	-10464
कुरुत	-10465
जनस्य	-10466
डर्स्	-10467
णीयम्	-10468
त्थान	-10469
दिनम्	-10470
देशम्	-10471
द्वार	-10472
नायां	-10473
पाषाण	-10474
रूपम्	-10475
र्त्स	-10476
लेयर्	-10477
साहाय	-10478
ितश्च	-10479
▁call	-10480
▁sugg	-10481
▁true	-10482
▁undo	-10483
▁अम्ब	-10484
▁आपका	-10485
▁ईक्ष	-10486
▁एनां	-10487
▁कारा	-10488
▁कृपा	-10489
▁गर्व	-10490
▁दिनं	-10491
▁द्रढ	-10492
▁नानु	-10493
▁पटलं	-10494
▁पोटल	-10495
▁बाधा	-10496
▁भास्	-10497
▁मोड्	-10498
▁यानं	-10499
▁रुधि	-10500
▁लज्ज	-10501
▁वामे	-10502
▁वायो	-10503
▁वितर	-10504
▁विरच	-10505
▁विवद	-10506
▁विसृ	-10507
▁श्रू	-10508
▁श्रृ	-10509
▁साधु	-10510
▁स्के	-10511
▁स्टा	-10512
▁स्थल	-10513
Sample	-10514
ameter	-10515
दिनस्य	-10516
न्तश्च	-10517
पाठेषु	-10518
पात्रं	-10519
पादस्य	-10520
युतानि	-10521
स्कन्ध	-10522
स्तन्न	-10523
स्थितं	-10524
ाप्टर्	-10525
ारूपेण	-10526
िकेटर्	-10527
ोच्चार	-10528
ोर्सस्	-10529
▁4.6.1	-10530
▁Shell	-10531
▁chmod	-10532
▁refer	-10533
▁super	-10534
▁white	-10535
▁अहमेव	-10536
▁आकाशे	-10537
▁आगताः	-10538
▁उठाएं	-10539
▁एतदेव	-10540
▁एवञ्च	-10541
▁कदाचि	-10542
▁कहानी	-10543
▁किण्व	-10544
▁गर्ब्	-10545
▁गुरुः	-10546
▁गौशाल	-10547
▁चात्र	-10548
▁तंत्र	-10549
▁त्रयो	-10550
▁दुर्य	-10551
▁देवता	-10552
▁नितंब	-10553
▁निर्ध	-10554
▁मनुजा	-10555
▁मन्ये	-10556
▁मुम्ब	-10557
▁यन्नि	-10558
▁र्यदि	-10559
▁वच्मि	-10560
▁वर्णन	-10561
▁विधवा	-10562
▁विभाज	-10563
▁संवेद	-10564
▁समन्व	-10565
▁सीवनं	-10566
▁स्प्र	-10567
anirban	-10568
aterial	-10569
aussian	-10570
criptor	-10571
अन्यच्च	-10572
क्रियां	-10573
च्यताम्	-10574
ध्यायां	-10575
पृच्छन्	-10576
भूतानां	-10577
योपैथन्	-10578
वामभागे	-10579
सिस्टम्	-10580
सूक्ष्म	-10581
ान्वास्	-10582
▁Format	-10583
▁beamer	-10584
▁अनेकाः	-10585
▁अवारोप	-10586
▁इतिहास	-10587
▁ईश्वरी	-10588
▁किमर्थ	-10589
▁कुरुतः	-10590
▁घुमाऐं	-10591
▁चर्चां	-10592
▁छोड़ें	-10593
▁तादृशा	-10594
▁दण्डवत	-10595
▁दण्डाय	-10596
▁दरिद्र	-10597
▁दीर्घं	-10598
▁धन्याः	-10599
▁धर्त्त	-10600
▁नितम्ब	-10601
▁पुनराग	-10602
▁पूपान्	-10603
▁पौलस्य	-10604
▁प्रच्छ	-10605
▁ममान्त	-10606
▁युगपत्	-10607
▁योगदान	-10608
▁योग्यो	-10609
▁रचयामि	-10610
▁वर्धते	-10611
▁विधानं	-10612
▁सूर्यं	-10613
▁हस्तेन	-10614
द्वितीयं	-10615
प्रकारका	-10616
रिष्यामि	-10617
शिष्यान्	-10618
▁Install	-10619
▁courses	-10620
▁manager	-10621
▁message	-10622
▁opening	-10623
▁अध्यापक	-10624
▁अन्यस्य	-10625
▁आवश्यकी	-10626
▁एतादृशः	-10627
▁किमस्ति	-10628
▁क्रियाः	-10629
▁ज्ञानम्	-10630
▁निवेशनं	-10631
▁पदार्था	-10632
▁पन्थानं	-10633
▁परामर्श	-10634
▁पारदर्श	-10635
▁पूर्वम्	-10636
▁पृष्टतः	-10637
▁पृष्ठम्	-10638
▁प्रागेव	-10639
▁प्रायशः	-10640
▁प्रोवाच	-10641
▁बहुवारं	-10642
▁बुभुक्ष	-10643
▁भिन्नजा	-10644
▁मृत्युं	-10645
▁योजितम्	-10646
▁विक्रीय	-10647
▁विज्ञाप	-10648
▁व्यतिरे	-10649
▁सङ्कल्प	-10650
▁सङ्केतं	-10651
▁समुचितं	-10652
Exception	-10653
तन्त्रिका	-10654
युष्मानहं	-10655
स्तस्मात्	-10656
▁Username	-10657
▁अनुसारेण	-10658
▁उद्घाटित	-10659
▁एकस्मात्	-10660
▁एतस्मात्	-10661
▁कथितवन्त	-10662
▁करिष्याम	-10663
▁कर्म्माण	-10664
▁कार्य्यं	-10665
▁ज्ञानस्य	-10666
▁तन्मध्ये	-10667
▁दर्शितम्	-10668
▁पुत्रस्य	-10669
▁प्रयुज्य	-10670
▁मध्येऽपि	-10671
▁राज्यस्य	-10672
▁विभिन्ना	-10673
▁स्वप्राण	-10674
▁Hydrogens	-10675
▁parenthes	-10676
▁अर्जुनस्य	-10677
▁इत्यादिषु	-10678
▁इत्येतयोः	-10679
▁इब्राहीमः	-10680
▁उद्घाटयति	-10681
▁कार्बोहाइ	-10682
▁गृहीतवान्	-10683
▁चित्रयामि	-10684
▁नियंत्रित	-10685
▁निर्ब्बोध	-10686
▁निर्मीयते	-10687
▁पूरयित्वा	-10688
▁प्रतिज्ञा	-10689
▁भविष्यामि	-10690
▁यन्त्रस्य	-10691
▁वस्त्रस्य	-10692
इत्यस्योपरि	-10693
▁Background	-10694
▁HelloWorld	-10695
▁Saturation	-10696
▁उत्तीर्णाः	-10697
▁कथमुपयोक्त	-10698
▁कस्मिन्नपि	-10699
▁प्रोग्रामि	-10700
▁भोजनपरिवेश	-10701
▁र्भविष्यति	-10702
▁विश्वास्यो	-10703
▁Development	-10704
▁Mathematics	-10705
▁इङ्क्स्केप्	-10706
▁उपयुज्यमानं	-10707
▁किन्त्वधुना	-10708
▁ज्ञापितवान्	-10709
▁पृष्टस्याधः	-10710
▁स्वीकृतवान्	-10711
▁प्रत्येकस्मै	-10712
▁सम्पृच्यताम्	-10713
अधिकविवरणार्थं	-10714
▁प्राप्तवानस्ति	-10715
▁संवादपेटिकायां	-10716
NT	-10717
br	-10718
mr	-10719
अर	-10720
आप	-10721
लग	-10722
वग	-10723
सभ	-10724
ोट	-10725
(),	-10726
:),	-10727
PEG	-10728
add	-10729
ero	-10730
ope	-10731
एक्	-10732
कला	-10733
कात	-10734
ट्य	-10735
तोप	-10736
दात	-10737
धिं	-10738
बर्	-10739
मये	-10740
याय	-10741
रां	-10742
शेष	-10743
ागत	-10744
ेवा	-10745
ैका	-10746
▁60	-10747
▁ST	-10748
▁no	-10749
▁खन	-10750
▁खा	-10751
▁गू	-10752
▁नभ	-10753
▁शय	-10754
atio	-10755
comm	-10756
ffer	-10757
host	-10758
ithm	-10759
ware	-10760
कारा	-10761
कृत्	-10762
क्टी	-10763
गिंग	-10764
गीता	-10765
ग्ना	-10766
दिभि	-10767
दूतं	-10768
ध्या	-10769
पद्ध	-10770
भूमौ	-10771
मितः	-10772
मिनो	-10773
म्भी	-10774
रियो	-10775
रूपा	-10776
रोधक	-10777
विड्	-10778
समित	-10779
हमपि	-10780
ायुः	-10781
ितया	-10782
ैस्त	-10783
्लाद	-10784
▁tag	-10785
▁अवन	-10786
▁आकु	-10787
▁आनी	-10788
▁कटि	-10789
▁केर	-10790
▁कोई	-10791
▁खडे	-10792
▁चाह	-10793
▁जटि	-10794
▁डाइ	-10795
▁डेट	-10796
▁दशर	-10797
▁पंच	-10798
▁पिध	-10799
▁बां	-10800
▁भरत	-10801
▁भूप	-10802
▁ममे	-10803
▁लाल	-10804
▁शाक	-10805
▁सर्	-10806
ffect	-10807
ution	-10808
अस्या	-10809
एकस्य	-10810
एतानि	-10811
केजस्	-10812
दीर्घ	-10813
धारेण	-10814
मुख्य	-10815
र्गतं	-10816
र्जनं	-10817
लोकैः	-10818
विविध	-10819
शन्स्	-10820
श्वेत	-10821
स्तरः	-10822
स्पति	-10823
स्वरा	-10824
ह्वान	-10825
ाटैप्	-10826
ानिति	-10827
ान्ता	-10828
िष्ये	-10829
▁?"""	-10830
▁Raju	-10831
▁priv	-10832
▁your	-10833
▁अपरा	-10834
▁अवकर	-10835
▁आर्ग	-10836
▁एकैव	-10837
▁एतयो	-10838
▁कान्	-10839
▁कुल्	-10840
▁चत्व	-10841
▁चेद्	-10842
▁डेश्	-10843
▁दक्ष	-10844
▁दानं	-10845
▁पृथक	-10846
▁बच्च	-10847
▁मङ्ग	-10848
▁मुंह	-10849
▁मुखे	-10850
▁रूपं	-10851
▁वामत	-10852
▁विघ्	-10853
▁शङ्ख	-10854
▁संवि	-10855
▁सफाई	-10856
▁समयो	-10857
▁स्तु	-10858
▁हर्ष	-10859
▁हिंस	-10860
▁हेतु	-10861
ervice	-10862
losing	-10863
ंक्षन्	-10864
कार्या	-10865
कोर्स्	-10866
क्टोबर	-10867
क्षस्य	-10868
गच्छत्	-10869
टेण्ट्	-10870
ततस्ते	-10871
द्वयेन	-10872
पूर्णं	-10873
प्रमाण	-10874
भारतीय	-10875
मान्ति	-10876
रुरज्ज	-10877
विण्डो	-10878
वृक्षा	-10879
शिष्या	-10880
स्किष्	-10881
ान्वेष	-10882
▁Apply	-10883
▁Build	-10884
▁Label	-10885
▁Scale	-10886
▁World	-10887
▁close	-10888
▁paint	-10889
▁आंखें	-10890
▁एवमपि	-10891
▁कन्दु	-10892
▁कागदे	-10893
▁कामपि	-10894
▁केन्द	-10895
▁ज़ूम्	-10896
▁टङ्कण	-10897
▁तदधिक	-10898
▁तदन्य	-10899
▁तूर्ण	-10900
▁ध्यात	-10901
▁नाङ्ग	-10902
▁नियमं	-10903
▁पाठ्य	-10904
▁पूरित	-10905
▁प्रवह	-10906
▁बालका	-10907
▁मंत्र	-10908
▁यत्कि	-10909
▁रक्षा	-10910
▁रचयित	-10911
▁वाद्य	-10912
▁शयतान	-10913
▁सन्दे	-10914
▁साकम्	-10915
▁सीतां	-10916
▁स्वरा	-10917
Mozilla	-10918
कदाचित्	-10919
नाभ्यास	-10920
पोइण्ट्	-10921
प्राप्य	-10922
वार्त्त	-10923
स्थानम्	-10924
ेश्वरीय	-10925
ोपयोक्त	-10926
▁Browse	-10927
▁Delete	-10928
▁Submit	-10929
▁Update	-10930
▁amount	-10931
▁finger	-10932
▁result	-10933
▁switch	-10934
▁अधिकार	-10935
▁अवर्तत	-10936
▁अविद्य	-10937
▁आधृत्य	-10938
▁उत्तमः	-10939
▁कदाचित	-10940
▁करणात्	-10941
▁कुरुते	-10942
▁जातानि	-10943
▁जानासि	-10944
▁टण्कनं	-10945
▁त्वाम्	-10946
▁दंडासन	-10947
▁नेत्रम	-10948
▁पठिष्य	-10949
▁पीलातः	-10950
▁पुत्री	-10951
▁प्रयति	-10952
▁प्रहार	-10953
▁बीजस्य	-10954
▁मेनिरे	-10955
▁यच्छेत	-10956
▁युद्धे	-10957
▁लेखस्य	-10958
▁विरामं	-10959
▁शक्तिः	-10960
▁शरीरात	-10961
▁श्वेतं	-10962
▁श्वेतः	-10963
▁समृद्ध	-10964
▁सृष्टे	-10965
▁स्थिता	-10966
▁स्यन्द	-10967
कर्तुमहं	-10968
ज्ञापयत्	-10969
डियेण्ट्	-10970
दृष्ट्या	-10971
नोपविष्ट	-10972
पङ्क्तिः	-10973
पाठार्थं	-10974
यत्किमपि	-10975
लोडिङ्ग्	-10976
सम्प्रति	-10977
साक्षरता	-10978
स्थानेषु	-10979
▁Pattern	-10980
▁changes	-10981
▁express	-10982
▁extract	-10983
▁pattern	-10984
▁अधिकानि	-10985
▁अभ्यस्त	-10986
▁इतीदमपि	-10987
▁कुर्याम	-10988
▁क्लासस्	-10989
▁ग्रन्थे	-10990
▁चतुरश्र	-10991
▁तत्सर्व	-10992
▁त्वक्छे	-10993
▁दर्शनम्	-10994
▁दुर्योध	-10995
▁दोहराऐं	-10996
▁द्विगुण	-10997
▁नोत्तुं	-10998
▁प्रयच्छ	-10999
▁प्रोचुः	-11000
▁महायाजक	-11001
▁लेयर्स्	-11002
▁विस्तृत	-11003
▁संगृह्य	-11004
▁स्त्रिय	-11005
▁स्पृष्ट	-11006
▁स्वसमीप	-11007
▁हस्तस्य	-11008
reference	-11009
क्ष्यन्ते	-11010
सिद्धान्त	-11011
▁Continue	-11012
▁Fragment	-11013
▁TeXworks	-11014
▁अत्रत्यं	-11015
▁अनिवार्य	-11016
▁आगच्छेत्	-11017
▁ईश्वराद्	-11018
▁एतादृशाः	-11019
▁कन्फ़र्म	-11020
▁कफर्नाहू	-11021
▁किन्त्वा	-11022
▁गोशालाया	-11023
▁ग्रहीतुं	-11024
▁चालयन्तु	-11025
▁तदुद्घाट	-11026
▁निर्वहणं	-11027
▁निवर्त्त	-11028
▁पवित्रम्	-11029
▁प्रवाचकः	-11030
▁प्रशिक्ष	-11031
▁प्रोटीन्	-11032
▁मत्सविधे	-11033
▁विभक्तुं	-11034
▁वृक्षेषु	-11035
▁सर्व्वथा	-11036
▁सर्व्वाः	-11037
▁सूच्यांश	-11038
अवलोकयन्तु	-11039
प्रकाराणां	-11040
भविष्यन्ति	-11041
याञ्चक्रुः	-11042
▁अस्मदीयाः	-11043
▁इस्रायेल्	-11044
▁गमिष्यामः	-11045
▁ग्रन्थसूच	-11046
▁निक्षिप्त	-11047
▁प्रारम्भं	-11048
▁प्रोग्राम	-11049
▁योजयितुम्	-11050
▁सङ्कलयामः	-11051
▁सिद्धान्त	-11052
▁स्वर्गस्थ	-11053
▁हरिद्वर्ण	-11054
▁Assignment	-11055
▁Navigation	-11056
▁percentage	-11057
▁तत्पश्चाद्	-11058
▁न्यूनमस्ति	-11059
▁पुनरेकवारं	-11060
▁प्रारभामहे	-11061
▁श्रीकृष्णः	-11062
▁स्मर्यताम्	-11063
▁प्रचारयितुं	-11064
▁प्राप्तवन्त	-11065
▁महत्वपूर्णा	-11066
▁सर्व्वशक्ति	-11067
▁स्वीकुर्यात	-11068
▁एक्सिक्यूशन्	-11069
▁निर्माणार्थं	-11070
▁प्रस्थितवान्	-11071
▁लिखितवानस्मि	-11072
▁इम्प्लिमेण्ट्	-11073
▁उप्पिनपट्टणम्	-11074
AL	-11075
FF	-11076
Th	-11077
cf	-11078
gh	-11079
wo	-11080
हः	-11081
”.	-11082
Ind	-11083
etc	-11084
uiz	-11085
vis	-11086
ंगल	-11087
अल्	-11088
करः	-11089
ताम	-11090
फन्	-11091
बलि	-11092
भाल	-11093
मता	-11094
याप	-11095
लता	-11096
लनं	-11097
व्र	-11098
ारौ	-11099
ालं	-11100
ावत	-11101
िणी	-11102
ेनं	-11103
▁01	-11104
▁1,	-11105
▁Ad	-11106
▁इन	-11107
▁गृ	-11108
▁चम	-11109
▁जप	-11110
▁टी	-11111
▁पच	-11112
▁बर	-11113
▁‘‘	-11114
Home	-11115
anel	-11116
ases	-11117
eger	-11118
ibre	-11119
iers	-11120
iver	-11121
uman	-11122
एवम्	-11123
घाति	-11124
डेटा	-11125
णश्च	-11126
णात्	-11127
त्तः	-11128
धर्म	-11129
धेयं	-11130
नामक	-11131
पेज्	-11132
प्रण	-11133
भावे	-11134
मोरि	-11135
य्ट्	-11136
लिका	-11137
वक्त	-11138
वेति	-11139
व्यव	-11140
सिड्	-11141
ेतत्	-11142
ोत्प	-11143
ोल्य	-11144
▁0.4	-11145
▁Fix	-11146
▁PDF	-11147
▁PID	-11148
▁Top	-11149
▁top	-11150
▁you	-11151
▁अती	-11152
▁अम्	-11153
▁आनं	-11154
▁आपर	-11155
▁आलु	-11156
▁उपस	-11157
▁उबं	-11158
▁करि	-11159
▁काः	-11160
▁काच	-11161
▁कूप	-11162
▁गभी	-11163
▁चयन	-11164
▁टाइ	-11165
▁तीन	-11166
▁धना	-11167
▁पान	-11168
▁फूल	-11169
▁बलं	-11170
▁बाध	-11171
▁माल	-11172
▁मेद	-11173
▁रोक	-11174
▁लगा	-11175
▁वने	-11176
▁वसा	-11177
▁शैल	-11178
▁संह	-11179
▁सुत	-11180
▁सोम	-11181
▁सोर	-11182
Enter	-11183
Print	-11184
Score	-11185
acter	-11186
admin	-11187
anced	-11188
ators	-11189
izont	-11190
ormal	-11191
क्षरं	-11192
ग्रहा	-11193
ताञ्च	-11194
दलीनी	-11195
ध्वनि	-11196
पत्रं	-11197
पृथ्व	-11198
पेश्य	-11199
भोज्य	-11200
मायां	-11201
यदाहं	-11202
विविश	-11203
वृद्ध	-11204
ष्टम्	-11205
स्त्य	-11206
ाग्रे	-11207
ामीति	-11208
ीयतां	-11209
ेत्थं	-11210
ैकेट्	-11211
▁Mark	-11212
▁Site	-11213
▁move	-11214
▁quiz	-11215
▁stop	-11216
▁अपचि	-11217
▁अवगत	-11218
▁आक्स	-11219
▁आपने	-11220
▁ऐषमः	-11221
▁जगत्	-11222
▁जयति	-11223
▁तमुप	-11224
▁दूतः	-11225
▁देने	-11226
▁निषि	-11227
▁पक्व	-11228
▁पौलो	-11229
▁ब्रू	-11230
▁भूता	-11231
▁यादृ	-11232
▁र्ना	-11233
▁लिंक	-11234
▁लेना	-11235
▁विवा	-11236
▁विसि	-11237
▁सकाश	-11238
▁स्वत	-11239
Google	-11240
eneral	-11241
hyphen	-11242
अहमत्र	-11243
कारिणो	-11244
कृतानि	-11245
क्ष्णं	-11246
गुणानि	-11247
ङ्गस्य	-11248
त्वानि	-11249
देशीया	-11250
द्रव्य	-11251
धिकारी	-11252
नोदनेन	-11253
न्त्रं	-11254
प्रधान	-11255
भवताम्	-11256
भ्रमणं	-11257
मनुष्य	-11258
माणानि	-11259
लिस्ट्	-11260
लेक्ट्	-11261
स्ट्रि	-11262
स्तर्ह	-11263
ादृश्य	-11264
▁अनन्य	-11265
▁आन्स्	-11266
▁आहत्य	-11267
▁उपहार	-11268
▁चयनम्	-11269
▁चेदपि	-11270
▁जानुत	-11271
▁जितना	-11272
▁जीवित	-11273
▁तावद्	-11274
▁तुच्छ	-11275
▁दत्ता	-11276
▁दद्या	-11277
▁दोषाः	-11278
▁नियोज	-11279
▁पिधान	-11280
▁पिधाय	-11281
▁फील्ड	-11282
▁फैनल्	-11283
▁भजनगे	-11284
▁मङ्गल	-11285
▁मूर्त	-11286
▁युध्य	-11287
▁योजनं	-11288
▁योहनः	-11289
▁वक्रं	-11290
▁वायुम	-11291
▁विभूष	-11292
▁शोणित	-11293
▁संतोष	-11294
▁सरणिं	-11295
▁सांस्	-11296
▁स्तिफ	-11297
▁स्वतः	-11298
estions	-11299
कृतवान्	-11300
टङ्कयतु	-11301
त्स्यते	-11302
धस्तात्	-11303
पङ्क्ति	-11304
प्रस्तर	-11305
भक्ष्यं	-11306
मुत्थाय	-11307
यितुमपि	-11308
युक्ताः	-11309
संसूचके	-11310
▁0.48.4	-11311
▁Folder	-11312
▁patron	-11313
▁अद्यतन	-11314
▁अध्ययन	-11315
▁आज्ञां	-11316
▁उत्तमा	-11317
▁उत्पीठ	-11318
▁एकैकशः	-11319
▁करसञ्च	-11320
▁कृतवती	-11321
▁गतिशील	-11322
▁ग्रामं	-11323
▁चतुर्थ	-11324
▁चतुर्व	-11325
▁जागरूक	-11326
▁ट्यूब्	-11327
▁त्रिषु	-11328
▁नृत्यं	-11329
▁परस्पर	-11330
▁पाठेषु	-11331
▁पालयति	-11332
▁पुत्रे	-11333
▁प्रदाय	-11334
▁भित्ति	-11335
▁भ्रमित	-11336
▁यर्द्द	-11337
▁लोगिन्	-11338
▁श्रुतं	-11339
▁संतुलन	-11340
▁सञ्जात	-11341
▁सहायकं	-11342
▁सुख्या	-11343
लोकेभ्यो	-11344
विशिष्टा	-11345
व्यवस्था	-11346
संगीतस्य	-11347
सम्बद्धं	-11348
स्क्रिप्	-11349
स्थानात्	-11350
ानुसारम्	-11351
िष्यध्वे	-11352
▁Content	-11353
▁Subject	-11354
▁greater	-11355
▁अत्यधिक	-11356
▁अत्रापि	-11357
▁अन्यत्र	-11358
▁इतीदमुप	-11359
▁इत्येषः	-11360
▁ईश्वराय	-11361
▁उपलब्धा	-11362
▁कथयन्ति	-11363
▁कम्पोने	-11364
▁खादन्ति	-11365
▁ग्रेटर्	-11366
▁चत्वारो	-11367
▁चालयामः	-11368
▁पर्चनीं	-11369
▁पवित्रं	-11370
▁पितामहः	-11371
▁प्रथमतः	-11372
▁प्रबन्ध	-11373
▁प्रश्नः	-11374
▁बभाषिरे	-11375
▁बोद्धुं	-11376
▁भस्मासु	-11377
▁विविच्य	-11378
▁व्याघ्र	-11379
▁श्रद्धा	-11380
▁संसूचके	-11381
▁सार्द्ध	-11382
▁स्पष्टं	-11383
▁स्वाभाव	-11384
▁स्वीकरण	-11385
प्राणायाम	-11386
वैज्ञानिक	-11387
▁Category	-11388
▁Supplier	-11389
▁controls	-11390
▁इत्येतेन	-11391
▁कीबोर्ड्	-11392
▁गमिष्यति	-11393
▁ज्ञापयति	-11394
▁दंडासनम्	-11395
▁द्वितीया	-11396
▁निश्चयेन	-11397
▁नृत्यानि	-11398
▁बर्णब्बा	-11399
▁ब्रैकेट्	-11400
▁भवितव्या	-11401
▁वदिष्यति	-11402
▁व्यत्यास	-11403
▁समर्थयति	-11404
▁साक्षरता	-11405
▁सोपानानि	-11406
▁स्वभ्रात	-11407
▁अभिप्रायं	-11408
▁ईश्वरस्या	-11409
▁एकस्योपरि	-11410
▁ग्रन्थालय	-11411
▁जीविष्यति	-11412
▁ज्ञास्यति	-11413
▁निष्कास्य	-11414
▁परमेश्वरो	-11415
▁पुस्तकस्य	-11416
▁यिहूदीयाः	-11417
▁यीशुरवदत्	-11418
▁रामायणस्य	-11419
▁रिसोर्सस्	-11420
▁शक्नुयात्	-11421
▁शास्त्रीय	-11422
▁श्मशानात्	-11423
▁सम्पूर्णे	-11424
▁सम्मिलिता	-11425
▁सामान्यतः	-11426
▁स्वीकुर्व	-11427
Maintenance	-11428
▁background	-11429
▁distribute	-11430
▁अकुर्व्वन्	-11431
▁इण्डिकेटर्	-11432
▁दक्षिणकोणे	-11433
▁प्रकाश्यते	-11434
▁प्रसार्य्य	-11435
▁प्रेषयामास	-11436
▁मेट्रिक्स्	-11437
▁रक्षितवान्	-11438
▁सङ्कलयन्तु	-11439
▁सङ्ख्यानां	-11440
▁सर्वेषामपि	-11441
▁एक्स्प्रेश्	-11442
▁परीक्षायाम्	-11443
▁मस्तिष्कस्य	-11444
▁सर्वश्रेष्ठ	-11445
▁स्थापितवान्	-11446
▁स्वीक्रियते	-11447
▁ट्रान्स्लेट्	-11448
▁परिवर्तनीयम्	-11449
▁वैशिष्ट्यानि	-11450
▁र्यीशुख्रीष्ट	-11451
)-	-11452
3.	-11453
:(	-11454
DD	-11455
MB	-11456
MM	-11457
MS	-11458
टन	-11459
ुत	-11460
Des	-11461
SBN	-11462
ber	-11463
cle	-11464
ful	-11465
oun	-11466
pon	-11467
असौ	-11468
एका	-11469
एलि	-11470
खाय	-11471
जुक	-11472
ज्व	-11473
णाः	-11474
धाव	-11475
नोः	-11476
मणि	-11477
मीक	-11478
राप	-11479
राय	-11480
लिय	-11481
लेष	-11482
वचन	-11483
वेन	-11484
शया	-11485
हनी	-11486
हिक	-11487
ादश	-11488
ामु	-11489
ामो	-11490
िकः	-11491
ीची	-11492
ुला	-11493
ेतृ	-11494
▁70	-11495
▁dr	-11496
▁ईष	-11497
▁कट	-11498
▁बच	-11499
▁रथ	-11500
enew	-11501
fore	-11502
lect	-11503
ocal	-11504
plic	-11505
rows	-11506
uick	-11507
ऐटम्	-11508
ग्नं	-11509
चिते	-11510
जाना	-11511
जेता	-11512
टिवि	-11513
णीया	-11514
ण्या	-11515
त्था	-11516
द्रो	-11517
नीतं	-11518
न्तौ	-11519
पिंग	-11520
फलके	-11521
ब्दे	-11522
माला	-11523
रेणा	-11524
र्थत	-11525
र्वं	-11526
लूप्	-11527
वञ्च	-11528
वादन	-11529
वासी	-11530
वेब्	-11531
साँस	-11532
साद्	-11533
सान्	-11534
सेल्	-11535
सैट्	-11536
स्टा	-11537
स्रः	-11538
हीना	-11539
ारोग	-11540
िनीं	-11541
िभिः	-11542
ैरपि	-11543
▁Bar	-11544
▁Not	-11545
▁Sky	-11546
▁Tux	-11547
▁अथा	-11548
▁अमे	-11549
▁एकम	-11550
▁एकौ	-11551
▁एन्	-11552
▁एल्	-11553
▁कटे	-11554
▁कवि	-11555
▁किस	-11556
▁पाव	-11557
▁यून	-11558
▁रास	-11559
▁लेव	-11560
▁वपु	-11561
▁वेग	-11562
▁षड्	-11563
▁संत	-11564
▁सकल	-11565
/2017	-11566
XAMPP	-11567
frame	-11568
riter	-11569
uffer	-11570
कोऽपि	-11571
चक्षु	-11572
जलस्य	-11573
तंजलि	-11574
त्वैव	-11575
निर्म	-11576
निवहं	-11577
निवेश	-11578
पदस्य	-11579
पश्यत	-11580
पिटल्	-11581
ब्ररि	-11582
भित्त	-11583
मण्डल	-11584
मवदत्	-11585
म्पर्	-11586
रहितं	-11587
रिष्ठ	-11588
लीनां	-11589
ष्कार	-11590
सूर्य	-11591
िष्यत	-11592
▁Char	-11593
▁Fund	-11594
▁Mode	-11595
▁appl	-11596
▁fill	-11597
▁अतोऽ	-11598
▁अधीत	-11599
▁अलिख	-11600
▁आमान	-11601
▁इतोऽ	-11602
▁इमाः	-11603
▁एजुक	-11604
▁ओपन्	-11605
▁कार्	-11606
▁कोमा	-11607
▁क्षी	-11608
▁खड़े	-11609
▁तमिल	-11610
▁तृती	-11611
▁ददृश	-11612
▁दाऐं	-11613
▁दासो	-11614
▁धातव	-11615
▁निरु	-11616
▁पठाम	-11617
▁परमं	-11618
▁बरब्	-11619
▁मन्त	-11620
▁यत्त	-11621
▁रखकर	-11622
▁लोगो	-11623
▁सिदू	-11624
▁हमें	-11625
Enroll	-11626
Insert	-11627
Office	-11628
Search	-11629
Select	-11630
etting	-11631
क्षेप्	-11632
गुणान्	-11633
दिनेषु	-11634
द्यापि	-11635
नासिका	-11636
निर्मा	-11637
न्निधौ	-11638
पृष्ठे	-11639
मेटिक्	-11640
युक्तः	-11641
लोकस्य	-11642
स्वामि	-11643
ानुवाच	-11644
िकाणां	-11645
ेष्यति	-11646
्य्यते	-11647
▁BEGIN	-11648
▁Latex	-11649
▁alert	-11650
▁items	-11651
▁label	-11652
▁अग्नौ	-11653
▁अदायि	-11654
▁अनुभू	-11655
▁अहङ्क	-11656
▁आध्वे	-11657
▁उद्भि	-11658
▁उपद्र	-11659
▁गृहम्	-11660
▁ग्रह्	-11661
▁तमोगु	-11662
▁तान्य	-11663
▁तीमथि	-11664
▁दिमाग	-11665
▁दौरान	-11666
▁परदार	-11667
▁बन्दि	-11668
▁बृहद्	-11669
▁मानवः	-11670
▁यद्धि	-11671
▁रेखाः	-11672
▁विरोध	-11673
▁शक्नो	-11674
▁संपर्	-11675
▁सत्सु	-11676
▁समाधि	-11677
▁सर्वी	-11678
▁सौभाग	-11679
erspect	-11680
ertical	-11681
izontal	-11682
uffered	-11683
इत्यनेन	-11684
करणानां	-11685
क्षिप्त	-11686
चिकित्स	-11687
तदर्थम्	-11688
त्युक्त	-11689
भवद्भिः	-11690
मस्तीति	-11691
मस्माकं	-11692
लैब्ररि	-11693
विश्राम	-11694
वैशिष्ट	-11695
स्तरस्य	-11696
ितव्यम्	-11697
▁Acquis	-11698
▁before	-11699
▁column	-11700
▁google	-11701
▁अकथयन्	-11702
▁अदृश्य	-11703
▁अभियान	-11704
▁अर्थतः	-11705
▁आचार्य	-11706
▁आरम्भे	-11707
▁उद्यान	-11708
▁कुल्हा	-11709
▁कूर्चं	-11710
▁कोष्ठक	-11711
▁चतुर्ण	-11712
▁छात्रा	-11713
▁जीवाणव	-11714
▁ज्ञानि	-11715
▁दद्यात	-11716
▁दाहिनी	-11717
▁निद्रा	-11718
▁नैट्रो	-11719
▁पश्चिम	-11720
▁पूर्णा	-11721
▁प्रश्न	-11722
▁बटन्स्	-11723
▁बहुमूल	-11724
▁महात्म	-11725
▁महिलाः	-11726
▁मात्रा	-11727
▁मोड़ें	-11728
▁रीत्या	-11729
▁वामपाद	-11730
▁विजेता	-11731
▁शून्यं	-11732
▁शृणोति	-11733
▁सन्तोष	-11734
▁सांसार	-11735
▁स्टुडे	-11736
▁हित्वा	-11737
Employee	-11738
Netbeans	-11739
omputers	-11740
एतस्मिन्	-11741
क्टीरिया	-11742
प्राचीना	-11743
प्रोटीन्	-11744
स्टेटिक्	-11745
स्त्राणि	-11746
स्थितानि	-11747
ीकृतवान्	-11748
ोपलभ्यते	-11749
▁process	-11750
▁अगच्छत्	-11751
▁अणुसङ्क	-11752
▁अहमधुना	-11753
▁आपरेषन्	-11754
▁आसक्तिः	-11755
▁उत्पद्य	-11756
▁एड्मिन्	-11757
▁एतादृक्	-11758
▁एतादृशो	-11759
▁केनचिद्	-11760
▁डब्ल्यु	-11761
▁तेभ्योऽ	-11762
▁दायित्व	-11763
▁निक्षिप	-11764
▁निमित्त	-11765
▁पुस्तके	-11766
▁पूरयामि	-11767
▁प्रत्यू	-11768
▁प्रिंट्	-11769
▁ब्रवीमि	-11770
▁भोक्तुं	-11771
▁मनुजान्	-11772
▁रक्षामि	-11773
▁लक्ष्मी	-11774
▁विविधता	-11775
▁विवृतम्	-11776
▁विस्मयं	-11777
▁सङ्गणके	-11778
▁सम्पर्क	-11779
▁साध्यम्	-11780
xtensions	-11781
किन्त्वहं	-11782
क्ष्यन्ति	-11783
मात्रायां	-11784
र्व्वन्ति	-11785
वस्त्राणि	-11786
▁grepdemo	-11787
▁अतिरिक्त	-11788
▁अधोलिखित	-11789
▁अन्यदन्य	-11790
▁अभिषिक्त	-11791
▁इत्यादेश	-11792
▁एतदर्थम्	-11793
▁किमर्थम्	-11794
▁ख्रीष्टं	-11795
▁डिफाल्ट्	-11796
▁नाशयितुं	-11797
▁परिवर्तन	-11798
▁पादपेभ्य	-11799
▁पूर्वतने	-11800
▁प्रदत्ता	-11801
▁प्रहित्य	-11802
▁प्राप्तव	-11803
▁प्राप्ते	-11804
▁फिरूशिनः	-11805
▁ब्राह्मण	-11806
▁भ्रामयेत	-11807
▁मित्राणि	-11808
▁योगदानम्	-11809
▁लेखनीयम्	-11810
▁विख्यातो	-11811
▁सन्तुष्ट	-11812
▁साधयितुं	-11813
▁सामान्यं	-11814
▁सुसंवादो	-11815
▁सेनापतिः	-11816
▁स्क्वेर्	-11817
▁स्ट्रोक्	-11818
▁स्थितानि	-11819
▁स्ल्याश्	-11820
erspective	-11821
वलोक्यताम्	-11822
▁errorMsgs	-11823
▁कारिष्यते	-11824
▁जालपुटस्य	-11825
▁टङ्कयितुं	-11826
▁परिक्रमां	-11827
▁प्रकारस्य	-11828
▁प्रान्तरे	-11829
▁प्रोफ़ैल्	-11830
▁यिरूशालमि	-11831
▁संक्षेपेण	-11832
▁सन्निधिम्	-11833
▁समुपविष्ट	-11834
▁सर्व्वविध	-11835
वाद्ययन्त्र	-11836
संधारिकायां	-11837
▁अन्विषन्तु	-11838
▁अभिज्ञातुं	-11839
▁आदिष्टवान्	-11840
▁इन्टर्फेस्	-11841
▁क्यान्वास्	-11842
▁क्लोसिङ्ग्	-11843
▁चित्रयन्तु	-11844
▁तत्पश्चात्	-11845
▁न्यूनतायां	-11846
▁पुस्तकानां	-11847
▁प्रत्येकम्	-11848
▁प्रश्नानां	-11849
▁युष्मभ्यम्	-11850
▁रेकार्ड्स्	-11851
▁वस्तुतस्तु	-11852
▁वैशिष्ट्यं	-11853
▁संयोजितानि	-11854
▁Circulation	-11855
▁Information	-11856
▁अनयोर्मध्ये	-11857
▁आन्तियखियान	-11858
▁नियन्त्रितं	-11859
▁निष्कासयामि	-11860
▁प्रकाशयितुं	-11861
▁प्रक्रियाया	-11862
▁स्वच्छतायाः	-11863
ufferedReader	-11864
▁उद्घाट्यमाने	-11865
▁उपयुक्तवन्तः	-11866
▁StudentEnroll	-11867
▁अधोनिर्दिष्टं	-11868
▁कार्बोहाइड्रे	-11869
▁सूक्ष्मव्यायाम	-11870
▁आवश्यकतानुसारेण	-11871
▁निस्तारोत्सवस्य	-11872
2-	-11873
40	-11874
RG	-11875
hi	-11876
ov	-11877
sq	-11878
td	-11879
wc	-11880
छा	-11881
टै	-11882
पक	-11883
भं	-11884
भौ	-11885
वच	-11886
वध	-11887
▁”	-11888
Bcc	-11889
For	-11890
ces	-11891
cky	-11892
ges	-11893
isp	-11894
yle	-11895
ymb	-11896
एषा	-11897
करे	-11898
कूट	-11899
केट	-11900
चिः	-11901
जले	-11902
टने	-11903
ट्व	-11904
तरः	-11905
मोद	-11906
रीं	-11907
लघु	-11908
लेन	-11909
वेग	-11910
शला	-11911
ापं	-11912
िभि	-11913
ैरि	-11914
▁13	-11915
▁19	-11916
▁35	-11917
▁45	-11918
▁Bi	-11919
▁He	-11920
▁wc	-11921
▁आभ	-11922
▁मत	-11923
▁हल	-11924
-201	-11925
Choo	-11926
Text	-11927
hold	-11928
uary	-11929
umer	-11930
क्तो	-11931
जङ्घ	-11932
जन्म	-11933
टिका	-11934
टैड्	-11935
ट्यू	-11936
ड़ों	-11937
त्री	-11938
दूता	-11939
पतेः	-11940
पादौ	-11941
पुटं	-11942
बुक्	-11943
भवती	-11944
भवतु	-11945
भाजन	-11946
भावो	-11947
भुजं	-11948
मौस्	-11949
रोतु	-11950
र्क्	-11951
लितं	-11952
व्यो	-11953
शाली	-11954
शीला	-11955
समाज	-11956
सस्य	-11957
हरित	-11958
ाधिप	-11959
ायम्	-11960
ुद्ध	-11961
ुश्च	-11962
्राट	-11963
▁1.7	-11964
▁200	-11965
▁4.3	-11966
▁Rot	-11967
▁bin	-11968
▁tax	-11969
▁अचल	-11970
▁उभौ	-11971
▁कोड	-11972
▁कोष	-11973
▁गाव	-11974
▁गुर	-11975
▁जर्	-11976
▁जीभ	-11977
▁पट्	-11978
▁रखे	-11979
▁वृष	-11980
▁शौच	-11981
▁सभा	-11982
▁ह्य	-11983
AMESS	-11984
Admin	-11985
Build	-11986
annel	-11987
categ	-11988
emove	-11989
intro	-11990
tempt	-11991
ymbol	-11992
आवश्य	-11993
इत्ये	-11994
गणस्य	-11995
च्चैः	-11996
ञ्जने	-11997
णसमये	-11998
ततस्त	-11999
तव्यं	-12000
तिहास	-12001
तुञ्च	-12002
न्ध्र	-12003
बुध्य	-12004
भीष्ट	-12005
मिकां	-12006
मिमम्	-12007
यात्र	-12008
यामहे	-12009
युतम्	-12010
योजना	-12011
रियान	-12012
वर्यः	-12013
स्तान	-12014
हेतोः	-12015
ानुभव	-12016
ान्यु	-12017
िक्स्	-12018
्रियत	-12019
▁demo	-12020
▁root	-12021
▁size	-12022
▁star	-12023
▁अणुं	-12024
▁अनया	-12025
▁अवरो	-12026
▁आदिश	-12027
▁एड़ी	-12028
▁कोणं	-12029
▁गाली	-12030
▁गोपि	-12031
▁चितः	-12032
▁दासा	-12033
▁दिशि	-12034
▁न्यु	-12035
▁पढने	-12036
▁परेश	-12037
▁पादं	-12038
▁पालन	-12039
▁पोतं	-12040
▁प्रम	-12041
▁फक्क	-12042
▁बालक	-12043
▁बेक्	-12044
▁मतिं	-12045
▁मूषक	-12046
▁योषि	-12047
▁र्यो	-12048
▁विका	-12049
▁सदैव	-12050
▁सम्व	-12051
▁सिदो	-12052
Action	-12053
resent	-12054
return	-12055
कानिचन	-12056
क्षरैः	-12057
ग्रहणं	-12058
ग्रामं	-12059
चतुर्थ	-12060
ज्ञानि	-12061
टिकाया	-12062
त्वाद्	-12063
देशान्	-12064
द्वक्त	-12065
ध्यक्ष	-12066
भ्यासं	-12067
युक्तो	-12068
योग्यं	-12069
रक्षणं	-12070
र्ष्या	-12071
वर्णेन	-12072
वास्ति	-12073
शुल्कं	-12074
श्वरेण	-12075
सञ्चिक	-12076
सन्तान	-12077
सम्मुख	-12078
हेश्वर	-12079
ीकरणाय	-12080
▁Phase	-12081
▁Units	-12082
▁dName	-12083
▁level	-12084
▁paste	-12085
▁अवसरे	-12086
▁अवाप्	-12087
▁आदर्श	-12088
▁क्रमा	-12089
▁गोपाल	-12090
▁जाग्र	-12091
▁जिह्व	-12092
▁दण्डे	-12093
▁पितरौ	-12094
▁पूज्य	-12095
▁पूरयत	-12096
▁प्रभौ	-12097
▁प्रात	-12098
▁बनाने	-12099
▁बिंदु	-12100
▁भोजनप	-12101
▁मध्यम	-12102
▁मीटरत	-12103
▁यूनां	-12104
▁योहनं	-12105
▁योहनो	-12106
▁विषयः	-12107
▁समूहं	-12108
▁सविधे	-12109
▁सौन्द	-12110
▁हमारे	-12111
ibility	-12112
oftware	-12113
omplete	-12114
println	-12115
अहमधुना	-12116
काङ्क्ष	-12117
कोशिकीय	-12118
ज्ञानेन	-12119
ण्डर्ड्	-12120
तिष्ठन्	-12121
पदार्थं	-12122
परिमाणं	-12123
पूर्वतन	-12124
पूर्व्व	-12125
विधानम्	-12126
साम्प्र	-12127
स्तादृश	-12128
ुक्तस्य	-12129
▁Typing	-12130
▁Upload	-12131
▁source	-12132
▁अन्तरे	-12133
▁अन्यतम	-12134
▁आगच्छत	-12135
▁आर्थिक	-12136
▁इदमेकं	-12137
▁उडुम्ब	-12138
▁ऊर्द्ध	-12139
▁कण्डीश	-12140
▁कतिपया	-12141
▁कीदृग्	-12142
▁क्रीडक	-12143
▁ददृशुः	-12144
▁देवपूज	-12145
▁नद्याः	-12146
▁निवसति	-12147
▁पार्स्	-12148
▁पित्रा	-12149
▁पूरयति	-12150
▁प्रदान	-12151
▁प्रियः	-12152
▁भवत्यः	-12153
▁भवत्यौ	-12154
▁मनोनीत	-12155
▁यात्रा	-12156
▁योषितः	-12157
▁राज्ये	-12158
▁लिनक्स	-12159
▁विनश्य	-12160
▁शारीरि	-12161
▁शिथिलं	-12162
▁शिष्यः	-12163
▁समर्था	-12164
▁समानां	-12165
▁समाप्य	-12166
▁सम्भाव	-12167
▁साक्षी	-12168
▁स्नायु	-12169
▁स्पेसि	-12170
Tutorial	-12171
निर्माणे	-12172
मनुसृत्य	-12173
विद्यालय	-12174
स्तेषाम्	-12175
ार्त्तां	-12176
्यनन्तरं	-12177
्यात्मिक	-12178
▁Company	-12179
▁Profile	-12180
▁closing	-12181
▁current	-12182
▁अङ्गुलय	-12183
▁अर्थाद्	-12184
▁आवश्यकम	-12185
▁एप्लेट्	-12186
▁गतवन्तः	-12187
▁चित्रकं	-12188
▁त्रिगुण	-12189
▁दक्षिणं	-12190
▁नाशक्नु	-12191
▁परित्यज	-12192
▁पवित्रा	-12193
▁पेशीनां	-12194
▁प्रज्वल	-12195
▁प्रोपर्	-12196
▁फिरूशिन	-12197
▁फुप्फुस	-12198
▁बिन्दुं	-12199
▁बीजानां	-12200
▁युक्तम्	-12201
▁विगतेषु	-12202
▁शान्तिं	-12203
▁शिक्षां	-12204
▁श्रीराम	-12205
▁सन्दर्भ	-12206
▁सपरेटर्	-12207
▁समीचीनं	-12208
▁समुद्रे	-12209
▁सहाय्यं	-12210
▁स्टेटस्	-12211
परिवर्त्त	-12212
मेण्टेशन्	-12213
▁Gaussian	-12214
▁Steinort	-12215
▁TestData	-12216
▁अस्योपरि	-12217
▁ओपनिङ्ग्	-12218
▁जातमस्ति	-12219
▁तदर्थमहं	-12220
▁तस्मादेव	-12221
▁तृतीयांश	-12222
▁धन्यवादं	-12223
▁नास्तीति	-12224
▁निर्वहति	-12225
▁नेच्छामि	-12226
▁प्रतिशतं	-12227
▁प्रतिसमा	-12228
▁प्रदीयते	-12229
▁प्रार्थय	-12230
▁प्रोटोजा	-12231
▁बोण्ड्स्	-12232
▁भविष्यसि	-12233
▁भिन्नदेश	-12234
▁मग्दलीनी	-12235
▁युष्मभ्य	-12236
▁योजनायाः	-12237
▁योजनीयम्	-12238
▁लोकेभ्यो	-12239
▁विकासस्य	-12240
▁विश्वासे	-12241
▁वृक्षाणि	-12242
▁श्रेष्ठः	-12243
▁समचिह्नं	-12244
▁सुस्थिरा	-12245
timization	-12246
परीक्षायां	-12247
▁अक्षराणां	-12248
▁अस्यार्थः	-12249
▁उपलभ्यमान	-12250
▁कथितवन्तः	-12251
▁कर्म्मणां	-12252
▁ग्रन्थेषु	-12253
▁दुर्योधनः	-12254
▁प्रसारयेत	-12255
▁प्राणिनां	-12256
▁प्राप्तये	-12257
▁प्राविशत्	-12258
▁प्रोत्साह	-12259
▁बुध्यन्ते	-12260
▁मार्गदर्श	-12261
▁विश्वसिमि	-12262
▁श्मशानादु	-12263
▁सर्वाधिका	-12264
▁सहस्रसेना	-12265
▁स्वस्मिन्	-12266
▁अणुसङ्केते	-12267
▁उत्थापयेत्	-12268
▁एकमुदाहरणं	-12269
▁चित्रचालनं	-12270
▁नियन्त्रणं	-12271
▁प्रत्युत्त	-12272
▁प्रवेष्टुं	-12273
▁प्राप्स्यथ	-12274
▁प्रारम्भिक	-12275
▁प्रेरितान्	-12276
▁ब्रेकेट्स्	-12277
▁योजितवन्तः	-12278
▁र्भवितव्यं	-12279
▁विद्यमानाः	-12280
▁showDetails	-12281
▁दक्षिणनोदनं	-12282
▁दक्षिणहस्तं	-12283
▁नियुक्तवान्	-12284
▁न्यूनीकरोमि	-12285
▁वाद्ययन्त्र	-12286
▁शिक्षितवन्त	-12287
▁सर्व्वेभ्यो	-12288
▁प्रत्यवादीत्	-12289
▁प्रातिकूल्येन	-12290
▁अन्तर्जालसम्पर्	-12291
▁भविष्यद्वादिनां	-12292
-1	-12293
./	-12294
AN	-12295
BI	-12296
nu	-12297
मृ	-12298
ूय	-12299
ोड	-12300
,,"	-12301
CBI	-12302
Out	-12303
bar	-12304
bin	-12305
bon	-12306
col	-12307
cut	-12308
day	-12309
eat	-12310
ene	-12311
ery	-12312
igh	-12313
isk	-12314
lay	-12315
lse	-12316
xml	-12317
ync	-12318
आंख	-12319
एस्	-12320
कटि	-12321
किम	-12322
गते	-12323
जनक	-12324
थों	-12325
दया	-12326
नयो	-12327
नाथ	-12328
नैः	-12329
पवद	-12330
फिल	-12331
मति	-12332
मेण	-12333
याच	-12334
लेट	-12335
वनं	-12336
श्म	-12337
सुख	-12338
हति	-12339
ारण	-12340
ीतं	-12341
ोति	-12342
्य़	-12343
▁Ab	-12344
▁Id	-12345
▁cp	-12346
▁sp	-12347
▁इत	-12348
▁इय	-12349
▁चत	-12350
▁जे	-12351
▁तट	-12352
▁धर	-12353
▁वध	-12354
▁हत	-12355
Cont	-12356
Post	-12357
Save	-12358
arch	-12359
cast	-12360
ideo	-12361
orts	-12362
sort	-12363
ulti	-12364
usic	-12365
काया	-12366
कोर्	-12367
ङ्गा	-12368
चरणं	-12369
त्ती	-12370
दिस्	-12371
नक्ष	-12372
नानक	-12373
पातं	-12374
पादा	-12375
पुरा	-12376
फ़्र	-12377
भद्र	-12378
भावः	-12379
भिलष	-12380
भूतः	-12381
भूति	-12382
मिकं	-12383
मैस्	-12384
यञ्च	-12385
यानि	-12386
रात्	-12387
रीया	-12388
र्णा	-12389
र्हो	-12390
लानि	-12391
ल्लो	-12392
वंशे	-12393
वारम	-12394
शङ्क	-12395
श्या	-12396
सम्य	-12397
सूचक	-12398
स्यं	-12399
ादपि	-12400
ालेख	-12401
ासन्	-12402
ृश्य	-12403
ैकेन	-12404
▁Are	-12405
▁Plu	-12406
▁Red	-12407
▁Vol	-12408
▁eng	-12409
▁pwd	-12410
▁अटल	-12411
▁अरण	-12412
▁आइए	-12413
▁आगम	-12414
▁ऋजु	-12415
▁एतै	-12416
▁दधि	-12417
▁पिद	-12418
▁फसल	-12419
▁फ़ा	-12420
▁बेह	-12421
▁ममै	-12422
▁मरण	-12423
▁मैं	-12424
▁मोह	-12425
▁यति	-12426
▁ययौ	-12427
▁रीढ	-12428
▁सोढ	-12429
Check	-12430
ading	-12431
ancel	-12432
aster	-12433
icker	-12434
ilter	-12435
imple	-12436
ments	-12437
ponse	-12438
rough	-12439
urtle	-12440
utton	-12441
अस्ति	-12442
एक्स्	-12443
एतेषु	-12444
करोमि	-12445
कीबात	-12446
कुमार	-12447
क्रोध	-12448
तृतीय	-12449
त्मना	-12450
धारिण	-12451
निन्द	-12452
नेत्र	-12453
न्त्य	-12454
न्याः	-12455
पूर्त	-12456
मह्यं	-12457
मादाय	-12458
माहूय	-12459
मूल्य	-12460
यितुम	-12461
युञ्ज	-12462
रुपरि	-12463
र्जुन	-12464
र्ब्ब	-12465
र्श्य	-12466
ल्मीक	-12467
विषयं	-12468
सन्तु	-12469
सैज़्	-12470
ानामा	-12471
ानिशं	-12472
ालस्य	-12473
ावस्थ	-12474
ीयस्य	-12475
ेतान्	-12476
ोक्सि	-12477
▁Draw	-12478
▁Rolf	-12479
▁Unit	-12480
▁back	-12481
▁bank	-12482
▁grid	-12483
▁more	-12484
▁अण्ड	-12485
▁अवधि	-12486
▁अवसर	-12487
▁अव्य	-12488
▁आङ्ग	-12489
▁आचरण	-12490
▁आद्य	-12491
▁आधिक	-12492
▁ईदृश	-12493
▁उसके	-12494
▁ऊपरी	-12495
▁कच्छ	-12496
▁कैसे	-12497
▁ख्या	-12498
▁गाढं	-12499
▁गुजर	-12500
▁गेर्	-12501
▁चिबु	-12502
▁जनकः	-12503
▁तज्ज	-12504
▁तत्स	-12505
▁देवं	-12506
▁धार्	-12507
▁पाठः	-12508
▁पोषक	-12509
▁फलतः	-12510
▁ब्री	-12511
▁भवतो	-12512
▁भुजा	-12513
▁यामः	-12514
▁रखते	-12515
▁वदसि	-12516
▁वहति	-12517
▁शिरो	-12518
▁शेल्	-12519
▁सबसे	-12520
▁सीधे	-12521
ources	-12522
vanced	-12523
अन्यथा	-12524
अस्मिन	-12525
क्लियो	-12526
क्लोरो	-12527
गामिनो	-12528
टिविटि	-12529
त्वञ्च	-12530
दारभ्य	-12531
देशाद्	-12532
पेलेट्	-12533
पोर्ट्	-12534
भावस्य	-12535
माणस्य	-12536
रास्ते	-12537
र्जाया	-12538
र्म्मः	-12539
लेषनल्	-12540
समुद्र	-12541
सर्वर्	-12542
स्वरेण	-12543
ामध्ये	-12544
ायाञ्च	-12545
िकाश्च	-12546
ृत्तिः	-12547
ोऽस्मि	-12548
▁Clone	-12549
▁Frame	-12550
▁Green	-12551
▁Login	-12552
▁Value	-12553
▁ratio	-12554
▁short	-12555
▁slide	-12556
▁अंगों	-12557
▁अकौंट	-12558
▁अङ्कु	-12559
▁अयमेव	-12560
▁अवसरं	-12561
▁अस्मद	-12562
▁आग्रि	-12563
▁आशिया	-12564
▁ऋग्वे	-12565
▁कमप्य	-12566
▁कोशिश	-12567
▁क्रीण	-12568
▁गम्भी	-12569
▁त्रयः	-12570
▁ददर्श	-12571
▁दायें	-12572
▁दुःखं	-12573
▁धनुषा	-12574
▁धूम्र	-12575
▁ध्याय	-12576
▁निदेश	-12577
▁नोदनं	-12578
▁पक्षि	-12579
▁पक्षी	-12580
▁पश्यथ	-12581
▁पातुं	-12582
▁पौलम्	-12583
▁प्रेश	-12584
▁भगवतः	-12585
▁भावये	-12586
▁भीष्म	-12587
▁मध्या	-12588
▁मनोबल	-12589
▁रजोगु	-12590
▁लिंक्	-12591
▁लेकिन	-12592
▁वश्या	-12593
▁विजयं	-12594
▁विनीय	-12595
▁सजीवा	-12596
▁सदृशं	-12597
▁सीमां	-12598
▁सोरसी	-12599
▁स्थलं	-12600
▁स्थले	-12601
▁स्वकर	-12602
▁ऽस्ति	-12603
nection	-12604
गच्छामः	-12605
नुसारेण	-12606
न्नत्वच	-12607
प्रदर्श	-12608
प्रदेशं	-12609
मनकीबात	-12610
विषयेषु	-12611
ान्तस्य	-12612
ास्माकं	-12613
▁dialog	-12614
▁person	-12615
▁stroke	-12616
▁अतोऽहं	-12617
▁अद्भुत	-12618
▁अध्याय	-12619
▁अवकाशं	-12620
▁अवस्था	-12621
▁अस्मात	-12622
▁उपारोप	-12623
▁एकलव्य	-12624
▁एवञ्चच	-12625
▁करणञ्च	-12626
▁कार्ये	-12627
▁कुड्मं	-12628
▁कृतस्य	-12629
▁चक्रुः	-12630
▁चार्ज्	-12631
▁जर्नल्	-12632
▁डिफैन्	-12633
▁तादृशो	-12634
▁तृतीयं	-12635
▁त्वमपि	-12636
▁निर्दे	-12637
▁नेशनल्	-12638
▁नोड्स्	-12639
▁परिमित	-12640
▁परिवेष	-12641
▁पीलातो	-12642
▁प्रतिप	-12643
▁फार्म्	-12644
▁बढ़ाता	-12645
▁भजनगृह	-12646
▁भोजनपा	-12647
▁मङ्गलं	-12648
▁मुक्ति	-12649
▁मुखस्य	-12650
▁यिशयिय	-12651
▁युक्ता	-12652
▁राजानं	-12653
▁रीनेम्	-12654
▁वानराः	-12655
▁विचारः	-12656
▁विचारो	-12657
▁वेश्या	-12658
▁शिक्षण	-12659
▁शैतान्	-12660
▁श्रुतः	-12661
▁श्वसनम	-12662
▁सन्धिं	-12663
▁साधारण	-12664
▁सानन्द	-12665
▁सूक्ष्	-12666
▁स्वल्प	-12667
कार्षीत्	-12668
पङ्क्तिं	-12669
पाठनियोज	-12670
विकल्पाः	-12671
स्वच्छता	-12672
ीकर्तुम्	-12673
ुक्तवान्	-12674
▁Control	-12675
▁English	-12676
▁GenBank	-12677
▁Mozilla	-12678
▁execute	-12679
▁seddemo	-12680
▁summary	-12681
▁अनुसारं	-12682
▁अवनयामि	-12683
▁आगच्छन्	-12684
▁करिष्यथ	-12685
▁केषांचन	-12686
▁चत्वारः	-12687
▁चिह्नेन	-12688
▁जातमिति	-12689
▁तत्कृते	-12690
▁तादृशम्	-12691
▁त्यजामः	-12692
▁दरिद्रे	-12693
▁दृष्टम्	-12694
▁धातूनां	-12695
▁नानाप्र	-12696
▁नासरतीय	-12697
▁निश्चयं	-12698
▁परिणामः	-12699
▁प्रगल्भ	-12700
▁प्रेरणा	-12701
▁प्रोटीन	-12702
▁मानवस्य	-12703
▁यथेष्टं	-12704
▁रोगाणां	-12705
▁लक्ष्यं	-12706
▁लूपाकार	-12707
▁विकल्पौ	-12708
▁विपरीतं	-12709
▁शिशूनां	-12710
▁सत्यमेव	-12711
▁सन्तीति	-12712
▁समर्पित	-12713
▁सस्यानि	-12714
▁सादृश्य	-12715
▁सुन्दरं	-12716
▁सुस्थिर	-12717
Configure	-12718
निमित्तम्	-12719
र्म्माचार	-12720
विकल्पान्	-12721
▁Addition	-12722
▁Currency	-12723
▁Gradient	-12724
▁Training	-12725
▁selected	-12726
▁अत्युत्त	-12727
▁आगतोस्मि	-12728
▁आप्षन्स्	-12729
▁आरम्भात्	-12730
▁उच्यन्ते	-12731
▁उदाहरणेन	-12732
▁उपस्थिति	-12733
▁एजुकेशन्	-12734
▁कस्याप्य	-12735
▁कूटशब्दं	-12736
▁कृतमस्ति	-12737
▁कृष्णस्य	-12738
▁ताडासनम्	-12739
▁दिवानिशं	-12740
▁दौर्ब्बल	-12741
▁नुदित्वा	-12742
▁पृष्टस्य	-12743
▁प्रयासाः	-12744
▁बुद्ध्वा	-12745
▁भंक्त्वा	-12746
▁भार्य्या	-12747
▁महायाजको	-12748
▁मेरुरज्ज	-12749
▁र्भूत्वा	-12750
▁वर्तमानं	-12751
▁विकल्पम्	-12752
▁विशिष्टं	-12753
▁शिक्षयति	-12754
▁समर्थितं	-12755
▁सेकेण्ड्	-12756
▁स्मृत्वा	-12757
क्रिमेण्ट्	-12758
क्षेत्रस्य	-12759
▁localhost	-12760
▁आवश्यक्ता	-12761
▁आश्चर्य्य	-12762
▁इत्यस्माद	-12763
▁इत्यस्यां	-12764
▁ज्ञातव्यं	-12765
▁द्वितीयम्	-12766
▁पक्षाघाति	-12767
▁प्रदूषितं	-12768
▁प्रविष्टे	-12769
▁भाषितवान्	-12770
▁भ्रातृणां	-12771
▁राष्ट्रीय	-12772
▁वदन्नस्ति	-12773
▁वाष्पोत्स	-12774
▁शान्तिश्च	-12775
▁शिमोन्पित	-12776
▁सङ्गणकस्य	-12777
▁समापयितुं	-12778
प्रक्रियाया	-12779
याञ्चक्रिरे	-12780
▁Cataloging	-12781
▁Preference	-12782
▁अन्तर्जाले	-12783
▁अस्तीत्यतः	-12784
▁इतोप्यधिकं	-12785
▁इत्यादिनां	-12786
▁उपाध्यायाः	-12787
▁कर्त्तव्यः	-12788
▁कर्म्माण्य	-12789
▁दर्शितवान्	-12790
▁दुष्कर्म्म	-12791
▁निम्नलिखित	-12792
▁निर्मितानि	-12793
▁निश्चिनोति	-12794
▁मध्येमन्दि	-12795
▁लिखितमस्ति	-12796
▁वदिष्यन्ति	-12797
▁विसिटिङ्ग्	-12798
▁स्ट्रक्चर्	-12799
▁स्वशरीरस्य	-12800
ओवर्लोडिङ्ग्	-12801
▁प्रश्नार्थक	-12802
▁यीशुस्तेषां	-12803
▁व्यवस्थापनं	-12804
▁सङ्गृह्णाति	-12805
▁स्थापयितुम्	-12806
▁subscription	-12807
▁इत्यस्यारम्भ	-12808
▁एक्स्टेन्शन्	-12809
▁ग्रेडियेण्ट्	-12810
▁दर्शयिष्यामि	-12811
▁प्रकाशिष्यते	-12812
▁प्रार्थयध्वं	-12813
▁भारतसर्वकारः	-12814
▁मनःपरिवर्त्त	-12815
▁संवादपेटिकां	-12816
भविष्यद्वादिना	-12817
▁कर्तुमर्हन्ति	-12818
▁कर्तुमिच्छामि	-12819
▁प्राप्स्यन्ति	-12820
▁वक्तुमारेभिरे	-12821
▁विकल्पस्योपरि	-12822
▁अधिकज्ञानार्थं	-12823
▁आवश्यकतानुसारं	-12824
▁द्वादशसहस्राणि	-12825
▁अधोनिर्दिष्टानि	-12826
).	-12827
:’	-12828
:”	-12829
LE	-12830
NU	-12831
चं	-12832
टू	-12833
दै	-12834
शौ	-12835
ुष	-12836
123	-12837
808	-12838
App	-12839
Can	-12840
Man	-12841
eam	-12842
fir	-12843
gle	-12844
ita	-12845
oom	-12846
ref	-12847
uto	-12848
wer	-12849
ंग्	-12850
आप्	-12851
एन्	-12852
कण्	-12853
क्ख	-12854
दां	-12855
धीश	-12856
नाड	-12857
पिस	-12858
भोज	-12859
माथ	-12860
यल्	-12861
यैव	-12862
रीट	-12863
रुण	-12864
र्ख	-12865
लीश	-12866
षधि	-12867
समू	-12868
ानम	-12869
ासो	-12870
ूलि	-12871
ैको	-12872
▁''	-12873
▁-"	-12874
▁0.	-12875
▁7.	-12876
▁Ag	-12877
▁Gu	-12878
▁La	-12879
▁am	-12880
▁गग	-12881
▁गज	-12882
▁तब	-12883
▁नु	-12884
▁पण	-12885
▁भै	-12886
Java	-12887
alse	-12888
book	-12889
firm	-12890
ivil	-12891
wing	-12892
गामी	-12893
ग्नि	-12894
ग्स्	-12895
चरति	-12896
जगति	-12897
तस्थ	-12898
नशील	-12899
नाना	-12900
न्तन	-12901
पराव	-12902
पुरं	-12903
बटन्	-12904
बिल्	-12905
भवतः	-12906
भवम्	-12907
मानव	-12908
मिमम	-12909
मीबा	-12910
म्भे	-12911
येयु	-12912
रिक्	-12913
र्नि	-12914
ल्पः	-12915
वासं	-12916
व्ये	-12917
शिनो	-12918
ष्ये	-12919
सैन्	-12920
स्तै	-12921
ऽहम्	-12922
ुद्य	-12923
ृणां	-12924
ेश्च	-12925
ोचन्	-12926
्यहं	-12927
्रहं	-12928
▁Key	-12929
▁RGB	-12930
▁Rup	-12931
▁std	-12932
▁val	-12933
▁अकर	-12934
▁असु	-12935
▁असे	-12936
▁आम्	-12937
▁एस्	-12938
▁कंप	-12939
▁करु	-12940
▁चाय	-12941
▁तवा	-12942
▁नैज	-12943
▁बदल	-12944
▁बीच	-12945
▁मटी	-12946
▁रथं	-12947
▁लौट	-12948
▁वात	-12949
▁वेत	-12950
▁शाप	-12951
▁सृज	-12952
▁स्फ	-12953
alled	-12954
becky	-12955
creen	-12956
email	-12957
hicle	-12958
ixels	-12959
orrow	-12960
piral	-12961
umbai	-12962
अन्तः	-12963
काष्ठ	-12964
टिंग्	-12965
त्रये	-12966
धिकम्	-12967
ध्येत	-12968
न्युः	-12969
परमाण	-12970
पुरस्	-12971
फलस्य	-12972
भागेन	-12973
मर्स्	-12974
माणेन	-12975
यीशुः	-12976
युताः	-12977
योग्य	-12978
रणयोः	-12979
रेक्ट	-12980
र्जनी	-12981
र्जीव	-12982
र्थतो	-12983
र्हति	-12984
लानां	-12985
विधान	-12986
वृत्य	-12987
वेश्य	-12988
शरीरं	-12989
संसाध	-12990
सर्च्	-12991
स्पदं	-12992
िकाभि	-12993
ीकरणे	-12994
ुपयोग	-12995
ूनाम्	-12996
▁....	-12997
▁Bond	-12998
▁comp	-12999
▁crop	-13000
▁drop	-13001
▁kern	-13002
▁sign	-13003
▁अप्र	-13004
▁अयम्	-13005
▁आगतः	-13006
▁उज्ज	-13007
▁उभयो	-13008
▁खङ्ग	-13009
▁खुशी	-13010
▁गतिं	-13011
▁गमनं	-13012
▁गवां	-13013
▁गृही	-13014
▁जननं	-13015
▁जनेन	-13016
▁जनैः	-13017
▁तच्छ	-13018
▁ताकि	-13019
▁दासः	-13020
▁नर्त	-13021
▁पशुप	-13022
▁प्रब	-13023
▁फलति	-13024
▁बाऐं	-13025
▁ब्रौ	-13026
▁भवसि	-13027
▁महास	-13028
▁मेदि	-13029
▁ययुः	-13030
▁यावद	-13031
▁रोमि	-13032
▁र्जन	-13033
▁र्दु	-13034
▁लभते	-13035
▁लाइन	-13036
▁लेस्	-13037
▁वरम्	-13038
▁वसनं	-13039
▁विपथ	-13040
▁विलु	-13041
▁व्यु	-13042
▁शेषं	-13043
▁श्रे	-13044
▁सायं	-13045
▁स्या	-13046
▁ऽन्य	-13047
aneous	-13048
ension	-13049
iscell	-13050
python	-13051
क्ष्मा	-13052
गृहस्य	-13053
ङ्गेषु	-13054
दिनश्च	-13055
द्वारं	-13056
नीयानि	-13057
नुसारं	-13058
पर्व्व	-13059
भावात्	-13060
मित्या	-13061
रियबल्	-13062
र्वादं	-13063
लरेशन्	-13064
वांश्च	-13065
श्चेति	-13066
श्वासं	-13067
सहस्रं	-13068
स्त्री	-13069
ाण्यपि	-13070
ामेकां	-13071
ारुह्य	-13072
▁Basic	-13073
▁Front	-13074
▁Table	-13075
▁Total	-13076
▁entry	-13077
▁lampp	-13078
▁linux	-13079
▁setup	-13080
▁अवस्थ	-13081
▁आरभते	-13082
▁उभयोः	-13083
▁करणेन	-13084
▁कुष्ठ	-13085
▁कोहनी	-13086
▁चंद्र	-13087
▁चेहरे	-13088
▁जन्तव	-13089
▁झुकने	-13090
▁तदन्त	-13091
▁ताम्र	-13092
▁दत्ते	-13093
▁नवीनं	-13094
▁निपुण	-13095
▁पालनं	-13096
▁पेटिक	-13097
▁प्रबल	-13098
▁बनाता	-13099
▁बालकौ	-13100
▁भारती	-13101
▁भुजंग	-13102
▁भृत्य	-13103
▁मस्तक	-13104
▁महापु	-13105
▁महोदय	-13106
▁मृतगण	-13107
▁रामेण	-13108
▁र्लोक	-13109
▁वयञ्च	-13110
▁वर्गे	-13111
▁वर्त्	-13112
▁वर्षा	-13113
▁श्रोत	-13114
▁श्वान	-13115
▁संक्र	-13116
▁सज्जन	-13117
▁सदृशा	-13118
▁समिते	-13119
▁साध्य	-13120
▁हन्ता	-13121
Chooser	-13122
General	-13123
address	-13124
guments	-13125
करणकाले	-13126
कोऽस्ति	-13127
क्रियते	-13128
क्लिप्स	-13129
ज्ञानाय	-13130
ण्डल्स्	-13131
दूतानां	-13132
पेक्षित	-13133
प्रदेशः	-13134
भिरुचित	-13135
मारुह्य	-13136
र्त्त्य	-13137
श्चतुर्	-13138
सन्देशः	-13139
सेप्शन्	-13140
स्थसमित	-13141
स्वास्थ	-13142
हस्तस्य	-13143
ऽस्माकं	-13144
ाकारस्य	-13145
ात्मानं	-13146
ार्थमहं	-13147
ावश्यकं	-13148
ीशुद्धि	-13149
▁Change	-13150
▁Colour	-13151
▁Custom	-13152
▁Export	-13153
▁Multip	-13154
▁Mumbai	-13155
▁Object	-13156
▁Remove	-13157
▁Return	-13158
▁layers	-13159
▁report	-13160
▁अनुभूय	-13161
▁अहन्तु	-13162
▁इतस्तत	-13163
▁इत्थम्	-13164
▁करणीयम	-13165
▁कीदृक्	-13166
▁कीदृशी	-13167
▁कृष्णा	-13168
▁क्रोधं	-13169
▁गतिविध	-13170
▁गरिष्ठ	-13171
▁गीतानि	-13172
▁गुणान्	-13173
▁ज्ञाता	-13174
▁टेब्स्	-13175
▁तत्काल	-13176
▁दत्तम्	-13177
▁नवाचार	-13178
▁निन्दा	-13179
▁निष्कल	-13180
▁नेत्रं	-13181
▁पुरुषा	-13182
▁प्रणाम	-13183
▁प्रसाद	-13184
▁प्रारे	-13185
▁प्रियं	-13186
▁प्लास्	-13187
▁फोण्ट्	-13188
▁बच्चों	-13189
▁मानवाः	-13190
▁मिनिट्	-13191
▁मुक्ता	-13192
▁यतध्वं	-13193
▁योग्यं	-13194
▁रक्षतु	-13195
▁रात्री	-13196
▁र्माम्	-13197
▁र्यीशो	-13198
▁लैब्रे	-13199
▁वयमेकं	-13200
▁विश्वे	-13201
▁संयमेन	-13202
▁सम्राट	-13203
▁साध्यं	-13204
▁सुतरां	-13205
▁सुधारं	-13206
▁स्ट्रे	-13207
▁हतवान्	-13208
Terminal	-13209
ashboard	-13210
कण्डीशन्	-13211
गच्छन्ति	-13212
नोपयोक्त	-13213
पूर्वमेव	-13214
मात्मानं	-13215
मूल्यानि	-13216
याञ्चकार	-13217
विश्वासि	-13218
▁Classes	-13219
▁Palette	-13220
▁Welcome	-13221
▁अक्सीजन	-13222
▁अदृश्यं	-13223
▁अधुनाहं	-13224
▁अपमार्ज	-13225
▁अभिनन्द	-13226
▁अवश्यम्	-13227
▁अवादीत्	-13228
▁आगच्छत्	-13229
▁इच्छामः	-13230
▁उपग्रहा	-13231
▁एतेषाम्	-13232
▁कार्याल	-13233
▁क्रीडका	-13234
▁गवाक्षं	-13235
▁गृह्लीत	-13236
▁चलचित्र	-13237
▁चिन्तयत	-13238
▁जायमानं	-13239
▁जिज्ञास	-13240
▁दत्तानि	-13241
▁द्वयमपि	-13242
▁निक्षेप	-13243
▁निर्दोष	-13244
▁पङ्क्ति	-13245
▁पञ्चमहा	-13246
▁पाठमिदं	-13247
▁पोइण्ट्	-13248
▁प्रकृते	-13249
▁प्रदाता	-13250
▁प्रभावं	-13251
▁प्रमुखा	-13252
▁प्रशंसा	-13253
▁फंक्षन्	-13254
▁फुस्फुस	-13255
▁भाण्डाग	-13256
▁भावयामि	-13257
▁यन्त्रं	-13258
▁यात्रां	-13259
▁युज्यते	-13260
▁वाक्येन	-13261
▁वाणिज्य	-13262
▁विकीर्ण	-13263
▁व्यवहार	-13264
▁संस्कार	-13265
▁सङ्कलनं	-13266
▁सम्पत्त	-13267
▁सम्पद्य	-13268
▁साधनस्य	-13269
▁सारांशः	-13270
▁सेनापति	-13271
orizontal	-13272
चत्वारिंश	-13273
पर्यन्तम्	-13274
मनुसर्तुं	-13275
वृक्षाणां	-13276
▁Generate	-13277
▁अङ्गुष्ठ	-13278
▁अस्मदीया	-13279
▁आवृत्तेः	-13280
▁आहूतवान्	-13281
▁इत्यर्थः	-13282
▁इदानीमपि	-13283
▁ऐसोमर्स्	-13284
▁करणार्थं	-13285
▁कर्म्मणि	-13286
▁काञ्चित्	-13287
▁कैश्चित्	-13288
▁कोमेण्ट्	-13289
▁क्रीडाया	-13290
▁गवाक्षम्	-13291
▁चितमस्ति	-13292
▁टण्कयामि	-13293
▁टिप्पणीं	-13294
▁दिनाङ्कः	-13295
▁नमस्कारः	-13296
▁पङ्क्तेः	-13297
▁परीक्षां	-13298
▁परीक्षित	-13299
▁पूर्णतया	-13300
▁पोइण्टर्	-13301
▁प्रतिकूल	-13302
▁भगवद्गीत	-13303
▁मध्यभागे	-13304
▁रासायनिक	-13305
▁लक्षणानि	-13306
▁वक्ष्यति	-13307
▁वर्द्धते	-13308
▁वस्तूनां	-13309
▁विनियोगं	-13310
▁विस्तरेण	-13311
▁संस्कृति	-13312
▁सञ्चिकया	-13313
▁सन्तानाः	-13314
▁सम्बद्धं	-13315
▁हठयोगस्य	-13316
liographic	-13317
एप्लिकेशन्	-13318
निर्माणस्य	-13319
प्रोग्राम्	-13320
प्रोजेक्ट्	-13321
▁अस्मभ्यम्	-13322
▁आत्मनिर्भ	-13323
▁इब्राहीमो	-13324
▁एक्टिविटि	-13325
▁ओपरेटर्स्	-13326
▁कण्ट्रोल्	-13327
▁चालयित्वा	-13328
▁तत्कर्तुं	-13329
▁दृष्टवन्त	-13330
▁धार्म्मिक	-13331
▁नाशक्नोत्	-13332
▁निर्माणाय	-13333
▁निवेदयामि	-13334
▁पूर्वोक्त	-13335
▁प्रकल्पाय	-13336
▁प्रचारयन्	-13337
▁प्रतिलेखं	-13338
▁प्रोच्चैः	-13339
▁भुक्तवान्	-13340
▁मुद्रकस्य	-13341
▁यावत्कालं	-13342
▁यीशुरुवाच	-13343
▁युधिष्ठिर	-13344
▁शतसेनापति	-13345
▁श्वेतवर्ण	-13346
▁सकारात्मक	-13347
▁सर्वेषाम्	-13348
▁स्टैपण्ड्	-13349
▁स्वादिष्ट	-13350
अवलोक्यताम्	-13351
▁Categories	-13352
▁descriptor	-13353
▁अष्टाध्याय	-13354
▁इत्येतादृश	-13355
▁कफर्नाहूम्	-13356
▁चिन्तयन्ति	-13357
▁ज्ञापयध्वं	-13358
▁डाइआक्साइड	-13359
▁तत्क्षणाद्	-13360
▁निर्मान्ति	-13361
▁निष्कासयेत	-13362
▁बैक्टीरिया	-13363
▁लिखितवन्तः	-13364
▁व्यक्तित्व	-13365
▁श्रुतवन्तः	-13366
▁संयोजितुम्	-13367
▁स्थितवन्तः	-13368
▁स्प्रष्टुं	-13369
▁स्वीकर्तुं	-13370
iscellaneous	-13371
द्विसहस्रतमे	-13372
▁एकस्मिन्नेव	-13373
▁किञ्चिदधिकं	-13374
▁निम्नलिखिता	-13375
▁प्रोक्तवान्	-13376
▁रक्तवर्णस्य	-13377
▁विद्यमानान्	-13378
▁स्थानान्तरं	-13379
▁प्रत्यर्पयति	-13380
▁समर्पयिष्यते	-13381
▁स्थापितवन्तः	-13382
▁इत्यस्योपयोगं	-13383
▁पूर्व्वपुरुषा	-13384
▁इत्यादिविषयान्	-13385
▁पाठनियोजनमस्ति	-13386
▁प्रोग्रामिङ्ग्	-13387
▁आर्ग्युमेण्ट्स्	-13388
.-	-13389
:?	-13390
LT	-13391
PE	-13392
RO	-13393
vg	-13394
vi	-13395
आत	-13396
गं	-13397
मस	-13398
िए	-13399
ीब	-13400
Int	-13401
Rec	-13402
SSN	-13403
adi	-13404
aps	-13405
ipe	-13406
med	-13407
set	-13408
sql	-13409
yan	-13410
ynt	-13411
ंगा	-13412
इमं	-13413
इमे	-13414
जां	-13415
तरा	-13416
तुम	-13417
दत्	-13418
नाल	-13419
पशु	-13420
प्स	-13421
फोट	-13422
बिट	-13423
भीत	-13424
याद	-13425
योष	-13426
लाट	-13427
वधि	-13428
वीर	-13429
शैल	-13430
ालय	-13431
ृतो	-13432
ेतं	-13433
ेशा	-13434
ोपि	-13435
▁00	-13436
▁IT	-13437
▁चौ	-13438
▁रग	-13439
▁लक	-13440
Open	-13441
Xfig	-13442
ared	-13443
clud	-13444
ired	-13445
mark	-13446
miss	-13447
page	-13448
unch	-13449
ward	-13450
अस्म	-13451
कौशल	-13452
गणेन	-13453
चर्च	-13454
चिता	-13455
तद्व	-13456
थेन्	-13457
दीयो	-13458
धूसर	-13459
नेके	-13460
न्नः	-13461
पत्य	-13462
पितृ	-13463
फ्ट्	-13464
मीटर	-13465
मूलं	-13466
मेका	-13467
मोन्	-13468
रिदं	-13469
र्पण	-13470
र्षप	-13471
लेस्	-13472
वरोह	-13473
वसत्	-13474
वाहि	-13475
विधा	-13476
श्चि	-13477
श्रो	-13478
संघट	-13479
हीनं	-13480
हेक्	-13481
ातार	-13482
ादाय	-13483
ान्न	-13484
ीभूत	-13485
ीयां	-13486
ेद्य	-13487
ेषूप	-13488
ैरल्	-13489
ोर्ड	-13490
▁1.1	-13491
▁ALT	-13492
▁Del	-13493
▁End	-13494
▁Net	-13495
▁Out	-13496
▁She	-13497
▁can	-13498
▁com	-13499
▁etc	-13500
▁non	-13501
▁opt	-13502
▁www	-13503
▁अपा	-13504
▁अयम	-13505
▁अशृ	-13506
▁असि	-13507
▁आसी	-13508
▁एफ्	-13509
▁एवम	-13510
▁किन	-13511
▁गगण	-13512
▁गहन	-13513
▁ग्ल	-13514
▁चैत	-13515
▁जन्	-13516
▁तिर	-13517
▁नयन	-13518
▁नाल	-13519
▁नीत	-13520
▁फन्	-13521
▁बें	-13522
▁भुं	-13523
▁भूय	-13524
▁भैष	-13525
▁याद	-13526
▁लवण	-13527
▁लौह	-13528
▁शाट	-13529
▁सुन	-13530
▁सौर	-13531
asure	-13532
caten	-13533
ebugg	-13534
fully	-13535
valid	-13536
yntax	-13537
करस्य	-13538
करोतु	-13539
कारकं	-13540
टिकां	-13541
टेबल्	-13542
तंत्र	-13543
तस्या	-13544
दुग्ध	-13545
नासिक	-13546
पोषकत	-13547
भ्योऽ	-13548
यन्ती	-13549
यितुः	-13550
रियम्	-13551
र्तते	-13552
र्थतः	-13553
लिख्य	-13554
वर्षे	-13555
वेष्ट	-13556
श्वसन	-13557
सदृशं	-13558
सदृशा	-13559
सीमां	-13560
स्तदा	-13561
िनानि	-13562
ीकर्त	-13563
ैल्शि	-13564
ोचितं	-13565
्रिये	-13566
्रीम्	-13567
▁-"""	-13568
▁8080	-13569
▁Copy	-13570
▁Disc	-13571
▁JPEG	-13572
▁Turn	-13573
▁blur	-13574
▁have	-13575
▁next	-13576
▁time	-13577
▁zero	-13578
▁अखिल	-13579
▁अपरे	-13580
▁अशोक	-13581
▁इससे	-13582
▁ईष्क	-13583
▁उदरं	-13584
▁एकोऽ	-13585
▁कालो	-13586
▁कीलक	-13587
▁कुशल	-13588
▁गणेश	-13589
▁गाढत	-13590
▁गुरू	-13591
▁चञ्च	-13592
▁चरणौ	-13593
▁जैतु	-13594
▁टेक्	-13595
▁तदुप	-13596
▁तमहं	-13597
▁ददति	-13598
▁द्रौ	-13599
▁ध्रु	-13600
▁नेनो	-13601
▁पुष्	-13602
▁पूजन	-13603
▁प्रप	-13604
▁बीजं	-13605
▁भावा	-13606
▁मतिः	-13607
▁मनोऽ	-13608
▁मरणं	-13609
▁महार	-13610
▁मुनि	-13611
▁मोचय	-13612
▁मोडि	-13613
▁रखना	-13614
▁रीढ़	-13615
▁लेवि	-13616
▁वदन्	-13617
▁व्री	-13618
▁शुचि	-13619
▁सतर्	-13620
▁सभां	-13621
▁समाद	-13622
▁सम्भ	-13623
▁सुखं	-13624
▁सेतु	-13625
▁होना	-13626
Detail	-13627
arithm	-13628
umbers	-13629
इत्याद	-13630
उबण्टु	-13631
कारिणः	-13632
क्ष्यथ	-13633
दुत्तर	-13634
द्धेतो	-13635
द्ध्यै	-13636
द्वचनं	-13637
धार्म्	-13638
नम्बर्	-13639
नामानं	-13640
नाम्नि	-13641
पादपान	-13642
प्राणि	-13643
फ़ैयर्	-13644
ब्दस्य	-13645
भित्ति	-13646
भ्राता	-13647
मन्यते	-13648
ष्यामि	-13649
सप्तति	-13650
समाप्त	-13651
सेल्स्	-13652
स्पेस्	-13653
स्मर्य	-13654
स्यामः	-13655
ाणाञ्च	-13656
ानुकूल	-13657
ान्त्र	-13658
ारोहत्	-13659
ीयताम्	-13660
ेन्द्र	-13661
ोत्साह	-13662
▁Email	-13663
▁Tools	-13664
▁align	-13665
▁arrow	-13666
▁first	-13667
▁maths	-13668
▁names	-13669
▁order	-13670
▁proxy	-13671
▁अग्रत	-13672
▁अच्छा	-13673
▁अच्छी	-13674
▁अजायत	-13675
▁अन्यः	-13676
▁अवचित	-13677
▁अवधान	-13678
▁अश्वा	-13679
▁अस्थि	-13680
▁आदेशा	-13681
▁इतोपि	-13682
▁उत्सव	-13683
▁उपदिश	-13684
▁उभयतः	-13685
▁एकमपि	-13686
▁कथाया	-13687
▁कपटिन	-13688
▁करतलं	-13689
▁काटने	-13690
▁कियती	-13691
▁केचित	-13692
▁क्षमा	-13693
▁क्षिप	-13694
▁घुटने	-13695
▁छोडें	-13696
▁देखते	-13697
▁देखने	-13698
▁धर्मा	-13699
▁नवेति	-13700
▁नूनम्	-13701
▁पापम्	-13702
▁पोषणं	-13703
▁प्रसा	-13704
▁बनाएं	-13705
▁बरब्ब	-13706
▁बहिष्	-13707
▁भयात्	-13708
▁मण्डल	-13709
▁मनुजो	-13710
▁महर्ष	-13711
▁महानि	-13712
▁मिषन्	-13713
▁शक्ते	-13714
▁शिष्ट	-13715
▁शृणुथ	-13716
▁श्रवण	-13717
▁सूपर्	-13718
▁हृदये	-13719
▁होंगे	-13720
Message	-13721
Student	-13722
ispatch	-13723
orrowed	-13724
uestion	-13725
अग्रिमं	-13726
इत्यत्र	-13727
ओप्टिमै	-13728
खण्डस्य	-13729
च्छात्र	-13730
णाचार्य	-13731
त्तिष्ठ	-13732
दिशायां	-13733
द्रव्या	-13734
द्वाक्य	-13735
पार्ष्ण	-13736
पुस्तके	-13737
प्रकल्प	-13738
बद्धानि	-13739
मन्त्रि	-13740
महोदयेन	-13741
मार्गेण	-13742
मित्यतः	-13743
रुपयोगं	-13744
शक्त्या	-13745
ष्यन्ते	-13746
स्तस्मै	-13747
स्त्वया	-13748
ाद्वयम्	-13749
ान्वितं	-13750
ीकृतानि	-13751
▁Launch	-13752
▁Levels	-13753
▁Repeat	-13754
▁blocks	-13755
▁effect	-13756
▁अंशान्	-13757
▁अददात्	-13758
▁अनायास	-13759
▁आकुञ्च	-13760
▁इमेजस्	-13761
▁ऋणात्म	-13762
▁ऐच्छिक	-13763
▁ऐटम्स्	-13764
▁कीदृशं	-13765
▁कुर्यु	-13766
▁कृषकाः	-13767
▁गान्धि	-13768
▁गुरुतर	-13769
▁गृहेषु	-13770
▁गोचराः	-13771
▁जायमान	-13772
▁जीवितव	-13773
▁डिग्री	-13774
▁तत्रोप	-13775
▁तमवदत्	-13776
▁तस्माद	-13777
▁त्वदीय	-13778
▁दीपावल	-13779
▁नियमों	-13780
▁पात्रं	-13781
▁पादपान	-13782
▁पितरम्	-13783
▁पेलेट्	-13784
▁प्रजात	-13785
▁प्रतीक	-13786
▁प्रभूत	-13787
▁फलानां	-13788
▁फेफडों	-13789
▁बन्धनं	-13790
▁ब्रेक्	-13791
▁भीमसेन	-13792
▁भोजनाय	-13793
▁मित्रं	-13794
▁मेमोरि	-13795
▁यादृशं	-13796
▁यीशुम्	-13797
▁योजितं	-13798
▁रचयामः	-13799
▁र्यूयं	-13800
▁लोकेषु	-13801
▁वाञ्छा	-13802
▁वायुना	-13803
▁वार्लि	-13804
▁विद्यत	-13805
▁विवर्ध	-13806
▁विष्णो	-13807
▁वेय्ट्	-13808
▁श्रोतृ	-13809
▁सदृशाः	-13810
▁सन्ताप	-13811
▁सम्प्र	-13812
▁सर्वम्	-13813
▁सर्वैः	-13814
▁साधनेन	-13815
▁सिखरिय	-13816
▁सूचितं	-13817
▁सैन्स्	-13818
▁स्वीया	-13819
▁स्वेषु	-13820
▁हिन्दु	-13821
Download	-13822
arithmic	-13823
database	-13824
ebugging	-13825
कार्येषु	-13826
केन्वास्	-13827
द्वितीयः	-13828
पुरस्सरं	-13829
पूर्ववत्	-13830
बयोपैथन्	-13831
भवद्भ्यः	-13832
महोदयस्य	-13833
वस्थायां	-13834
शास्त्रे	-13835
श्चास्ति	-13836
संधारिका	-13837
स्मरन्तु	-13838
ुद्रायां	-13839
▁Current	-13840
▁Default	-13841
▁History	-13842
▁Process	-13843
▁orgname	-13844
▁private	-13845
▁section	-13846
▁sharpen	-13847
▁through	-13848
▁अग्रिमे	-13849
▁अङ्गानि	-13850
▁अनुभवति	-13851
▁अनुशासन	-13852
▁अन्येषु	-13853
▁आकाशस्य	-13854
▁एकैकस्य	-13855
▁एतादृशा	-13856
▁एतावदेव	-13857
▁कर्षयेत	-13858
▁कुर्युः	-13859
▁केषाञ्च	-13860
▁गोलाकार	-13861
▁चिन्तां	-13862
▁ज्ञानेन	-13863
▁तत्वानि	-13864
▁त्वत्तो	-13865
▁दम्मेषक	-13866
▁दृष्टाः	-13867
▁निर्जीव	-13868
▁पतञ्जलि	-13869
▁पवित्रो	-13870
▁पुरोदेश	-13871
▁प्रवेशं	-13872
▁बध्नाति	-13873
▁मनःपराव	-13874
▁मानवान्	-13875
▁रङ्गानि	-13876
▁रचनात्म	-13877
▁वर्गस्य	-13878
▁वामकोणे	-13879
▁विदधाति	-13880
▁विनान्य	-13881
▁विपक्षा	-13882
▁विशेषतः	-13883
▁वेण्डर्	-13884
▁शीर्षकं	-13885
▁श्रूयते	-13886
▁श्वेतेन	-13887
▁संयोज्य	-13888
▁सकाशात्	-13889
▁समूहस्य	-13890
▁सुग्रीव	-13891
▁सोरसीदो	-13892
▁हनुमान्	-13893
अस्यार्थः	-13894
एक्लिप्स्	-13895
मिष्यन्ति	-13896
वर्षेभ्यः	-13897
ानुग्रहेण	-13898
▁Evolutes	-13899
▁Language	-13900
▁feedback	-13901
▁instance	-13902
▁location	-13903
▁redirect	-13904
▁showData	-13905
▁अनुग्रहं	-13906
▁अविश्वास	-13907
▁आगच्छामि	-13908
▁आवृत्तिं	-13909
▁इदानीमेव	-13910
▁उत्पन्नं	-13911
▁एतादृशीं	-13912
▁कार्य्ये	-13913
▁कैसरियान	-13914
▁चिह्नानि	-13915
▁ट्रान्से	-13916
▁त्यजन्तु	-13917
▁द्वारस्य	-13918
▁पठितवन्त	-13919
▁परीक्षणं	-13920
▁पृथिवीनि	-13921
▁प्याकेज्	-13922
▁प्रकोष्ठ	-13923
▁प्रसार्य	-13924
▁प्रहृत्य	-13925
▁प्रेरितः	-13926
▁भ्रातृन्	-13927
▁युष्मन्म	-13928
▁रचनात्मक	-13929
▁लभ्यन्ते	-13930
▁विद्युत्	-13931
▁विश्वसित	-13932
▁वृत्तस्य	-13933
▁व्याहरत्	-13934
▁श्रेष्ठं	-13935
▁संगीतस्य	-13936
▁संस्कृतौ	-13937
▁समीपवासि	-13938
▁सामर्थ्य	-13939
▁सूत्रस्य	-13940
▁स्लैड्स्	-13941
क्लियोटैड्	-13942
सङ्ख्यायाः	-13943
▁Statement	-13944
▁attribute	-13945
▁अनुसरन्तु	-13946
▁अन्तरिक्ष	-13947
▁अस्योपयोग	-13948
▁आज्ञाग्रा	-13949
▁कोन्फ़िगर	-13950
▁जावामध्ये	-13951
▁द्रक्ष्यथ	-13952
▁नामाङ्कनं	-13953
▁पर्यन्तम्	-13954
▁पृष्ठबलेन	-13955
▁प्राप्नुम	-13956
▁भ्रातरश्च	-13957
▁म्रियन्ते	-13958
▁वज्रचूर्ण	-13959
▁वर्धयितुं	-13960
▁वाक्यमिदं	-13961
▁विद्यमानः	-13962
▁विवरणानां	-13963
▁वैशिष्ट्य	-13964
▁शिष्याणां	-13965
▁संस्थायाः	-13966
▁सन्देशस्य	-13967
▁स्थितवान्	-13968
न्निमित्तम्	-13969
▁saturation	-13970
▁अपेक्षिताः	-13971
▁कृतवानस्ति	-13972
▁क्रियाकलाप	-13973
▁गमिष्यन्ति	-13974
▁ग्रन्थालये	-13975
▁डेस्क्टोप्	-13976
▁तन्नुदन्तु	-13977
▁तर्जयित्वा	-13978
▁त्वमुत्थाय	-13979
▁पङ्क्त्याः	-13980
▁परिवर्तयाम	-13981
▁प्रधानयाजक	-13982
▁प्राजेक्ट्	-13983
▁मेषशावकस्य	-13984
▁यीशुरकथयद्	-13985
▁संधारिकाया	-13986
▁सर्वप्रथमं	-13987
▁सर्व्वस्वं	-13988
▁सहायकमस्ति	-13989
▁सामर्थ्यम्	-13990
प्रक्रियायां	-13991
▁application	-13992
▁description	-13993
▁आत्मविश्वास	-13994
▁आवश्यकमस्ति	-13995
▁उपदिष्टवान्	-13996
▁प्रतिक्रिया	-13997
▁प्रेषयितुम्	-13998
▁युष्मत्कृते	-13999
▁व्याहृतवान्	-14000
▁श्वसनाभ्यास	-14001
▁सर्व्वेभ्यः	-14002
अग्रिमपङ्क्तौ	-14003
▁प्राप्तमस्ति	-14004
▁इन्क्रिमेण्ट्	-14005
▁किन्त्विदानीं	-14006
▁दत्तांशप्रकार	-14007
▁यिरूशालम्नगरं	-14008
▁उपयोक्तुमर्हति	-14009
▁कर्तुमिच्छन्ति	-14010
▁इत्यत्रोपलभ्यते	-14011
▁सर्व्वाण्येतानि	-14012
'.	-14013
):	-14014
2,	-14015
30	-14016
7.	-14017
Dr	-14018
HI	-14019
UB	-14020
aa	-14021
by	-14022
ll	-14023
ma	-14024
ya	-14025
अण	-14026
अध	-14027
टच	-14028
डर	-14029
नर	-14030
वम	-14031
शन	-14032
षः	-14033
षल	-14034
हौ	-14035
/01	-14036
IDE	-14037
RNA	-14038
bed	-14039
box	-14040
ere	-14041
gre	-14042
nuh	-14043
par	-14044
uit	-14045
ume	-14046
xcf	-14047
एतत	-14048
कन्	-14049
केण	-14050
गौर	-14051
जलं	-14052
टाप	-14053
णोः	-14054
तास	-14055
परम	-14056
बहि	-14057
मंड	-14058
ममे	-14059
मिष	-14060
यवस	-14061
रतु	-14062
र्भ	-14063
वात	-14064
शब्	-14065
शर्	-14066
सब्	-14067
सरा	-14068
साह	-14069
ागम	-14070
ाणा	-14071
िणा	-14072
ींच	-14073
ीला	-14074
ीषु	-14075
ूषे	-14076
्ता	-14077
▁?”	-14078
▁Fl	-14079
▁PO	-14080
▁Ve	-14081
▁ऋष	-14082
▁दर	-14083
Path	-14084
This	-14085
asta	-14086
atel	-14087
entr	-14088
iled	-14089
main	-14090
orks	-14091
ther	-14092
ures	-14093
आत्म	-14094
उत्स	-14095
केचन	-14096
क्या	-14097
गवेष	-14098
घातं	-14099
च्छद	-14100
ञ्जन	-14101
टाप्	-14102
टिति	-14103
टैप्	-14104
दिनो	-14105
दिशि	-14106
दृशा	-14107
देवः	-14108
द्मि	-14109
नाशी	-14110
नेति	-14111
न्यु	-14112
न्ये	-14113
पुरे	-14114
पूरण	-14115
प्लै	-14116
मतिं	-14117
मिहि	-14118
मोड्	-14119
यतां	-14120
रूपी	-14121
र्जी	-14122
र्ता	-14123
लोग्	-14124
ल्ली	-14125
वसाय	-14126
शारी	-14127
श्ट्	-14128
समुद	-14129
सर्ज	-14130
सीमा	-14131
ाच्च	-14132
ामही	-14133
ारूढ	-14134
ास्व	-14135
ितवृ	-14136
ीकार	-14137
ुद्व	-14138
ैच्छ	-14139
्लन्	-14140
▁---	-14141
▁255	-14142
▁5.5	-14143
▁64-	-14144
▁Act	-14145
▁Cal	-14146
▁END	-14147
▁Jan	-14148
▁Mac	-14149
▁Pub	-14150
▁ins	-14151
▁rel	-14152
▁sur	-14153
▁असा	-14154
▁इसी	-14155
▁कथय	-14156
▁कपि	-14157
▁कया	-14158
▁काय	-14159
▁कोप	-14160
▁घृत	-14161
▁जोर	-14162
▁तज्	-14163
▁तरु	-14164
▁धूप	-14165
▁निम	-14166
▁नेत	-14167
▁पाच	-14168
▁फले	-14169
▁मनस	-14170
▁मेध	-14171
▁रत्	-14172
▁रवो	-14173
▁वयः	-14174
▁वेध	-14175
▁हिम	-14176
▁ह्र	-14177
,,"""	-14178
Email	-14179
FASTA	-14180
econd	-14181
faces	-14182
fasta	-14183
gines	-14184
ithme	-14185
layer	-14186
ttach	-14187
कत्वं	-14188
कारणं	-14189
कार्ब	-14190
कालम्	-14191
कृतयः	-14192
केवलं	-14193
गोचरे	-14194
ग्मुः	-14195
च्चार	-14196
णकाले	-14197
ताश्च	-14198
त्तमे	-14199
दानाय	-14200
निंग्	-14201
निर्ग	-14202
न्तिम	-14203
न्नम्	-14204
फलितं	-14205
ब्रीय	-14206
भाषां	-14207
भुक्त	-14208
मण्ड्	-14209
मुपरि	-14210
म्परि	-14211
येयुः	-14212
र्द्व	-14213
वत्यः	-14214
विध्य	-14215
विशति	-14216
वेद्य	-14217
शिष्ठ	-14218
श्रेण	-14219
सैन्य	-14220
स्तिं	-14221
ापराध	-14222
ायापि	-14223
ारब्ध	-14224
ालङ्घ	-14225
ावान्	-14226
्याहं	-14227
्युतो	-14228
▁BOSS	-14229
▁Blue	-14230
▁Comm	-14231
▁Exit	-14232
▁Land	-14233
▁Mole	-14234
▁line	-14235
▁role	-14236
▁sequ	-14237
▁sort	-14238
▁आनंद	-14239
▁आवास	-14240
▁उनकी	-14241
▁उनके	-14242
▁उपास	-14243
▁ऋतीय	-14244
▁एताव	-14245
▁ऐश्व	-14246
▁कक्ष	-14247
▁करणम	-14248
▁कस्ट	-14249
▁कालि	-14250
▁केपि	-14251
▁कैसर	-14252
▁क्रय	-14253
▁गुणव	-14254
▁जंगल	-14255
▁जन्य	-14256
▁जाति	-14257
▁डेमो	-14258
▁तैलं	-14259
▁थ्री	-14260
▁दासे	-14261
▁धीमी	-14262
▁नोन्	-14263
▁पञ्ज	-14264
▁पराग	-14265
▁पाकं	-14266
▁पिक्	-14267
▁पुट्	-14268
▁बहूप	-14269
▁बालः	-14270
▁भवेम	-14271
▁भावः	-14272
▁भृशं	-14273
▁मण्ड	-14274
▁मद्य	-14275
▁मातु	-14276
▁मासे	-14277
▁मोडे	-14278
▁रखने	-14279
▁र्जग	-14280
▁लवणं	-14281
▁लेखन	-14282
▁वापस	-14283
▁वायौ	-14284
▁विजय	-14285
▁विभव	-14286
▁शवास	-14287
▁शेर्	-14288
▁शैली	-14289
▁सफला	-14290
▁सुले	-14291
▁हन्त	-14292
Create	-14293
efined	-14294
formed	-14295
nuhata	-14296
vision	-14297
उत्पाद	-14298
कल्पना	-14299
गन्तुं	-14300
तत्त्व	-14301
त्मानं	-14302
द्व्वा	-14303
नगरस्य	-14304
निर्वह	-14305
पश्चाद	-14306
पाठस्य	-14307
पेक्षा	-14308
बीजानि	-14309
मार्गे	-14310
युष्मा	-14311
लक्ष्म	-14312
ल्युमि	-14313
वेल्यू	-14314
व्यञ्च	-14315
श्चैते	-14316
ष्यामः	-14317
संगीते	-14318
सम्पुट	-14319
स्टेट्	-14320
स्वर्ग	-14321
ादीनां	-14322
ीक्रिय	-14323
ेक्टर्	-14324
ोत्थाप	-14325
्तवान्	-14326
्यमानं	-14327
▁10.04	-14328
▁14.04	-14329
▁4.3.1	-14330
▁Fixed	-14331
▁Libre	-14332
▁Navig	-14333
▁Paint	-14334
▁Trash	-14335
▁doGet	-14336
▁parse	-14337
▁scope	-14338
▁width	-14339
▁अभूत्	-14340
▁अमीबा	-14341
▁अश्रौ	-14342
▁आकृतौ	-14343
▁आगम्य	-14344
▁आत्मन	-14345
▁आलस्य	-14346
▁इत्वा	-14347
▁ईदृशं	-14348
▁उठाऐं	-14349
▁कथयित	-14350
▁करेगा	-14351
▁कर्णी	-14352
▁कर्णौ	-14353
▁कलङ्क	-14354
▁कीर्त	-14355
▁कुपोष	-14356
▁क्यों	-14357
▁क्षुध	-14358
▁खनिजं	-14359
▁खादति	-14360
▁खोलें	-14361
▁ग्रहा	-14362
▁चारों	-14363
▁जन्तु	-14364
▁जायां	-14365
▁झटिति	-14366
▁टर्मि	-14367
▁तच्छि	-14368
▁ततश्च	-14369
▁तद्वा	-14370
▁दुष्क	-14371
▁निकटं	-14372
▁नियमः	-14373
▁नुदन्	-14374
▁पत्नी	-14375
▁प्रमा	-14376
▁फीष्ट	-14377
▁बनाऐं	-14378
▁बायें	-14379
▁बालकं	-14380
▁भूमीं	-14381
▁भैष्ट	-14382
▁मदीयं	-14383
▁मधुरं	-14384
▁मानवं	-14385
▁मेलनं	-14386
▁योगसू	-14387
▁योहना	-14388
▁रक्तम	-14389
▁लिङ्क	-14390
▁लेखनी	-14391
▁वापिस	-14392
▁विधिक	-14393
▁विनैव	-14394
▁विवरी	-14395
▁विषयम	-14396
▁विषया	-14397
▁शिशुं	-14398
▁शृङ्ख	-14399
▁श्रीम	-14400
▁सखायः	-14401
▁सरदार	-14402
▁सर्व्	-14403
▁सहायो	-14404
▁सहितं	-14405
▁सोढुं	-14406
▁स्नेह	-14407
▁स्यात	-14408
▁स्वेन	-14409
▁हस्ता	-14410
▁हैफन्	-14411
Element	-14412
actions	-14413
crement	-14414
duction	-14415
ections	-14416
reshold	-14417
क्तवान्	-14418
क्रियाः	-14419
च्यन्ते	-14420
टोरियल्	-14421
द्वयमपि	-14422
परीक्षा	-14423
मात्रया	-14424
यथार्थं	-14425
वश्यकम्	-14426
विविशुः	-14427
सुसंवाद	-14428
स्तस्या	-14429
स्थलस्य	-14430
ानेतान्	-14431
ान्तरम्	-14432
ितवत्यः	-14433
ितास्ते	-14434
ीकरणस्य	-14435
▁Arrays	-14436
▁Jframe	-14437
▁Layers	-14438
▁Record	-14439
▁folder	-14440
▁handle	-14441
▁output	-14442
▁script	-14443
▁spiral	-14444
▁अङ्कनी	-14445
▁अज्ञात	-14446
▁अधिकम्	-14447
▁अधिकाः	-14448
▁अनन्तर	-14449
▁अलिखत्	-14450
▁आञ्जने	-14451
▁आनन्दं	-14452
▁आरभन्त	-14453
▁इत्ययं	-14454
▁इब्रीय	-14455
▁उद्घोष	-14456
▁ऐतिहास	-14457
▁कबन्धं	-14458
▁कार्ड्	-14459
▁कीलानि	-14460
▁गर्द्द	-14461
▁गुजरात	-14462
▁ग्रह्ण	-14463
▁जनकराग	-14464
▁तत्तत्	-14465
▁तर्जनी	-14466
▁तादृग्	-14467
▁तावदेव	-14468
▁तुलनां	-14469
▁दत्ताः	-14470
▁दायूदो	-14471
▁दूतस्य	-14472
▁पच्यते	-14473
▁परिधाय	-14474
▁परिपाल	-14475
▁पश्यन्	-14476
▁पाठमिद	-14477
▁पाठयति	-14478
▁पाणिनि	-14479
▁पापानि	-14480
▁पुण्यं	-14481
▁फुप्फु	-14482
▁भक्ताः	-14483
▁भोजनम्	-14484
▁मूत्रा	-14485
▁मूलभूत	-14486
▁मृत्यो	-14487
▁मृषासा	-14488
▁वाक्पट	-14489
▁विशेषं	-14490
▁शिवस्य	-14491
▁शिष्यो	-14492
▁शुद्धं	-14493
▁श्रवणं	-14494
▁श्रुता	-14495
▁सत्यपि	-14496
▁समन्वय	-14497
▁स्तरम्	-14498
▁स्थानी	-14499
▁स्पर्ध	-14500
▁स्वादु	-14501
ithmetic	-14502
missions	-14503
piration	-14504
कराचार्य	-14505
ण्टिङ्ग्	-14506
ण्डिङ्ग्	-14507
नमस्कारः	-14508
नीयमस्ति	-14509
पेक्षितं	-14510
फङ्क्षन्	-14511
भ्यन्तरं	-14512
व्यमस्ति	-14513
स्तद्वद्	-14514
ान्विताः	-14515
▁Actions	-14516
▁Correct	-14517
▁Overlay	-14518
▁Section	-14519
▁Vehicle	-14520
▁catalog	-14521
▁element	-14522
▁invoice	-14523
▁project	-14524
▁tabular	-14525
▁अधिकतया	-14526
▁अन्तिमा	-14527
▁अन्यान्	-14528
▁ईर्ष्या	-14529
▁उक्तवान	-14530
▁एतेभ्यः	-14531
▁कर्मयोग	-14532
▁कीर्त्त	-14533
▁कूर्चाः	-14534
▁कूर्परौ	-14535
▁कोलम्स्	-14536
▁कोष्ठकं	-14537
▁क्रियां	-14538
▁क्लिष्ट	-14539
▁क्षमतां	-14540
▁गृह्लन्	-14541
▁ग्रीवां	-14542
▁चिन्तनं	-14543
▁जनयितुं	-14544
▁जानन्तु	-14545
▁तत्त्वं	-14546
▁दशरथस्य	-14547
▁दीप्तिं	-14548
▁द्रव्यं	-14549
▁धर्म्मा	-14550
▁नापेक्ष	-14551
▁नामकरणं	-14552
▁नितंबों	-14553
▁निरंतरं	-14554
▁निर्दिश	-14555
▁नौकायाः	-14556
▁परावर्त	-14557
▁पर्याये	-14558
▁पिधातुं	-14559
▁पृथ्वीं	-14560
▁प्रणम्य	-14561
▁प्रतीदं	-14562
▁प्रयोगः	-14563
▁फिल्टर्	-14564
▁भजनभवने	-14565
▁भीमसरटा	-14566
▁भूमिकां	-14567
▁भ्रान्त	-14568
▁मनुष्यो	-14569
▁मिलन्ति	-14570
▁मूर्द्ध	-14571
▁मृत्युः	-14572
▁रचितानि	-14573
▁रेखायाः	-14574
▁वाल्मीक	-14575
▁विचित्र	-14576
▁वीक्ष्य	-14577
▁सञ्जाता	-14578
▁सर्वमपि	-14579
▁सिद्धिं	-14580
▁स्थापनं	-14581
▁स्थिताः	-14582
▁स्वाधीन	-14583
कीलफलकस्य	-14584
क्रियाणां	-14585
दृष्टान्त	-14586
पेटिकायां	-14587
मीश्वरस्य	-14588
शास्त्रीय	-14589
संधारिकां	-14590
स्मर्यतां	-14591
▁Contents	-14592
▁Document	-14593
▁Greeting	-14594
▁checkout	-14595
▁response	-14596
▁अङ्गानां	-14597
▁अन्यस्मै	-14598
▁अन्विष्य	-14599
▁अवश्यकता	-14600
▁आग्रिप्प	-14601
▁उंगलियाँ	-14602
▁उदाहरणैः	-14603
▁उपसर्पणं	-14604
▁एक्लिप्स	-14605
▁एतादृश्य	-14606
▁कथयितुम्	-14607
▁कथितायां	-14608
▁किन्त्वे	-14609
▁कुर्म्मः	-14610
▁कुल्हाडी	-14611
▁क्रीणाति	-14612
▁गमनागमने	-14613
▁ग्रहाणां	-14614
▁चतुर्णां	-14615
▁चिकित्सा	-14616
▁चिन्तितं	-14617
▁छात्रान्	-14618
▁डेटाटैप्	-14619
▁तत्क्षणं	-14620
▁तदर्थमेव	-14621
▁दिनाङ्के	-14622
▁नेत्राणि	-14623
▁परस्मिन्	-14624
▁पारम्परि	-14625
▁पुरस्कार	-14626
▁प्रणमामि	-14627
▁प्रतस्थे	-14628
▁प्रतिपाद	-14629
▁प्रदूषणं	-14630
▁प्रसन्ना	-14631
▁प्रादात्	-14632
▁मनुजसुतः	-14633
▁माहेश्वर	-14634
▁यतस्तस्य	-14635
▁लोकास्तं	-14636
▁वर्णमाला	-14637
▁वर्धन्ते	-14638
▁वाञ्छामि	-14639
▁वार्त्ता	-14640
▁विन्यासं	-14641
▁विश्वसिथ	-14642
▁संयोजनाय	-14643
▁सन्तुलित	-14644
▁हानिकारक	-14645
सञ्चिकायाः	-14646
▁dashboard	-14647
▁testScore	-14648
▁आशीर्वादं	-14649
▁चेश्वरस्य	-14650
▁छात्राणां	-14651
▁ज्ञातवान्	-14652
▁तावत्कालं	-14653
▁तूर्य्यां	-14654
▁निर्मितम्	-14655
▁परिगण्यते	-14656
▁परिभ्रमणं	-14657
▁पुरस्तात्	-14658
▁प्रकाशितो	-14659
▁प्रयुक्ता	-14660
▁प्रयोजनम्	-14661
▁प्रशिक्षक	-14662
▁प्राणवायु	-14663
▁मयाश्रावि	-14664
▁मेरुदण्डं	-14665
▁यतस्तेषां	-14666
▁युवाभ्यां	-14667
▁वाक्यानां	-14668
▁विविधानां	-14669
▁श्रुतवान्	-14670
▁श्लोकानां	-14671
▁संयोजयामि	-14672
▁सम्पादयति	-14673
▁सम्पूर्णा	-14674
▁सुनिश्चित	-14675
प्रकारकाणां	-14676
्यूमेण्ट्स्	-14677
▁properties	-14678
▁अवचित्यापि	-14679
▁आध्यात्मिक	-14680
▁उपयोक्तारं	-14681
▁एक्सेप्शन्	-14682
▁चिन्तयन्तु	-14683
▁जालपुटमिदं	-14684
▁डिक्लरेशन्	-14685
▁तत्सर्व्वं	-14686
▁त्याजयितुं	-14687
▁दर्शनार्थं	-14688
▁दीर्घवृत्त	-14689
▁धृतराष्ट्र	-14690
▁नानाप्रकार	-14691
▁निष्कासयाम	-14692
▁परीक्ष्यते	-14693
▁प्रचार्य्य	-14694
▁प्रतिकृतिः	-14695
▁प्रत्यवदद्	-14696
▁प्रत्याशां	-14697
▁प्रत्याहार	-14698
▁बृहदक्षरैः	-14699
▁विकल्पानां	-14700
▁विश्वासात्	-14701
▁विश्वासिनः	-14702
▁विश्वासिनो	-14703
▁वृत्तान्तं	-14704
▁संयोजयितुं	-14705
▁सञ्चिकानाम	-14706
▁सन्धारिकां	-14707
▁साम्प्रतम्	-14708
▁सुसंवादस्य	-14709
▁स्टुडेण्ट्	-14710
▁स्थानान्तर	-14711
▁स्वभ्रातरं	-14712
निर्माणार्थं	-14713
▁LibreOffice	-14714
▁उपयुञ्जामहे	-14715
▁उपयोक्तृनाम	-14716
▁उपस्थितवान्	-14717
▁परिशीलयितुं	-14718
▁प्रार्थयन्त	-14719
प्राप्त्यर्थं	-14720
▁निर्गच्छन्ति	-14721
▁प्रार्थयितुं	-14722
▁संस्थापयितुं	-14723
..............	-14724
▁Administrator	-14725
▁administrator	-14726
▁अनुभविष्यन्ति	-14727
▁रिक्तस्थानानि	-14728
▁administration	-14729
▁एक्स्प्रेश्शन्	-14730
▁कार्बोहाइड्रेट	-14731
▁प्रत्युदितवान्	-14732
▁...............	-14733
▁साहाय्यमाचरन्ति	-14734
25	-14735
60	-14736
91	-14737
?”	-14738
EN	-14739
Op	-14740
Or	-14741
Rs	-14742
SE	-14743
SV	-14744
hs	-14745
ps	-14746
इल	-14747
चै	-14748
फं	-14749
भृ	-14750
मप	-14751
लौ	-14752
Mod	-14753
URL	-14754
acy	-14755
bal	-14756
ena	-14757
ged	-14758
hah	-14759
ips	-14760
lis	-14761
oin	-14762
try	-14763
ंसा	-14764
आरि	-14765
इड्	-14766
गरी	-14767
चरत	-14768
जिए	-14769
थिः	-14770
दूर	-14771
देह	-14772
पका	-14773
पील	-14774
पूर	-14775
फ़े	-14776
भेद	-14777
रतः	-14778
रत्	-14779
विज	-14780
विप	-14781
शक्	-14782
षां	-14783
षेद	-14784
सत्	-14785
सान	-14786
ांत	-14787
ायद	-14788
ासू	-14789
ासे	-14790
िकट	-14791
ुके	-14792
ूती	-14793
ेतः	-14794
ोकथ	-14795
ोसि	-14796
▁2,	-14797
▁Sc	-14798
▁ऊन	-14799
▁जु	-14800
▁थि	-14801
▁म्	-14802
▁रव	-14803
▁सद	-14804
20.1	-14805
Else	-14806
MENT	-14807
Show	-14808
YYYY	-14809
empl	-14810
info	-14811
अपने	-14812
कमेव	-14813
करम्	-14814
काल्	-14815
गम्य	-14816
गस्य	-14817
गीतं	-14818
ङ्गे	-14819
जैसे	-14820
ज्जग	-14821
ज्ञे	-14822
टाक्	-14823
डबल्	-14824
डेश्	-14825
डोट्	-14826
णञ्च	-14827
ताद्	-14828
थाम्	-14829
दिदं	-14830
द्यु	-14831
द्वे	-14832
नेक्	-14833
नेनो	-14834
न्दी	-14835
न्नो	-14836
न्यै	-14837
बाहू	-14838
मनसि	-14839
मर्प	-14840
मेषु	-14841
म्नः	-14842
म्मू	-14843
येति	-14844
र्तु	-14845
लभ्य	-14846
लिपि	-14847
वाणी	-14848
व्यू	-14849
शाला	-14850
शैली	-14851
ष्टु	-14852
समयं	-14853
सोल्	-14854
हन्त	-14855
हेरि	-14856
होरा	-14857
ापति	-14858
ायेन	-14859
ाश्र	-14860
ाहम्	-14861
ितुम	-14862
ितोऽ	-14863
ियल्	-14864
ीतिः	-14865
ृताः	-14866
्रिं	-14867
्वेन	-14868
▁(1)	-14869
▁2.3	-14870
▁ARG	-14871
▁Cre	-14872
▁Non	-14873
▁arr	-14874
▁car	-14875
▁cle	-14876
▁rot	-14877
▁अमो	-14878
▁आंग	-14879
▁आभि	-14880
▁आलो	-14881
▁ऋतु	-14882
▁करौ	-14883
▁कुल	-14884
▁कोम	-14885
▁गेह	-14886
▁छिन	-14887
▁जला	-14888
▁पवर	-14889
▁पिब	-14890
▁बंध	-14891
▁मति	-14892
▁मूढ	-14893
▁मोद	-14894
▁म्य	-14895
▁यदु	-14896
▁रंग	-14897
▁रही	-14898
▁वत्	-14899
▁शिल	-14900
▁शोच	-14901
▁सवि	-14902
▁सान	-14903
▁सुर	-14904
▁हिप	-14905
Gmail	-14906
Hello	-14907
ithin	-14908
lobal	-14909
lowed	-14910
space	-14911
trans	-14912
उर्वर	-14913
काङ्ग	-14914
कायां	-14915
क्तुं	-14916
ख्यान	-14917
गुणान	-14918
ग्रहः	-14919
जनेषु	-14920
जानां	-14921
ज्ञया	-14922
ण्डलं	-14923
ण्यां	-14924
तराम्	-14925
ददाति	-14926
दिशन्	-14927
दुर्ग	-14928
धान्य	-14929
ध्यान	-14930
नूतनं	-14931
न्नाः	-14932
पुरात	-14933
प्रया	-14934
प्रिय	-14935
भूतम्	-14936
भ्याम	-14937
माणाः	-14938
मेकां	-14939
म्येन	-14940
रोक्त	-14941
ल्लिख	-14942
वर्णे	-14943
वर्स्	-14944
वाञ्छ	-14945
वायुं	-14946
विवेश	-14947
श्वरो	-14948
संचरण	-14949
स्थेन	-14950
हाथों	-14951
ाग्रह	-14952
ास्ट्	-14953
िंशति	-14954
ीकुरु	-14955
ृतानि	-14956
्लाक्	-14957
्लेट्	-14958
▁Data	-14959
▁Docs	-14960
▁ISBN	-14961
▁ISSN	-14962
▁NCBI	-14963
▁area	-14964
▁down	-14965
▁pass	-14966
▁site	-14967
▁unit	-14968
▁अंगु	-14969
▁अप्य	-14970
▁अभवन	-14971
▁अभाष	-14972
▁आदाय	-14973
▁आस्त	-14974
▁औषधि	-14975
▁कपटि	-14976
▁कहते	-14977
▁कैके	-14978
▁कोमल	-14979
▁खींच	-14980
▁घटकं	-14981
▁चण्ड	-14982
▁चमत्	-14983
▁चाहं	-14984
▁चेदं	-14985
▁छाया	-14986
▁ज्वल	-14987
▁तण्ड	-14988
▁त्रप	-14989
▁त्वर	-14990
▁दशां	-14991
▁दासी	-14992
▁नायक	-14993
▁पट्ट	-14994
▁बलेन	-14995
▁भागो	-14996
▁मत्स	-14997
▁मय्य	-14998
▁महाम	-14999
▁माया	-15000
▁युयं	-15001
▁रज्ज	-15002
▁लायद	-15003
▁लोक्	-15004
▁विकि	-15005
▁विदु	-15006
▁शशां	-15007
▁शाकं	-15008
▁शिरा	-15009
▁सावर	-15010
▁सीधी	-15011
▁सुतो	-15012
▁सेप्	-15013
▁होगा	-15014
▁ऽन्ध	-15015
action	-15016
angled	-15017
lisher	-15018
output	-15019
uilder	-15020
अस्यां	-15021
कृत्वः	-15022
क्रमणं	-15023
क्रम्य	-15024
ख्यस्य	-15025
गच्छन्	-15026
गम्यते	-15027
जानाति	-15028
ज्ञाता	-15029
टूल्स्	-15030
त्रयम्	-15031
दासान्	-15032
देशात्	-15033
न्दस्य	-15034
न्यस्त	-15035
पुत्रो	-15036
पुनश्च	-15037
प्रयत्	-15038
प्रसाद	-15039
प्लोय्	-15040
बर्णब्	-15041
भियानं	-15042
मात्मा	-15043
मानान्	-15044
मानाम्	-15045
मुक्तं	-15046
यीशुना	-15047
रासीत्	-15048
वर्णाः	-15049
विषयकं	-15050
स्थायि	-15051
हिणोत्	-15052
ानामपि	-15053
ानुष्ठ	-15054
ाम्यहं	-15055
ितुञ्च	-15056
ित्वेन	-15057
ीकृतम्	-15058
ीचीनम्	-15059
ेत्तुं	-15060
ेष्यते	-15061
▁"""2.	-15062
▁Forum	-15063
▁Human	-15064
▁Input	-15065
▁Place	-15066
▁Reena	-15067
▁Staff	-15068
▁added	-15069
▁model	-15070
▁price	-15071
▁अतिरि	-15072
▁अभवाम	-15073
▁अरेस्	-15074
▁अहञ्च	-15075
▁आनयन्	-15076
▁आस्था	-15077
▁एकाकी	-15078
▁एसिड्	-15079
▁कर्णः	-15080
▁किमहं	-15081
▁कीजिए	-15082
▁क्रमो	-15083
▁गन्तु	-15084
▁गोचरे	-15085
▁चतुष्	-15086
▁तदापि	-15087
▁त्राण	-15088
▁त्वाम	-15089
▁दुर्घ	-15090
▁देशेन	-15091
▁नागरि	-15092
▁पदानि	-15093
▁पर्वत	-15094
▁पश्चि	-15095
▁प्रदद	-15096
▁बाल्य	-15097
▁बेहतर	-15098
▁भवेयं	-15099
▁भुज्य	-15100
▁भैषीः	-15101
▁भौतिक	-15102
▁मल्टि	-15103
▁मानवत	-15104
▁यदापि	-15105
▁रक्षक	-15106
▁रुधिर	-15107
▁रेफर्	-15108
▁र्यद्	-15109
▁र्व्य	-15110
▁लचीला	-15111
▁वक्ति	-15112
▁वदेत्	-15113
▁वनेषु	-15114
▁वायुं	-15115
▁विषाण	-15116
▁शुभ्र	-15117
▁षष्टि	-15118
▁सञ्जा	-15119
▁सत्या	-15120
▁सन्दि	-15121
▁सफलता	-15122
▁सम्वि	-15123
▁सरस्व	-15124
▁सामूह	-15125
▁स्यूत	-15126
"""""""	-15127
emplate	-15128
opython	-15129
testdir	-15130
इन्पुट्	-15131
ङ्गुष्ठ	-15132
चित्रम्	-15133
चिह्नम्	-15134
च्चिदान	-15135
जीवानां	-15136
ताभ्यां	-15137
त्पत्ति	-15138
त्रयस्य	-15139
धर्म्मे	-15140
नमूल्यं	-15141
नियादेश	-15142
पर्य्यन	-15143
पिष्यते	-15144
प्रत्या	-15145
प्रबन्ध	-15146
बिटल्स्	-15147
भ्रातरः	-15148
मिममनुस	-15149
मुत्पाद	-15150
संरक्षण	-15151
स्यार्थ	-15152
ात्मिका	-15153
िकायाम्	-15154
ितोस्मि	-15155
्याण्ड्	-15156
्युलार्	-15157
▁3.20.1	-15158
▁Access	-15159
▁Amount	-15160
▁Assets	-15161
▁GAMESS	-15162
▁applet	-15163
▁aspect	-15164
▁delete	-15165
▁doPost	-15166
▁engine	-15167
▁अनुगृह	-15168
▁अयोध्य	-15169
▁अवगमने	-15170
▁अहमेकं	-15171
▁आत्मिक	-15172
▁आधारेण	-15173
▁आशीर्व	-15174
▁इतीमां	-15175
▁इतीमान	-15176
▁उचितम्	-15177
▁उत्तेज	-15178
▁उपयोगि	-15179
▁एतद्वि	-15180
▁कर्षणं	-15181
▁कल्पना	-15182
▁कारणाद	-15183
▁कुड्मल	-15184
▁क्याटल	-15185
▁क्रुशं	-15186
▁खनिजलव	-15187
▁गुरुवर	-15188
▁छिद्रं	-15189
▁छोड़ने	-15190
▁झुकाऐं	-15191
▁टूल्स्	-15192
▁डोक्यु	-15193
▁तादृक्	-15194
▁तेनाहं	-15195
▁त्यजति	-15196
▁दिगन्त	-15197
▁दिनत्र	-15198
▁दृढतया	-15199
▁नगराणि	-15200
▁नयन्ति	-15201
▁नश्यति	-15202
▁नारायण	-15203
▁निजान्	-15204
▁नूतनम्	-15205
▁नैकानि	-15206
▁पतन्ति	-15207
▁पशुनां	-15208
▁पादस्य	-15209
▁पुस्तक	-15210
▁पूरयतु	-15211
▁प्रकृत	-15212
▁प्रचुर	-15213
▁प्रथमत	-15214
▁बभूवुः	-15215
▁बहुभिः	-15216
▁मजबूती	-15217
▁मासस्य	-15218
▁मुक्ते	-15219
▁मुखात्	-15220
▁यस्याः	-15221
▁राज्या	-15222
▁र्भवति	-15223
▁वचांसि	-15224
▁वस्तुन	-15225
▁वामभाग	-15226
▁वार्ता	-15227
▁व्यर्थ	-15228
▁शक्ताः	-15229
▁शक्याः	-15230
▁शाकानि	-15231
▁शिष्यौ	-15232
▁शुष्कं	-15233
▁संजाता	-15234
▁सद्भाव	-15235
▁सप्तदश	-15236
▁समर्थो	-15237
▁स्मरणे	-15238
▁स्वभार	-15239
▁हिस्सा	-15240
चिन्तयतु	-15241
त्थापितः	-15242
पङ्क्तीः	-15243
पूर्व्वं	-15244
प्रकारकं	-15245
बुध्यन्त	-15246
भिक्रिया	-15247
मिदानीम्	-15248
विज्ञानं	-15249
सहस्रनाम	-15250
स्तन्नहि	-15251
स्वरूपाः	-15252
ितमासीत्	-15253
िष्यामहे	-15254
्यार्थम्	-15255
▁January	-15256
▁Mission	-15257
▁Servlet	-15258
▁Sharpen	-15259
▁Statist	-15260
▁Summary	-15261
▁caption	-15262
▁channel	-15263
▁contain	-15264
▁details	-15265
▁regular	-15266
▁servlet	-15267
▁अपश्यत्	-15268
▁उपस्थित	-15269
▁ओक्टोबर	-15270
▁ओपनिंग्	-15271
▁कन्सोल्	-15272
▁कमेण्ट्	-15273
▁क्रुशेन	-15274
▁गणयितुं	-15275
▁गर्द्दभ	-15276
▁गुणानां	-15277
▁चालयामि	-15278
▁चित्रपट	-15279
▁जानकारी	-15280
▁जालपर्ण	-15281
▁जीवन्ति	-15282
▁दुःखभोग	-15283
▁दूरदर्श	-15284
▁धनात्मक	-15285
▁निस्तार	-15286
▁न्यूनम्	-15287
▁पर्णानि	-15288
▁पिदधातु	-15289
▁प्रभवति	-15290
▁प्रभाते	-15291
▁प्रभुणा	-15292
▁प्रभुम्	-15293
▁प्रविधि	-15294
▁प्रारंभ	-15295
▁भोजनेषु	-15296
▁भ्रातरं	-15297
▁मध्याह्	-15298
▁मृतानां	-15299
▁यच्छामि	-15300
▁यास्यति	-15301
▁रक्षितं	-15302
▁रचनायाः	-15303
▁र्विचार	-15304
▁वज्रासन	-15305
▁वर्षस्य	-15306
▁विलिख्य	-15307
▁व्याघुट	-15308
▁श्मशानं	-15309
▁संपूर्ण	-15310
▁सिङ्गल्	-15311
▁स्ट्रेच	-15312
▁हेतोरहं	-15313
विद्यार्थ	-15314
स्तिष्ठन्	-15315
▁Abstract	-15316
▁Advanced	-15317
▁Congress	-15318
▁Customer	-15319
▁Keyboard	-15320
▁National	-15321
▁Packages	-15322
▁Standard	-15323
▁abstract	-15324
▁activity	-15325
▁packages	-15326
▁purchase	-15327
▁register	-15328
▁subcateg	-15329
▁vertical	-15330
▁अन्वेष्ट	-15331
▁अपृच्छन्	-15332
▁अपेक्ष्य	-15333
▁अस्माभिर	-15334
▁आञ्जनेयः	-15335
▁कस्मिनपि	-15336
▁कस्यामपि	-15337
▁कानिचित्	-15338
▁कीलफलकम्	-15339
▁कुत्सिता	-15340
▁कुर्वन्त	-15341
▁केन्द्रे	-15342
▁क्रमाङ्क	-15343
▁गम्यताम्	-15344
▁ग्रामस्य	-15345
▁चालयितुं	-15346
▁चिन्तयति	-15347
▁चिह्नस्य	-15348
▁तदवचित्य	-15349
▁तीक्ष्णं	-15350
▁त्रयाणां	-15351
▁दर्शयामः	-15352
▁निक्षेप्	-15353
▁निर्देशं	-15354
▁निर्देशः	-15355
▁नृत्यस्य	-15356
▁पठिष्याम	-15357
▁पर्चन्यै	-15358
▁पुस्तकम्	-15359
▁पूरणीयम्	-15360
▁प्रतिनिध	-15361
▁प्रतियोग	-15362
▁प्रथमतया	-15363
▁प्रदर्शन	-15364
▁प्रशंसां	-15365
▁फिरूशिनो	-15366
▁भस्मासुर	-15367
▁युष्मत्स	-15368
▁वाक्यस्य	-15369
▁वारद्वयं	-15370
▁विविधान्	-15371
▁विशिष्टा	-15372
▁विस्तारं	-15373
▁शिथिलताड	-15374
▁शीघ्रमेव	-15375
▁संस्कृते	-15376
▁सङ्ख्यया	-15377
▁समानांतर	-15378
▁सरलरेखां	-15379
▁सर्व्वैः	-15380
▁सिंहासने	-15381
▁सुरक्षित	-15382
▁सूचयितुं	-15383
▁सूत्राणि	-15384
▁स्ट्रीम्	-15385
▁स्थानस्य	-15386
अवलोक्यतां	-15387
करणानन्तरं	-15388
डैमेन्शनल्	-15389
प्रवृत्तिं	-15390
▁exception	-15391
▁questions	-15392
▁अत्रास्ति	-15393
▁उत्पादयति	-15394
▁उद्देश्यं	-15395
▁उपयुक्तम्	-15396
▁एककोशिकीय	-15397
▁क्रीडन्ति	-15398
▁गृह्लन्ति	-15399
▁चिन्तयामः	-15400
▁तत्स्थानं	-15401
▁तन्त्रांश	-15402
▁तस्मात्ते	-15403
▁तेषामुपरि	-15404
▁दायिष्यते	-15405
▁दृश्यमानं	-15406
▁नैट्रोजन्	-15407
▁परिवर्तते	-15408
▁परिशीलयतु	-15409
▁पुष्पाणां	-15410
▁प्रकारान्	-15411
▁प्रकाशमान	-15412
▁प्रयच्छति	-15413
▁प्रीयन्ते	-15414
▁मन्त्रणां	-15415
▁मृत्तिकां	-15416
▁यीशुरवदद्	-15417
▁व्यक्तिगत	-15418
▁व्रजित्वा	-15419
▁समार्पयत्	-15420
▁सान्त्वना	-15421
▁स्पष्टतया	-15422
▁स्वीकरोमि	-15423
परिवर्तनानि	-15424
▁Extensions	-15425
▁department	-15426
▁अवगच्छन्ति	-15427
[...]
